{
  "version": "1.0",
  "truncation": null,
  "padding": null,
  "added_tokens": [
    {
      "id": 50000,
      "content": "|||IP_ADDRESS|||",
      "single_word": false,
      "lstrip": false,
      "rstrip": false,
      "normalized": true,
      "special": false
    },
    {
      "id": 50001,
      "content": "<|padding|>",
      "single_word": false,
      "lstrip": false,
      "rstrip": false,
      "normalized": false,
      "special": true
    },
    {
      "id": 50002,
      "content": "|||EMAIL_ADDRESS|||",
      "single_word": false,
      "lstrip": false,
      "rstrip": false,
      "normalized": true,
      "special": false
    },
    {
      "id": 50003,
      "content": "|||PHONE_NUMBER|||",
      "single_word": false,
      "lstrip": false,
      "rstrip": false,
      "normalized": true,
      "special": false
    },
    {
      "id": 50004,
      "content": "<|endoftext|>",
      "single_word": false,
      "lstrip": false,
      "rstrip": false,
      "normalized": false,
      "special": true
    }
  ],
  "normalizer": null,
  "pre_tokenizer": {
    "type": "Sequence",
    "pretokenizers": [
      {
        "type": "Digits",
        "individual_digits": false
      },
      {
        "type": "Split",
        "pattern": {
          "Regex": "(?=(\\d{3})+(?!\\d))"
        },
        "behavior": "Isolated",
        "invert": false
      },
      {
        "type": "ByteLevel",
        "add_prefix_space": false,
        "trim_offsets": true,
        "use_regex": false
      }
    ]
  },
  "post_processor": null,
  "decoder": null,
  "model": {
    "type": "BPE",
    "dropout": null,
    "unk_token": null,
    "continuing_subword_prefix": null,
    "end_of_word_suffix": null,
    "fuse_unk": false,
    "byte_fallback": false,
    "ignore_merges": false,
    "vocab": {
      "!": 0,
      "\"": 1,
      "#": 2,
      "$": 3,
      "%": 4,
      "&": 5,
      "'": 6,
      "(": 7,
      ")": 8,
      "*": 9,
      "+": 10,
      ",": 11,
      "-": 12,
      ".": 13,
      "/": 14,
      "0": 15,
      "1": 16,
      "2": 17,
      "3": 18,
      "4": 19,
      "5": 20,
      "6": 21,
      "7": 22,
      "8": 23,
      "9": 24,
      ":": 25,
      ";": 26,
      "<": 27,
      "=": 28,
      ">": 29,
      "?": 30,
      "@": 31,
      "A": 32,
      "B": 33,
      "C": 34,
      "D": 35,
      "E": 36,
      "F": 37,
      "G": 38,
      "H": 39,
      "I": 40,
      "J": 41,
      "K": 42,
      "L": 43,
      "M": 44,
      "N": 45,
      "O": 46,
      "P": 47,
      "Q": 48,
      "R": 49,
      "S": 50,
      "T": 51,
      "U": 52,
      "V": 53,
      "W": 54,
      "X": 55,
      "Y": 56,
      "Z": 57,
      "[": 58,
      "\\": 59,
      "]": 60,
      "^": 61,
      "_": 62,
      "`": 63,
      "a": 64,
      "b": 65,
      "c": 66,
      "d": 67,
      "e": 68,
      "f": 69,
      "g": 70,
      "h": 71,
      "i": 72,
      "j": 73,
      "k": 74,
      "l": 75,
      "m": 76,
      "n": 77,
      "o": 78,
      "p": 79,
      "q": 80,
      "r": 81,
      "s": 82,
      "t": 83,
      "u": 84,
      "v": 85,
      "w": 86,
      "x": 87,
      "y": 88,
      "z": 89,
      "{": 90,
      "|": 91,
      "}": 92,
      "~": 93,
      "¡": 94,
      "¢": 95,
      "£": 96,
      "¤": 97,
      "¥": 98,
      "¦": 99,
      "§": 100,
      "¨": 101,
      "©": 102,
      "ª": 103,
      "«": 104,
      "¬": 105,
      "®": 106,
      "¯": 107,
      "°": 108,
      "±": 109,
      "²": 110,
      "³": 111,
      "´": 112,
      "µ": 113,
      "¶": 114,
      "·": 115,
      "¸": 116,
      "¹": 117,
      "º": 118,
      "»": 119,
      "¼": 120,
      "½": 121,
      "¾": 122,
      "¿": 123,
      "Â": 124,
      "Ã": 125,
      "Ä": 126,
      "Å": 127,
      "Æ": 128,
      "Ç": 129,
      "È": 130,
      "É": 131,
      "Ê": 132,
      "Ë": 133,
      "Ì": 134,
      "Í": 135,
      "Î": 136,
      "Ï": 137,
      "Ð": 138,
      "Ñ": 139,
      "Ò": 140,
      "Ó": 141,
      "Ô": 142,
      "Õ": 143,
      "Ö": 144,
      "×": 145,
      "Ø": 146,
      "Ù": 147,
      "Ú": 148,
      "Û": 149,
      "Ü": 150,
      "Ý": 151,
      "Þ": 152,
      "ß": 153,
      "à": 154,
      "á": 155,
      "â": 156,
      "ã": 157,
      "ä": 158,
      "å": 159,
      "æ": 160,
      "ç": 161,
      "è": 162,
      "é": 163,
      "ê": 164,
      "ë": 165,
      "ì": 166,
      "í": 167,
      "î": 168,
      "ï": 169,
      "ð": 170,
      "ò": 171,
      "ó": 172,
      "ô": 173,
      "Ā": 174,
      "ā": 175,
      "Ă": 176,
      "ă": 177,
      "Ą": 178,
      "ą": 179,
      "Ć": 180,
      "ć": 181,
      "Ĉ": 182,
      "ĉ": 183,
      "Ċ": 184,
      "ċ": 185,
      "Č": 186,
      "č": 187,
      "Ď": 188,
      "ď": 189,
      "Đ": 190,
      "đ": 191,
      "Ē": 192,
      "ē": 193,
      "Ĕ": 194,
      "ĕ": 195,
      "Ė": 196,
      "ė": 197,
      "Ę": 198,
      "ę": 199,
      "Ě": 200,
      "ě": 201,
      "Ĝ": 202,
      "ĝ": 203,
      "Ğ": 204,
      "ğ": 205,
      "Ġ": 206,
      "ġ": 207,
      "Ģ": 208,
      "ģ": 209,
      "Ĥ": 210,
      "ĥ": 211,
      "Ħ": 212,
      "ħ": 213,
      "Ĩ": 214,
      "ĩ": 215,
      "Ī": 216,
      "ī": 217,
      "Ĭ": 218,
      "ĭ": 219,
      "Į": 220,
      "į": 221,
      "İ": 222,
      "ı": 223,
      "Ĳ": 224,
      "ĳ": 225,
      "Ĵ": 226,
      "ĵ": 227,
      "Ķ": 228,
      "ķ": 229,
      "ĸ": 230,
      "Ĺ": 231,
      "ĺ": 232,
      "Ļ": 233,
      "ļ": 234,
      "Ľ": 235,
      "ľ": 236,
      "Ŀ": 237,
      "ŀ": 238,
      "Ł": 239,
      "ł": 240,
      "Ń": 241,
      "Ġt": 242,
      "Ġa": 243,
      "he": 244,
      "in": 245,
      "re": 246,
      "Ġthe": 247,
      "on": 248,
      "Ġs": 249,
      "er": 250,
      "Ġw": 251,
      "at": 252,
      "Ġo": 253,
      "nd": 254,
      "Ġc": 255,
      "is": 256,
      "it": 257,
      "Ġb": 258,
      "ou": 259,
      "en": 260,
      "es": 261,
      "ing": 262,
      "or": 263,
      "Ġf": 264,
      "Ġp": 265,
      "Ġm": 266,
      "an": 267,
      "ed": 268,
      "al": 269,
      "Ġto": 270,
      "ĠĠ": 271,
      "ar": 272,
      "Ġof": 273,
      "Ġd": 274,
      "Ġin": 275,
      "Ġh": 276,
      "Ġth": 277,
      "Ġand": 278,
      "le": 279,
      "ic": 280,
      "as": 281,
      "om": 282,
      "ion": 283,
      "Ġl": 284,
      "Ġn": 285,
      "ll": 286,
      "Ġe": 287,
      "ĠI": 288,
      "ve": 289,
      "st": 290,
      "ly": 291,
      "Ġg": 292,
      "ot": 293,
      "ent": 294,
      "Ġre": 295,
      "Ġbe": 296,
      "ct": 297,
      "ut": 298,
      "ro": 299,
      "Ġy": 300,
      "Ġis": 301,
      "et": 302,
      "âĢ": 303,
      "Ġthat": 304,
      "ow": 305,
      "se": 306,
      "ĠT": 307,
      "im": 308,
      "id": 309,
      "Ġyou": 310,
      "Ġon": 311,
      "ig": 312,
      "ay": 313,
      "ad": 314,
      "Ġu": 315,
      "ce": 316,
      "Ġit": 317,
      "Ġfor": 318,
      "ver": 319,
      "ĠS": 320,
      "ld": 321,
      "am": 322,
      "ĠA": 323,
      "Ġhe": 324,
      "ur": 325,
      "Ġst": 326,
      "ch": 327,
      "ĠĠĠĠ": 328,
      "Ġwh": 329,
      "ation": 330,
      "ith": 331,
      "ir": 332,
      "Ġas": 333,
      "il": 334,
      "Âł": 335,
      "Ġan": 336,
      "Ġwe": 337,
      "ra": 338,
      "ĠC": 339,
      "Ġwith": 340,
      "ol": 341,
      "if": 342,
      "Ġha": 343,
      "ke": 344,
      "Ġ(": 345,
      "ter": 346,
      "ĠM": 347,
      "od": 348,
      "Ġare": 349,
      "her": 350,
      "ill": 351,
      "ul": 352,
      "Ġcon": 353,
      "Ġwas": 354,
      "ĠB": 355,
      "ht": 356,
      "ge": 357,
      "ĠThe": 358,
      "pe": 359,
      "ĠP": 360,
      "Ġse": 361,
      "Ġor": 362,
      "ck": 363,
      "Ġde": 364,
      "ri": 365,
      "ore": 366,
      "ate": 367,
      "ĠH": 368,
      "us": 369,
      "ĠW": 370,
      "ers": 371,
      "Ġnot": 372,
      "um": 373,
      "op": 374,
      "âĢĻ": 375,
      "ess": 376,
      "th": 377,
      "Ġcom": 378,
      "ist": 379,
      "Ġpro": 380,
      "Ġat": 381,
      "Ġex": 382,
      "Ġr": 383,
      "ab": 384,
      "ould": 385,
      "Ġhave": 386,
      "em": 387,
      "qu": 388,
      "est": 389,
      "rom": 390,
      "Ġthis": 391,
      "ant": 392,
      "ight": 393,
      "Ġne": 394,
      "Ġv": 395,
      "Ġsu": 396,
      "ĠD": 397,
      "pp": 398,
      "ain": 399,
      "Ġdo": 400,
      "un": 401,
      "os": 402,
      "Ġsh": 403,
      "res": 404,
      "ive": 405,
      "el": 406,
      "ĠR": 407,
      "and": 408,
      "ally": 409,
      "ust": 410,
      "Ġal": 411,
      "ment": 412,
      "Ġcan": 413,
      "Ġby": 414,
      "nt": 415,
      "ĠF": 416,
      "ity": 417,
      "Ġk": 418,
      "Ġfrom": 419,
      "ome": 420,
      "Ġab": 421,
      "Ġch": 422,
      "art": 423,
      "ĠG": 424,
      "out": 425,
      "Ġle": 426,
      "ĠE": 427,
      "ĠN": 428,
      "ĠâĢ": 429,
      "iv": 430,
      "ĠL": 431,
      "ies": 432,
      "Ġthey": 433,
      "ie": 434,
      "ort": 435,
      "Ġgo": 436,
      "Ġbut": 437,
      "Ġme": 438,
      "Ġso": 439,
      "Ġwor": 440,
      "Ġj": 441,
      "red": 442,
      "Ġ\"": 443,
      "all": 444,
      "Ġall": 445,
      "..": 446,
      "Ġwhe": 447,
      "ĠĠĠ": 448,
      "pt": 449,
      "ost": 450,
      "ard": 451,
      "oug": 452,
      "ak": 453,
      "Ġyour": 454,
      "ect": 455,
      "Ġhis": 456,
      "oo": 457,
      "ure": 458,
      "Ġint": 459,
      "ĠO": 460,
      "00": 461,
      "ci": 462,
      "one": 463,
      "ag": 464,
      "ĠJ": 465,
      "Ġli": 466,
      "pl": 467,
      "ast": 468,
      "ide": 469,
      "ud": 470,
      "our": 471,
      "ich": 472,
      "ĠĠĠĠĠĠĠĠ": 473,
      "ack": 474,
      "ine": 475,
      "ind": 476,
      "ther": 477,
      "Ġout": 478,
      "Ġpl": 479,
      "Ġwill": 480,
      "Ġus": 481,
      "ous": 482,
      "ong": 483,
      "Ġmy": 484,
      "The": 485,
      "ound": 486,
      "Ġ\\": 487,
      "ame": 488,
      "Ġtr": 489,
      "per": 490,
      "Ġtheir": 491,
      "og": 492,
      "Ġup": 493,
      "ions": 494,
      "Ġone": 495,
      "very": 496,
      "ff": 497,
      "act": 498,
      "ac": 499,
      "Ġhas": 500,
      "Ġabout": 501,
      "au": 502,
      "age": 503,
      "ime": 504,
      "ake": 505,
      "ans": 506,
      "Ġmore": 507,
      "Ġar": 508,
      "ĠTh": 509,
      "Ġwho": 510,
      "iz": 511,
      "ough": 512,
      "Ġlike": 513,
      "Ġen": 514,
      "ook": 515,
      "Ġim": 516,
      "ere": 517,
      "ap": 518,
      "Ġwould": 519,
      "ated": 520,
      "are": 521,
      "Ġthere": 522,
      "Ġsome": 523,
      "Ġhad": 524,
      "Ġher": 525,
      "ite": 526,
      "Ġkn": 527,
      "Ġif": 528,
      "Ġcl": 529,
      "Ġwhich": 530,
      "Ġthem": 531,
      "so": 532,
      "Ġcomp": 533,
      "Ġwhat": 534,
      "ub": 535,
      "Ġad": 536,
      "ice": 537,
      "ear": 538,
      "ue": 539,
      "Ġ-": 540,
      "Ġother": 541,
      "Ġman": 542,
      "Ġpe": 543,
      "Ġte": 544,
      "ber": 545,
      "able": 546,
      "ical": 547,
      "Ġwere": 548,
      "ĠU": 549,
      "ink": 550,
      "ven": 551,
      "Ġany": 552,
      "Ġun": 553,
      "Ġcont": 554,
      "ep": 555,
      "Ġfe": 556,
      "ÂłÂł": 557,
      "ĠY": 558,
      "Ġqu": 559,
      "cc": 560,
      "âĢĿ": 561,
      "ble": 562,
      "Ġget": 563,
      "ult": 564,
      "Ġsa": 565,
      "orm": 566,
      "ĠIt": 567,
      "Ġwhen": 568,
      "ry": 569,
      "ass": 570,
      "Ġbec": 571,
      "ose": 572,
      "ople": 573,
      "Ġjust": 574,
      "ence": 575,
      "ace": 576,
      "ays": 577,
      "Ġtime": 578,
      "oc": 579,
      "ile": 580,
      "ip": 581,
      "Ġknow": 582,
      "ance": 583,
      "Ġres": 584,
      "ary": 585,
      "ĠIn": 586,
      "ĠK": 587,
      "Ġag": 588,
      "Ġdis": 589,
      "Ġno": 590,
      "ations": 591,
      "ction": 592,
      "ach": 593,
      "int": 594,
      "Ġ$": 595,
      "Ġwork": 596,
      "ire": 597,
      "Ġpeople": 598,
      "ase": 599,
      "cl": 600,
      "ia": 601,
      "Ġbeen": 602,
      "ress": 603,
      "Ġthan": 604,
      "ause": 605,
      "reat": 606,
      "ings": 607,
      "ru": 608,
      "ang": 609,
      "ign": 610,
      "end": 611,
      "Ġshe": 612,
      "Ġinto": 613,
      "Ġsp": 614,
      "av": 615,
      "ond": 616,
      "Ġper": 617,
      "Ġhow": 618,
      "hing": 619,
      "01": 620,
      "ĠâĢľ": 621,
      "ick": 622,
      "Ġover": 623,
      "ens": 624,
      "Ġpart": 625,
      "du": 626,
      "ree": 627,
      "ory": 628,
      "vel": 629,
      "ial": 630,
      "Ġpr": 631,
      "Ġhim": 632,
      "row": 633,
      "ove": 634,
      "Ġalso": 635,
      "Ġspe": 636,
      "ord": 637,
      "ft": 638,
      "ount": 639,
      "Ġoff": 640,
      "ĠSt": 641,
      "Ġpre": 642,
      "own": 643,
      "ell": 644,
      "iff": 645,
      "Ġour": 646,
      "ition": 647,
      "Ġpo": 648,
      "Ġbl": 649,
      "nder": 650,
      "itt": 651,
      "Ġonly": 652,
      ").": 653,
      "Ġam": 654,
      "ood": 655,
      "Ġcould": 656,
      "Ġimp": 657,
      "ĠV": 658,
      "ĠĊ": 659,
      "sel": 660,
      "ath": 661,
      "--": 662,
      "Ġsc": 663,
      "Ġyear": 664,
      "ail": 665,
      "Ġbet": 666,
      "ĠHe": 667,
      "ark": 668,
      "ov": 669,
      "form": 670,
      "ĠCh": 671,
      "Ġtw": 672,
      "Ġneed": 673,
      "Ġthink": 674,
      "ors": 675,
      "ph": 676,
      "ild": 677,
      "Ġthen": 678,
      "Ġact": 679,
      "Ġapp": 680,
      "ents": 681,
      "Ġ=": 682,
      "Ġdon": 683,
      "Ġro": 684,
      "urn": 685,
      "irst": 686,
      "ob": 687,
      "ne": 688,
      "Ġdid": 689,
      "Ġbecause": 690,
      "ish": 691,
      "fter": 692,
      "Ġwant": 693,
      "xt": 694,
      "Ġco": 695,
      "hat": 696,
      "ons": 697,
      "Ġnew": 698,
      "ict": 699,
      "ces": 700,
      "Ġdiff": 701,
      "Ġsee": 702,
      "Ġback": 703,
      "uch": 704,
      "ious": 705,
      "we": 706,
      "ade": 707,
      "Ġsaid": 708,
      "ian": 709,
      "ple": 710,
      "mer": 711,
      "Ġgr": 712,
      "...": 713,
      "ater": 714,
      "te": 715,
      "Ġmay": 716,
      "Ġevery": 717,
      "ual": 718,
      "Ġits": 719,
      "hed": 720,
      "Ġeven": 721,
      "Ġthese": 722,
      "Ġway": 723,
      "Ġrec": 724,
      "10": 725,
      "ull": 726,
      "Ġmost": 727,
      "Ġunder": 728,
      "Ġlook": 729,
      "Ġmake": 730,
      "ĠThis": 731,
      ".\"": 732,
      "Ġshould": 733,
      "omet": 734,
      "Ġfl": 735,
      "ates": 736,
      "Ġdes": 737,
      "wn": 738,
      "Ġsy": 739,
      "fore": 740,
      "oy": 741,
      "Ġwhere": 742,
      "other": 743,
      "vers": 744,
      "Ġdoes": 745,
      "Ġvery": 746,
      "Ġcons": 747,
      "ject": 748,
      "ĠâĢ¢": 749,
      "Ġrel": 750,
      "Ġuse": 751,
      "Ġfirst": 752,
      "Ġmuch": 753,
      "erv": 754,
      "Ġtwo": 755,
      "Ġind": 756,
      "Ġacc": 757,
      "ib": 758,
      "Ġ\\<": 759,
      "hen": 760,
      "ise": 761,
      "Ġnow": 762,
      "Ġwr": 763,
      "Ġ[": 764,
      "rough": 765,
      "Ġcomm": 766,
      "Ġgood": 767,
      "ĠAnd": 768,
      "be": 769,
      "),": 770,
      "igh": 771,
      "ife": 772,
      "ks": 773,
      "Ġatt": 774,
      "Ġsm": 775,
      "Ġtoo": 776,
      "oss": 777,
      "ew": 778,
      "Ġph": 779,
      "ning": 780,
      "ys": 781,
      "erm": 782,
      "Ġra": 783,
      "ific": 784,
      "ually": 785,
      "ating": 786,
      "Ġmany": 787,
      "Ġbeing": 788,
      "Ġinter": 789,
      "Ġgen": 790,
      "lic": 791,
      "iss": 792,
      "ĠWe": 793,
      "Ġthrough": 794,
      "Ġem": 795,
      "Ġdiffere": 796,
      "ics": 797,
      "Ġright": 798,
      "Ġagain": 799,
      "oll": 800,
      "li": 801,
      "ĠYou": 802,
      "les": 803,
      "self": 804,
      "lect": 805,
      "ty": 806,
      "Ġwell": 807,
      "ily": 808,
      "ower": 809,
      "ting": 810,
      "Ġrem": 811,
      "Ġtra": 812,
      "Ġafter": 813,
      "Ġdown": 814,
      "aw": 815,
      "Ġbu": 816,
      "Ġob": 817,
      "ful": 818,
      "gr": 819,
      "ert": 820,
      "\\<": 821,
      "oth": 822,
      "cess": 823,
      "pect": 824,
      "Ġsuch": 825,
      "olog": 826,
      "cial": 827,
      "Ġsay": 828,
      "Ġev": 829,
      "ible": 830,
      "Ġlong": 831,
      "ced": 832,
      "ular": 833,
      "Ġinc": 834,
      "Ġke": 835,
      "Ġsomet": 836,
      "Ġthose": 837,
      "ments": 838,
      "get": 839,
      "Ġpers": 840,
      "ange": 841,
      "old": 842,
      "ĠBut": 843,
      "Ġbr": 844,
      "ock": 845,
      "aking": 846,
      "ative": 847,
      "Ġrep": 848,
      "Ġsub": 849,
      "Ġ&": 850,
      "lp": 851,
      "ec": 852,
      "the": 853,
      "ng": 854,
      "ĠIf": 855,
      "Ġsim": 856,
      "iew": 857,
      "12": 858,
      "Ġ'": 859,
      "Ġadd": 860,
      "stem": 861,
      "ĠĠĠĠĠĠĠĠĠĠĠĠĠĠĠĠ": 862,
      "Ġinv": 863,
      "Ġown": 864,
      "Ġhelp": 865,
      "Ġgu": 866,
      "Ġreally": 867,
      "Ġmod": 868,
      "Ġyears": 869,
      "ont": 870,
      "Ġeff": 871,
      "Ġbel": 872,
      "ave": 873,
      "ought": 874,
      "Ġpoint": 875,
      "Ġdef": 876,
      "Ġsame": 877,
      "alk": 878,
      "Ġbefore": 879,
      "cept": 880,
      "Ġsupp": 881,
      "Ġcall": 882,
      "Ġgoing": 883,
      "ars": 884,
      "Ġend": 885,
      "Ġread": 886,
      "ism": 887,
      "Ġdec": 888,
      "als": 889,
      "Ġreg": 890,
      "ility": 891,
      "clud": 892,
      "Th": 893,
      "Ġstart": 894,
      "Ġhere": 895,
      "ied": 896,
      "Ġstill": 897,
      "imes": 898,
      "its": 899,
      "Ġhand": 900,
      "Ġac": 901,
      "In": 902,
      "ution": 903,
      "ef": 904,
      "Ġinst": 905,
      "Ġaw": 906,
      "hes": 907,
      "Ġreal": 908,
      "ax": 909,
      "Ġsec": 910,
      "Ġused": 911,
      "rib": 912,
      "20": 913,
      "Ġset": 914,
      "ever": 915,
      "ps": 916,
      "Ġtake": 917,
      "ities": 918,
      "ident": 919,
      "Ġworld": 920,
      "der": 921,
      "ĠThey": 922,
      "ather": 923,
      "Ġplay": 924,
      "Ġfind": 925,
      "Ġent": 926,
      "ased": 927,
      "day": 928,
      "Ġpol": 929,
      "ween": 930,
      "Ġthings": 931,
      "ĠAs": 932,
      "cy": 933,
      "Ġdifferent": 934,
      "ren": 935,
      "Ġprodu": 936,
      "Ġmade": 937,
      "Ġform": 938,
      "Ġsur": 939,
      "Ġnum": 940,
      "Ġfil": 941,
      "ote": 942,
      "ract": 943,
      "ah": 944,
      "Ġsystem": 945,
      "Ġsl": 946,
      "Ġass": 947,
      "ody": 948,
      "Ġcol": 949,
      "11": 950,
      "ness": 951,
      "Ġperson": 952,
      "Ġshow": 953,
      "Ġsomething": 954,
      "Ġhapp": 955,
      "Ġlife": 956,
      "Ġtrans": 957,
      "ĠSo": 958,
      "read": 959,
      "ince": 960,
      "ward": 961,
      "Ġfact": 962,
      "Ġstr": 963,
      "right": 964,
      "Ġmet": 965,
      "Ġpres": 966,
      "Ġbetween": 967,
      "ÂłÂłÂłÂł": 968,
      "tern": 969,
      "ving": 970,
      "up": 971,
      "Ġchar": 972,
      "led": 973,
      "Ġstud": 974,
      "{\\": 975,
      "Ġgreat": 976,
      "Ġcr": 977,
      "ures": 978,
      ",\"": 979,
      "Ġins": 980,
      "Ġfeel": 981,
      "Ġ|": 982,
      "thing": 983,
      "gg": 984,
      "ĠAn": 985,
      "ix": 986,
      "ize": 987,
      "ollow": 988,
      "Ġwhile": 989,
      "Ġprov": 990,
      "ex": 991,
      "ying": 992,
      "Ġche": 993,
      "akes": 994,
      "ĠĠĠĠĠĠĠ": 995,
      "Ġday": 996,
      "com": 997,
      "Ġaround": 998,
      "ĠUn": 999,
      "ited": 1000,
      "Ġexp": 1001,
      "gin": 1002,
      "ata": 1003,
      "ittle": 1004,
      "air": 1005,
      "Ġcar": 1006,
      "arch": 1007,
      "ank": 1008,
      "Ġgener": 1009,
      "gu": 1010,
      "ros": 1011,
      "uring": 1012,
      "ically": 1013,
      "blem": 1014,
      "Ġfin": 1015,
      "Ġext": 1016,
      "Ġhigh": 1017,
      "ee": 1018,
      "Ġeach": 1019,
      "15": 1020,
      "Ġexper": 1021,
      "ĠRe": 1022,
      "Ġref": 1023,
      "Ġi": 1024,
      "ational": 1025,
      "Ġmat": 1026,
      "Ġcount": 1027,
      "Ġmin": 1028,
      "Ġfun": 1029,
      "con": 1030,
      "ork": 1031,
      "ives": 1032,
      "ool": 1033,
      "Ġcor": 1034,
      "gan": 1035,
      "99": 1036,
      "Ġseem": 1037,
      "ists": 1038,
      "ues": 1039,
      "Ġnever": 1040,
      "ĠWh": 1041,
      "Ġmon": 1042,
      "Ġquest": 1043,
      "Ġdet": 1044,
      "Ġop": 1045,
      "Ġlot": 1046,
      "Ġlittle": 1047,
      "ĠThere": 1048,
      "Ġdisc": 1049,
      "Ġret": 1050,
      "Ġinclud": 1051,
      "pr": 1052,
      "ari": 1053,
      "Ġmight": 1054,
      "und": 1055,
      "ways": 1056,
      "Ġfollow": 1057,
      "Ġproblem": 1058,
      "ves": 1059,
      "ille": 1060,
      "ason": 1061,
      "any": 1062,
      "ts": 1063,
      "ense": 1064,
      "Ġboth": 1065,
      "ved": 1066,
      "Ġap": 1067,
      "br": 1068,
      "Ġinf": 1069,
      "Ġear": 1070,
      "ĠHow": 1071,
      "meric": 1072,
      "Ġval": 1073,
      "Ġcur": 1074,
      "Ġcre": 1075,
      "Ġty": 1076,
      "nce": 1077,
      "ublic": 1078,
      "Ġdist": 1079,
      "ale": 1080,
      "less": 1081,
      "uth": 1082,
      "Ġfew": 1083,
      "Ġhum": 1084,
      "ĠAl": 1085,
      "ÂłĊ": 1086,
      "velop": 1087,
      "ten": 1088,
      "ric": 1089,
      "ner": 1090,
      "Ġgot": 1091,
      "ines": 1092,
      "Ġexam": 1093,
      "Ġsign": 1094,
      "ins": 1095,
      "Ġlast": 1096,
      "Ġfound": 1097,
      "alth": 1098,
      "ger": 1099,
      "erest": 1100,
      "Ġgl": 1101,
      "arm": 1102,
      "ages": 1103,
      "here": 1104,
      "ute": 1105,
      "sh": 1106,
      "Ġmed": 1107,
      "vern": 1108,
      "It": 1109,
      "of": 1110,
      "ĠFor": 1111,
      "Ġart": 1112,
      "13": 1113,
      "Ġchild": 1114,
      "Ġposs": 1115,
      "Ġconf": 1116,
      "ention": 1117,
      "Ġexpl": 1118,
      "Ġcomple": 1119,
      "az": 1120,
      "Ġ<": 1121,
      "ized": 1122,
      "Ġbelie": 1123,
      "Ġwhy": 1124,
      "uss": 1125,
      "Ġel": 1126,
      "ĠAr": 1127,
      "Ġanother": 1128,
      "Ġput": 1129,
      "Ġfam": 1130,
      "Ġser": 1131,
      "Ġcle": 1132,
      "Ġlet": 1133,
      "Ġrequ": 1134,
      "Ġbetter": 1135,
      "Ġusing": 1136,
      "ĠĠĠĠĠ": 1137,
      "stand": 1138,
      "ĠAmeric": 1139,
      "Ġrun": 1140,
      "Ġwithout": 1141,
      "ĠThat": 1142,
      "Ġcome": 1143,
      ".âĢĿ": 1144,
      "Ġask": 1145,
      "Ġx": 1146,
      "Ġcour": 1147,
      "ern": 1148,
      "Ġimport": 1149,
      "ices": 1150,
      "Ġide": 1151,
      "Ġ.": 1152,
      "Ġresult": 1153,
      "ĠShe": 1154,
      "man": 1155,
      "Ġpower": 1156,
      "Ġthing": 1157,
      "ined": 1158,
      "Ġturn": 1159,
      "Ġlar": 1160,
      "riend": 1161,
      "Ġ/": 1162,
      "Ġstate": 1163,
      "Ġeffect": 1164,
      "ouse": 1165,
      "**": 1166,
      "ature": 1167,
      "Ġhead": 1168,
      "ably": 1169,
      "ruct": 1170,
      "14": 1171,
      "Ġfr": 1172,
      "line": 1173,
      "ox": 1174,
      "Ġalways": 1175,
      "uck": 1176,
      "Ġword": 1177,
      "iness": 1178,
      "ĠPro": 1179,
      "Ġloc": 1180,
      "gy": 1181,
      "Ġhard": 1182,
      "Ġmust": 1183,
      "000": 1184,
      "Ġwom": 1185,
      "pro": 1186,
      "formation": 1187,
      "Ġthought": 1188,
      "pend": 1189,
      "to": 1190,
      "Ġmov": 1191,
      "16": 1192,
      "atch": 1193,
      "Ġlead": 1194,
      "ient": 1195,
      "uc": 1196,
      "čĊ": 1197,
      "ered": 1198,
      "ared": 1199,
      "ĠSh": 1200,
      "Ġold": 1201,
      "Ġdevelop": 1202,
      "oh": 1203,
      "Ġkeep": 1204,
      "ash": 1205,
      "Ġinterest": 1206,
      "Ġbest": 1207,
      "ertain": 1208,
      "ead": 1209,
      "ĠIs": 1210,
      "oney": 1211,
      "Ġpost": 1212,
      "ode": 1213,
      "Ġprocess": 1214,
      "ret": 1215,
      "Ġmean": 1216,
      "Ġmem": 1217,
      "ield": 1218,
      "Ġsmall": 1219,
      "ĠWhat": 1220,
      "ĠCom": 1221,
      "Ġed": 1222,
      "ug": 1223,
      "ters": 1224,
      "âĢĶ": 1225,
      "Ġsk": 1226,
      "chn": 1227,
      "iting": 1228,
      "Ġclass": 1229,
      "io": 1230,
      "irect": 1231,
      "mot": 1232,
      "Ġless": 1233,
      "18": 1234,
      "Ġca": 1235,
      "Ġplace": 1236,
      "bs": 1237,
      "err": 1238,
      "Ġsol": 1239,
      "Ġbook": 1240,
      "ets": 1241,
      "Ġpartic": 1242,
      "Ġbig": 1243,
      "ross": 1244,
      "Ġdidn": 1245,
      "Ġnumber": 1246,
      "Ġeas": 1247,
      "30": 1248,
      "Ġtri": 1249,
      "Ġagainst": 1250,
      "ption": 1251,
      "Ġtell": 1252,
      "Ġspec": 1253,
      "This": 1254,
      "me": 1255,
      "ider": 1256,
      "__": 1257,
      "ology": 1258,
      "Ġbus": 1259,
      "Ġmark": 1260,
      "Ġsince": 1261,
      "arn": 1262,
      "Ġ*": 1263,
      "osed": 1264,
      "Ġdi": 1265,
      "17": 1266,
      "amp": 1267,
      "Ġdata": 1268,
      "âĢ¦": 1269,
      "ames": 1270,
      "Ġcase": 1271,
      "ier": 1272,
      "Ġgovern": 1273,
      "ately": 1274,
      "Ġgiv": 1275,
      "Ġgra": 1276,
      "Ġpass": 1277,
      "Ġserv": 1278,
      "Ġgrou": 1279,
      "Ġappro": 1280,
      "Ġresp": 1281,
      "illemot": 1282,
      "guillemot": 1283,
      "Ġthree": 1284,
      "oot": 1285,
      "not": 1286,
      "Ġav": 1287,
      "Ġaway": 1288,
      "hip": 1289,
      "Ġadv": 1290,
      "25": 1291,
      "Ġcare": 1292,
      "Ġunderstand": 1293,
      "ural": 1294,
      "Ġsure": 1295,
      "Ġallow": 1296,
      "Ġbeh": 1297,
      "ĠâĢĵ": 1298,
      "Ġconst": 1299,
      "23": 1300,
      "Ġstand": 1301,
      "Ġrest": 1302,
      "Ġ{": 1303,
      "view": 1304,
      "Ġsays": 1305,
      "Ġplan": 1306,
      "Ġkind": 1307,
      "Ġenough": 1308,
      "Ġmain": 1309,
      "land": 1310,
      "aug": 1311,
      "Ġhome": 1312,
      "rol": 1313,
      "Ġactually": 1314,
      "ired": 1315,
      "----": 1316,
      "chool": 1317,
      "_{": 1318,
      "ants": 1319,
      "sw": 1320,
      "rent": 1321,
      "Ġwee": 1322,
      "ĠNew": 1323,
      "ĠQ": 1324,
      "19": 1325,
      "Ġequ": 1326,
      "Ġtalk": 1327,
      "You": 1328,
      ");": 1329,
      "Ġpat": 1330,
      "And": 1331,
      "cri": 1332,
      "Ġfriend": 1333,
      "ety": 1334,
      "aj": 1335,
      "ience": 1336,
      "Ġopen": 1337,
      "Ġiss": 1338,
      "orn": 1339,
      "Ġwater": 1340,
      "Ġcou": 1341,
      "ĠDe": 1342,
      "ĠZ": 1343,
      "Ġimportant": 1344,
      "Ġ$\\": 1345,
      "Ġgive": 1346,
      "Ġthough": 1347,
      "Ġlevel": 1348,
      "Ġlaw": 1349,
      "Ġsupport": 1350,
      "Ġcent": 1351,
      "Ġunt": 1352,
      "ases": 1353,
      "We": 1354,
      "Ġmoney": 1355,
      "eng": 1356,
      "ron": 1357,
      "ma": 1358,
      "Ġcontin": 1359,
      "Ġlist": 1360,
      "Ġdoesn": 1361,
      "Ġlove": 1362,
      "Ġ+": 1363,
      "Ġsecond": 1364,
      "gram": 1365,
      "ling": 1366,
      "Ġincre": 1367,
      "Ġdem": 1368,
      "ik": 1369,
      "ope": 1370,
      ".,": 1371,
      "ision": 1372,
      "Ġcharact": 1373,
      "ither": 1374,
      "dd": 1375,
      "Ġ--": 1376,
      "Ġduring": 1377,
      "Ġey": 1378,
      "TE": 1379,
      "Ġterm": 1380,
      "Ġnext": 1381,
      "Ġpay": 1382,
      "22": 1383,
      "ality": 1384,
      "Ġinformation": 1385,
      "Ġtest": 1386,
      "Ġleft": 1387,
      "Ġet": 1388,
      "ok": 1389,
      "âĢľ": 1390,
      "Ġpur": 1391,
      "50": 1392,
      "Ġfull": 1393,
      "Ġable": 1394,
      "sub": 1395,
      "Ġpar": 1396,
      "Ġhappen": 1397,
      "Ġbody": 1398,
      "Ġname": 1399,
      "Ġexample": 1400,
      "Ġtechn": 1401,
      "Ġhuman": 1402,
      "Ġoften": 1403,
      "Ġpop": 1404,
      "Ġfree": 1405,
      "Ġpos": 1406,
      "ital": 1407,
      "ream": 1408,
      "Ġquestion": 1409,
      "Ġcalled": 1410,
      "Ġappe": 1411,
      "Ġbre": 1412,
      "ator": 1413,
      "Ġmus": 1414,
      "Ġes": 1415,
      "ished": 1416,
      "Ġtop": 1417,
      "Ġgame": 1418,
      "What": 1419,
      "ĠWhen": 1420,
      "Ġsw": 1421,
      "lf": 1422,
      "Ġgrow": 1423,
      "Ġfar": 1424,
      "left": 1425,
      "Ġopp": 1426,
      "ides": 1427,
      "vious": 1428,
      "ted": 1429,
      "Ġprob": 1430,
      "Ġmind": 1431,
      "ann": 1432,
      "Ġlight": 1433,
      "Ġprot": 1434,
      "Ġchange": 1435,
      "icle": 1436,
      "ently": 1437,
      "inal": 1438,
      "go": 1439,
      "els": 1440,
      "Ġever": 1441,
      "bers": 1442,
      "Ġdoing": 1443,
      "St": 1444,
      "Ġreason": 1445,
      "Ġ:": 1446,
      "Ġorder": 1447,
      "Ġsit": 1448,
      "Ġbas": 1449,
      "Ġdirect": 1450,
      "cent": 1451,
      "med": 1452,
      "Ġcommun": 1453,
      "Ġpublic": 1454,
      "ats": 1455,
      "rist": 1456,
      "ering": 1457,
      "ains": 1458,
      "att": 1459,
      "Ġbra": 1460,
      "ization": 1461,
      "Ġcertain": 1462,
      "Ġdone": 1463,
      "Ġchang": 1464,
      "ided": 1465,
      "arent": 1466,
      "Ġdri": 1467,
      "app": 1468,
      "ember": 1469,
      "Ġgovernment": 1470,
      "Ġbit": 1471,
      "by": 1472,
      "Ġhealth": 1473,
      "iter": 1474,
      "put": 1475,
      "aps": 1476,
      "nect": 1477,
      "Ġpri": 1478,
      "Ġhaving": 1479,
      "Ġhist": 1480,
      "Ġmen": 1481,
      "âĢĵ": 1482,
      "Ġlarge": 1483,
      "port": 1484,
      "ĠCl": 1485,
      "Ġmeans": 1486,
      "Ġbuild": 1487,
      "Ġuntil": 1488,
      "math": 1489,
      "Ġprof": 1490,
      "\\<^": 1491,
      "uff": 1492,
      "ton": 1493,
      "Ġleast": 1494,
      "Ġstory": 1495,
      "Ġleg": 1496,
      "24": 1497,
      "Ġmove": 1498,
      "par": 1499,
      "Ġdr": 1500,
      "Ġelect": 1501,
      "Ġsomeone": 1502,
      "Ġtimes": 1503,
      "atic": 1504,
      "ready": 1505,
      "hy": 1506,
      "Ġcourse": 1507,
      "Ġwar": 1508,
      "ised": 1509,
      "Ġschool": 1510,
      "Ġbusiness": 1511,
      "Ġline": 1512,
      "ining": 1513,
      "//": 1514,
      "most": 1515,
      "Ġreturn": 1516,
      "Ġz": 1517,
      "ump": 1518,
      "Ġmaking": 1519,
      "hod": 1520,
      "conom": 1521,
      "Ġpolit": 1522,
      "Ġanything": 1523,
      "ency": 1524,
      "Ġside": 1525,
      "ird": 1526,
      "ral": 1527,
      "21": 1528,
      "Ġaff": 1529,
      "ms": 1530,
      "work": 1531,
      "?\"": 1532,
      "Ġ#": 1533,
      "Ġprogram": 1534,
      "ivers": 1535,
      "reen": 1536,
      "If": 1537,
      "ĠUS": 1538,
      "ulation": 1539,
      "Ġcame": 1540,
      "Ġmakes": 1541,
      "ĠGod": 1542,
      "ĠBe": 1543,
      "ĠâĢĺ": 1544,
      "Ġfiles": 1545,
      "Ġsing": 1546,
      "ane": 1547,
      "Ġpa": 1548,
      "Ġnon": 1549,
      "Ġalready": 1550,
      "ĠTr": 1551,
      "ĠAt": 1552,
      "Ġmonth": 1553,
      "cing": 1554,
      "Ġvis": 1555,
      "oad": 1556,
      "for": 1557,
      "Ġdays": 1558,
      "Ġocc": 1559,
      "Ġsound": 1560,
      "ids": 1561,
      "Ġstop": 1562,
      "ĠNo": 1563,
      "ĠBr": 1564,
      "Ġothers": 1565,
      "elt": 1566,
      "ĠBl": 1567,
      "Ġmom": 1568,
      "lease": 1569,
      "ories": 1570,
      "Ġest": 1571,
      "over": 1572,
      "ony": 1573,
      "ots": 1574,
      "Ġfamily": 1575,
      "Ġproduct": 1576,
      "Ġbad": 1577,
      "Ġcap": 1578,
      "itive": 1579,
      "Ġgiven": 1580,
      "Ġjob": 1581,
      "Ġansw": 1582,
      "Ġelse": 1583,
      "Ġele": 1584,
      "iqu": 1585,
      "Ġcost": 1586,
      "ified": 1587,
      "Ġbecome": 1588,
      "ional": 1589,
      "Ġonce": 1590,
      "Ġpossible": 1591,
      "used": 1592,
      "aim": 1593,
      "Ġclear": 1594,
      "Ġve": 1595,
      "98": 1596,
      "Ġcurrent": 1597,
      "Ġperform": 1598,
      "Ġwithin": 1599,
      "As": 1600,
      "):": 1601,
      "ivid": 1602,
      "ained": 1603,
      "ploy": 1604,
      "ĠInd": 1605,
      "Ġdesign": 1606,
      "raph": 1607,
      "Ġfood": 1608,
      "ĠTo": 1609,
      "ĠX": 1610,
      "Ġproper": 1611,
      "ument": 1612,
      "An": 1613,
      "cite": 1614,
      "RO": 1615,
      "Ġorgan": 1616,
      "ged": 1617,
      "Ġview": 1618,
      "idd": 1619,
      "Ġwent": 1620,
      "Ġdra": 1621,
      "ĠAll": 1622,
      "Ġbelieve": 1623,
      "Ġcontrol": 1624,
      "ured": 1625,
      "Ġgetting": 1626,
      "sp": 1627,
      "ability": 1628,
      "ians": 1629,
      "sc": 1630,
      "Ġrese": 1631,
      "ior": 1632,
      "ived": 1633,
      "ccess": 1634,
      "ina": 1635,
      "Ġcountry": 1636,
      "Ġkill": 1637,
      "Ġpresent": 1638,
      "ards": 1639,
      "Ġpast": 1640,
      "Ġgroup": 1641,
      "Ġnight": 1642,
      "ER": 1643,
      "itions": 1644,
      "ĠLe": 1645,
      "Ġcond": 1646,
      "Ġfore": 1647,
      "Ġanal": 1648,
      "ential": 1649,
      "Ġair": 1650,
      "....": 1651,
      "Ġtry": 1652,
      "Ġchildren": 1653,
      "arrow": 1654,
      "outh": 1655,
      "ĠSe": 1656,
      "way": 1657,
      "mb": 1658,
      "Ġsci": 1659,
      "aring": 1660,
      "Ġidea": 1661,
      "Ġparticular": 1662,
      "iving": 1663,
      "Ġben": 1664,
      "Ġnothing": 1665,
      "oice": 1666,
      "Ġhour": 1667,
      "ref": 1668,
      "Ġlim": 1669,
      "ajor": 1670,
      "ott": 1671,
      "Ġreport": 1672,
      "Ġface": 1673,
      "Ġinvest": 1674,
      "oint": 1675,
      "ilar": 1676,
      "}\\": 1677,
      "ries": 1678,
      "ination": 1679,
      "ĠDo": 1680,
      "Ġshort": 1681,
      "ĠOr": 1682,
      "Ġcell": 1683,
      "So": 1684,
      "Ġwhole": 1685,
      "Ġlearn": 1686,
      "ĠÂł": 1687,
      "Ġprobably": 1688,
      "ĠCon": 1689,
      "selves": 1690,
      "Ġeconom": 1691,
      "ury": 1692,
      "alf": 1693,
      "Ġmult": 1694,
      "iron": 1695,
      "ĠMy": 1696,
      "Ġexpect": 1697,
      "Ġmil": 1698,
      "Ġwomen": 1699,
      "He": 1700,
      "Ġpret": 1701,
      "cer": 1702,
      "Ġseen": 1703,
      "Ġself": 1704,
      "rop": 1705,
      "Ġyet": 1706,
      "uthor": 1707,
      "Ġmar": 1708,
      "ched": 1709,
      "Ġcomplete": 1710,
      "cle": 1711,
      "Ġbo": 1712,
      "Ġrather": 1713,
      "Ġprom": 1714,
      "}$": 1715,
      "ush": 1716,
      "Ġoper": 1717,
      "How": 1718,
      "Ġtem": 1719,
      "Ġener": 1720,
      "aster": 1721,
      "ĠPh": 1722,
      "ĠHowever": 1723,
      "vent": 1724,
      "Ġbased": 1725,
      "ole": 1726,
      "side": 1727,
      "Ġeither": 1728,
      "Ġnear": 1729,
      "Ġtrying": 1730,
      "Ġtoget": 1731,
      "angu": 1732,
      "Ġfunction": 1733,
      "Ġconsider": 1734,
      "Ġtogether": 1735,
      "Ġtoday": 1736,
      "40": 1737,
      "ource": 1738,
      "Ġdev": 1739,
      "But": 1740,
      "ĠFr": 1741,
      "Ġdep": 1742,
      "Ġpot": 1743,
      "ĠOn": 1744,
      "Ġmethod": 1745,
      "ĠSp": 1746,
      "à¤": 1747,
      "ohn": 1748,
      "Ġteam": 1749,
      "Ġlow": 1750,
      "Ġpract": 1751,
      "olution": 1752,
      "Ġorig": 1753,
      "cially": 1754,
      "ividual": 1755,
      "min": 1756,
      "Ġtook": 1757,
      "Ġtyp": 1758,
      "Ġbegin": 1759,
      "Ġhold": 1760,
      "oid": 1761,
      "aken": 1762,
      "gle": 1763,
      "Ġsever": 1764,
      "Ġlater": 1765,
      "Ġhouse": 1766,
      "ĠEx": 1767,
      "illion": 1768,
      "Ġmarket": 1769,
      "Ġcharacter": 1770,
      "Ġwa": 1771,
      "Ġmatter": 1772,
      "',": 1773,
      "Ġfre": 1774,
      "yn": 1775,
      "ler": 1776,
      "wh": 1777,
      "Ġcommon": 1778,
      "ĠChrist": 1779,
      "</": 1780,
      "ike": 1781,
      "Ġroom": 1782,
      "ium": 1783,
      "Ġtrue": 1784,
      "Ġlooking": 1785,
      "Ġphys": 1786,
      "ply": 1787,
      "Ġcreat": 1788,
      "Ġwords": 1789,
      "irl": 1790,
      "Ġaut": 1791,
      "Ġisn": 1792,
      "Ġpain": 1793,
      "Ġknown": 1794,
      "Ġseems": 1795,
      "let": 1796,
      "ien": 1797,
      "Ġsocial": 1798,
      "Ġcal": 1799,
      "ration": 1800,
      "ext": 1801,
      "ĠAmerican": 1802,
      "There": 1803,
      "^{": 1804,
      "ortun": 1805,
      "my": 1806,
      "IN": 1807,
      "Ġexperience": 1808,
      "Ġeng": 1809,
      "Ġyoung": 1810,
      "Ġworking": 1811,
      "Ġris": 1812,
      "ances": 1813,
      "Ġtold": 1814,
      "Ġmiss": 1815,
      "ĠPl": 1816,
      "de": 1817,
      "Ġmajor": 1818,
      "26": 1819,
      ",âĢĿ": 1820,
      "Ġmor": 1821,
      "por": 1822,
      "ustom": 1823,
      "Ġalmost": 1824,
      "uture": 1825,
      "arr": 1826,
      "ression": 1827,
      "sy": 1828,
      "Ġlive": 1829,
      "Ġseveral": 1830,
      "27": 1831,
      "Ġhy": 1832,
      "urther": 1833,
      "97": 1834,
      "Ġvari": 1835,
      "Ġident": 1836,
      "Ġeverything": 1837,
      "Ġindividual": 1838,
      "28": 1839,
      "Ġinvol": 1840,
      "Ġfollowing": 1841,
      "Ġant": 1842,
      "ery": 1843,
      "idence": 1844,
      "Ġexist": 1845,
      "ully": 1846,
      "eral": 1847,
      "val": 1848,
      "Ġstrong": 1849,
      "Ġfour": 1850,
      "ape": 1851,
      "Ġquite": 1852,
      "Ġfield": 1853,
      "Ġalong": 1854,
      "use": 1855,
      "Ġland": 1856,
      "uro": 1857,
      "Ġtre": 1858,
      "ĠOne": 1859,
      "Ġconnect": 1860,
      "Ġbro": 1861,
      "Ġcomput": 1862,
      "lish": 1863,
      "Ġcult": 1864,
      "ggest": 1865,
      "Ġeyes": 1866,
      "Ġvers": 1867,
      "Ġcomes": 1868,
      "where": 1869,
      "Ġvalue": 1870,
      "fe": 1871,
      "Ġactiv": 1872,
      "Ġdeal": 1873,
      "Ġcompany": 1874,
      "Ġspecific": 1875,
      "Ġwon": 1876,
      "Ġtype": 1877,
      "Ġ,": 1878,
      "Ġago": 1879,
      "str": 1880,
      "Ġabove": 1881,
      "ĠNot": 1882,
      "ify": 1883,
      "ows": 1884,
      "ĠEng": 1885,
      "60": 1886,
      "Ġcheck": 1887,
      "Ġenergy": 1888,
      "Ġsense": 1889,
      "utes": 1890,
      "Ġtax": 1891,
      ".)": 1892,
      "Ġincluding": 1893,
      "Ġobject": 1894,
      "ison": 1895,
      "Ġrece": 1896,
      "ĠĠĠĠĠĠĠĠĠĠĠ": 1897,
      "Ġheart": 1898,
      "fra": 1899,
      "Ġvar": 1900,
      "Ġproject": 1901,
      "Ġwhether": 1902,
      "Ġprop": 1903,
      "ĠPr": 1904,
      "Ġstarted": 1905,
      "Ġsuccess": 1906,
      "Ġredu": 1907,
      "ples": 1908,
      "ama": 1909,
      "ene": 1910,
      "ĠCan": 1911,
      "igure": 1912,
      "rodu": 1913,
      "gs": 1914,
      "Ġspace": 1915,
      "Ġintern": 1916,
      "Ġclose": 1917,
      "aces": 1918,
      "Ġdiscuss": 1919,
      "Ġtoward": 1920,
      "though": 1921,
      "pped": 1922,
      "Ġquick": 1923,
      "Ġsuggest": 1924,
      "Ġconc": 1925,
      "orth": 1926,
      "Ġmag": 1927,
      "ording": 1928,
      "Ġsex": 1929,
      "Ġhig": 1930,
      "Ġfall": 1931,
      "Ġnet": 1932,
      "ware": 1933,
      "Ġanswer": 1934,
      "Ġaccount": 1935,
      "TA": 1936,
      "ĠRep": 1937,
      "bra": 1938,
      "ones": 1939,
      "Ġweek": 1940,
      "Ġpretty": 1941,
      "Ġworks": 1942,
      "Ġmodel": 1943,
      "ĠMay": 1944,
      "100": 1945,
      "Ġpress": 1946,
      "ĠMar": 1947,
      "Ch": 1948,
      "!!": 1949,
      "},": 1950,
      "aut": 1951,
      "resent": 1952,
      "Ġdeath": 1953,
      "itional": 1954,
      "ried": 1955,
      "Ġfail": 1956,
      "Ġstre": 1957,
      "Ġtreat": 1958,
      "\",": 1959,
      "oun": 1960,
      "Ġopt": 1961,
      "Ġcra": 1962,
      "==": 1963,
      "Ġasked": 1964,
      "co": 1965,
      "lu": 1966,
      "Ġattack": 1967,
      "plic": 1968,
      "ON": 1969,
      "soci": 1970,
      "pecially": 1971,
      "Ġabs": 1972,
      "Ġmeas": 1973,
      "Ġfuture": 1974,
      "Ġamount": 1975,
      "ĠSc": 1976,
      "ĠWith": 1977,
      "rew": 1978,
      "icult": 1979,
      "Ġcannot": 1980,
      "=\"": 1981,
      "iol": 1982,
      "rect": 1983,
      "Ġstep": 1984,
      "ection": 1985,
      "Ġeveryone": 1986,
      "bl": 1987,
      "ume": 1988,
      "ĠThese": 1989,
      "Ġenc": 1990,
      "Ġhistory": 1991,
      "Ġentire": 1992,
      "Ġimpro": 1993,
      "istic": 1994,
      "ches": 1995,
      "uation": 1996,
      "Ġclaim": 1997,
      "verse": 1998,
      "urs": 1999,
      "Ġwond": 2000,
      "Ġmess": 2001,
      "Ġtrad": 2002,
      "ailable": 2003,
      "Ġwalk": 2004,
      "viron": 2005,
      "Ġsingle": 2006,
      "ley": 2007,
      "Ġneeds": 2008,
      "Ġblack": 2009,
      "ively": 2010,
      "set": 2011,
      "Ġlangu": 2012,
      "))": 2013,
      "Ġwind": 2014,
      "Ġsimilar": 2015,
      "ĠĠĠĠĠĠĠĠĠĠĠĠĠĠĠĠĠĠĠĠĠĠĠĠĠĠĠĠĠĠĠĠ": 2016,
      "son": 2017,
      "Ġcir": 2018,
      "iod": 2019,
      "ĠAd": 2020,
      "Ġwanted": 2021,
      "Ġlikely": 2022,
      "Ġsent": 2023,
      "ising": 2024,
      "Ġfoc": 2025,
      "Ġwin": 2026,
      "Ġmass": 2027,
      "ctor": 2028,
      "Ġsal": 2029,
      "ored": 2030,
      "Ġwrong": 2031,
      "Ġnorm": 2032,
      "ask": 2033,
      "Ġsuper": 2034,
      "Ġmeet": 2035,
      "ney": 2036,
      "Ġsimply": 2037,
      "anks": 2038,
      "now": 2039,
      "aterial": 2040,
      "ental": 2041,
      "Ġla": 2042,
      "Ġhalf": 2043,
      "Ġcut": 2044,
      "Ġupon": 2045,
      "ĠJohn": 2046,
      "For": 2047,
      "Ġprovide": 2048,
      "Ġwatch": 2049,
      "lam": 2050,
      "Ġdue": 2051,
      "Ġnat": 2052,
      "Ġhope": 2053,
      "Ġevent": 2054,
      "Ġaccess": 2055,
      "Ġobs": 2056,
      "fully": 2057,
      "Ġgeneral": 2058,
      "\".": 2059,
      "enn": 2060,
      "ills": 2061,
      "Ġcomb": 2062,
      "29": 2063,
      "oon": 2064,
      "ĠSome": 2065,
      "Ġstruct": 2066,
      "empt": 2067,
      "oud": 2068,
      "Ġrelations": 2069,
      "Ġthemselves": 2070,
      "Ġhimself": 2071,
      "Ġarea": 2072,
      "Ġlocal": 2073,
      "Ġtot": 2074,
      "imate": 2075,
      "ift": 2076,
      "guillemotright": 2077,
      "ai": 2078,
      "ially": 2079,
      "Ġdeb": 2080,
      "ands": 2081,
      "Ġphot": 2082,
      "Ġbenef": 2083,
      "fer": 2084,
      "guillemotleft": 2085,
      "Ġblood": 2086,
      "Ġmot": 2087,
      "ogn": 2088,
      "Ġmoment": 2089,
      "acy": 2090,
      "Ġmusic": 2091,
      "Ġcustom": 2092,
      "Ġrad": 2093,
      "Ġbreak": 2094,
      "Ġnecess": 2095,
      "ude": 2096,
      "body": 2097,
      "Ġcreate": 2098,
      "Ġresults": 2099,
      "Ġvol": 2100,
      "Ġstudy": 2101,
      "}}": 2102,
      "like": 2103,
      "Ġpict": 2104,
      "Ġcop": 2105,
      "Ġearly": 2106,
      "Ġemploy": 2107,
      "Ġresearch": 2108,
      "Ġrecord": 2109,
      "Ġauthor": 2110,
      "Ġapplic": 2111,
      "AN": 2112,
      "aining": 2113,
      "equ": 2114,
      "Ġsaw": 2115,
      "che": 2116,
      "yle": 2117,
      "une": 2118,
      "OF": 2119,
      "Ġoffic": 2120,
      "ges": 2121,
      "iversity": 2122,
      "ule": 2123,
      "Ġtaking": 2124,
      "Ġanyone": 2125,
      "Ġkey": 2126,
      "Ġlab": 2127,
      "Ġvide": 2128,
      "Ġinstead": 2129,
      "Ġetc": 2130,
      "ength": 2131,
      "ledge": 2132,
      "Ġdifficult": 2133,
      "Ġsum": 2134,
      "ological": 2135,
      "Ġitself": 2136,
      "arget": 2137,
      "Ġbehind": 2138,
      "Ġsoft": 2139,
      "cul": 2140,
      "Ġlink": 2141,
      "Ġhowever": 2142,
      "Ġacross": 2143,
      "AR": 2144,
      "Ġamong": 2145,
      "lement": 2146,
      "ubl": 2147,
      "Ġanim": 2148,
      "ĉĉ": 2149,
      "Ġexact": 2150,
      "ÂłÂłÂłÂłÂłÂłÂłÂł": 2151,
      "leep": 2152,
      "Ġage": 2153,
      "Ġtext": 2154,
      "Ġaccept": 2155,
      "Ġavailable": 2156,
      "Ġproblems": 2157,
      "Ġdepend": 2158,
      "augh": 2159,
      "Ġbuy": 2160,
      "Ġarticle": 2161,
      "ister": 2162,
      "erence": 2163,
      "Ġdest": 2164,
      "Ġdam": 2165,
      "oogle": 2166,
      "Ġfight": 2167,
      "Ġgirl": 2168,
      "oke": 2169,
      "ĠHis": 2170,
      "haps": 2171,
      "ĠMr": 2172,
      "mm": 2173,
      "Ġfund": 2174,
      "Ġwasn": 2175,
      "Ġrepl": 2176,
      "Ġdeterm": 2177,
      "Ġsort": 2178,
      "ended": 2179,
      "omm": 2180,
      "Ġpoints": 2181,
      "ients": 2182,
      "ources": 2183,
      "Ġpolitical": 2184,
      "ips": 2185,
      "ĠUnited": 2186,
      "Ġusually": 2187,
      "rap": 2188,
      "Ġsimple": 2189,
      "vironment": 2190,
      "Ġred": 2191,
      "ites": 2192,
      "Ġdou": 2193,
      "gen": 2194,
      "Ġtaken": 2195,
      "roll": 2196,
      "When": 2197,
      "ging": 2198,
      "PRO": 2199,
      "urity": 2200,
      "Ġarg": 2201,
      "fect": 2202,
      "orld": 2203,
      "iet": 2204,
      "joy": 2205,
      "Ġissue": 2206,
      "Ġdom": 2207,
      "eb": 2208,
      "Ġsignific": 2209,
      "cal": 2210,
      "Ġ/>": 2211,
      "Ġbring": 2212,
      "error": 2213,
      "ES": 2214,
      "Ġwoman": 2215,
      "Ġmaterial": 2216,
      "Ġlooked": 2217,
      "Ġcause": 2218,
      "Ġsuff": 2219,
      "Ġpie": 2220,
      "irt": 2221,
      "Ġespecially": 2222,
      "Ġperiod": 2223,
      "35": 2224,
      "ibility": 2225,
      "ĠThen": 2226,
      "://": 2227,
      "Ġsaying": 2228,
      "Ġfriends": 2229,
      "ique": 2230,
      "Ġways": 2231,
      "itten": 2232,
      "Ġparent": 2233,
      "Ġlog": 2234,
      "Ã©": 2235,
      "ires": 2236,
      "oose": 2237,
      "No": 2238,
      "face": 2239,
      "Ġeasy": 2240,
      "text": 2241,
      "Ġquestions": 2242,
      "urope": 2243,
      "Wh": 2244,
      "ateg": 2245,
      "na": 2246,
      "90": 2247,
      "Ġsoci": 2248,
      "ĠRes": 2249,
      "bb": 2250,
      "Ġspecial": 2251,
      "45": 2252,
      "light": 2253,
      "miss": 2254,
      "Ġfurther": 2255,
      "ĠNow": 2256,
      "head": 2257,
      "iction": 2258,
      "Ġwhite": 2259,
      "Ġneg": 2260,
      "EN": 2261,
      "Ġstay": 2262,
      "Ġfav": 2263,
      "tt": 2264,
      "ault": 2265,
      "eed": 2266,
      "Ġknew": 2267,
      "Ġcity": 2268,
      "rel": 2269,
      "Ġhours": 2270,
      "asing": 2271,
      "Ġcolle": 2272,
      "Ġdetail": 2273,
      "Ġpriv": 2274,
      "ograph": 2275,
      "Ġlay": 2276,
      "ĠAm": 2277,
      "Ġrespect": 2278,
      "itor": 2279,
      "ĠTe": 2280,
      "Ġ@": 2281,
      "aced": 2282,
      "Ġdefin": 2283,
      "PROOF": 2284,
      "Ġess": 2285,
      "Ġfilm": 2286,
      "ung": 2287,
      "itting": 2288,
      "Ġfront": 2289,
      "Ġstra": 2290,
      "80": 2291,
      "ators": 2292,
      "Ġhands": 2293,
      "Ġlonger": 2294,
      "Ġrelig": 2295,
      "reme": 2296,
      "uses": 2297,
      "verage": 2298,
      "!\"": 2299,
      "Ġsat": 2300,
      "ww": 2301,
      "Ġcoming": 2302,
      "Ġrepresent": 2303,
      "Ġlo": 2304,
      "Ġpick": 2305,
      "Ġcomment": 2306,
      "utions": 2307,
      "Ġpersonal": 2308,
      "uly": 2309,
      "Ġstat": 2310,
      "ĠâĢĶ": 2311,
      "back": 2312,
      "Ġann": 2313,
      "Ġterms": 2314,
      "Ġgoes": 2315,
      "ĠMan": 2316,
      "umb": 2317,
      "rown": 2318,
      "action": 2319,
      "Ġfelt": 2320,
      "Ġhigher": 2321,
      "eter": 2322,
      "Ġneeded": 2323,
      "itch": 2324,
      "96": 2325,
      "--------": 2326,
      "Ġheard": 2327,
      "(\\": 2328,
      "ĠStates": 2329,
      "omes": 2330,
      "Ġfire": 2331,
      "Ġpolic": 2332,
      "ressed": 2333,
      "ĠSy": 2334,
      "Ġtakes": 2335,
      "ĠCol": 2336,
      "ster": 2337,
      "ĠAfter": 2338,
      "Ġbar": 2339,
      "33": 2340,
      "Ġimm": 2341,
      "Ġrespons": 2342,
      "Ġconv": 2343,
      "Ġmonths": 2344,
      "Ġground": 2345,
      "ysis": 2346,
      "Ġpaper": 2347,
      "Ġrele": 2348,
      ")$": 2349,
      "ilt": 2350,
      "Ġremember": 2351,
      "vert": 2352,
      "Ġpred": 2353,
      "Ġsubject": 2354,
      "Ġliving": 2355,
      "Ġenjoy": 2356,
      "Ġindust": 2357,
      "Ġlanguage": 2358,
      "Ġdeep": 2359,
      "Ġmention": 2360,
      "Ġposition": 2361,
      "unch": 2362,
      "eth": 2363,
      "ray": 2364,
      "atter": 2365,
      "Ġdark": 2366,
      "Ġcred": 2367,
      "Ġmother": 2368,
      "mber": 2369,
      "Ġrelationship": 2370,
      "usion": 2371,
      "osp": 2372,
      "Ġrequire": 2373,
      "Ġcode": 2374,
      "Ġcrit": 2375,
      "ourn": 2376,
      "Re": 2377,
      "Ġspend": 2378,
      "Ġbi": 2379,
      "mp": 2380,
      "Ġsens": 2381,
      "crib": 2382,
      "}.": 2383,
      "Al": 2384,
      "play": 2385,
      "Ġthinking": 2386,
      "Ġsoon": 2387,
      "antly": 2388,
      "Ġleave": 2389,
      "Ġrul": 2390,
      "Ġvarious": 2391,
      "Ġgets": 2392,
      "OR": 2393,
      "ĠEurope": 2394,
      "Ġhor": 2395,
      "using": 2396,
      "AS": 2397,
      "ĠSch": 2398,
      "book": 2399,
      "ĠWhy": 2400,
      "Ġill": 2401,
      "ĠBy": 2402,
      "Ġste": 2403,
      "reg": 2404,
      "ued": 2405,
      "To": 2406,
      "Ġfile": 2407,
      "Ġoutside": 2408,
      "Ġbehav": 2409,
      "iding": 2410,
      "Ġsearch": 2411,
      "Ġdiv": 2412,
      "Ġ}": 2413,
      "Ġyourself": 2414,
      "oved": 2415,
      "ification": 2416,
      "Ġdoc": 2417,
      "ĠMe": 2418,
      "mon": 2419,
      "Ġport": 2420,
      "Ġcompan": 2421,
      "chie": 2422,
      "ctions": 2423,
      "iddle": 2424,
      "af": 2425,
      "Ġdevelopment": 2426,
      "Ġpull": 2427,
      "That": 2428,
      "Ġfive": 2429,
      "begin": 2430,
      "95": 2431,
      "Ġissues": 2432,
      "ĠJust": 2433,
      "Ġtarget": 2434,
      "Ġworth": 2435,
      "lt": 2436,
      "Ġstuff": 2437,
      "ĠOb": 2438,
      "ement": 2439,
      "ring": 2440,
      "ĠPe": 2441,
      "uge": 2442,
      "Ġenvironment": 2443,
      "Ġservice": 2444,
      "hem": 2445,
      "gress": 2446,
      "Ġstudents": 2447,
      "sec": 2448,
      "****": 2449,
      "Ġboy": 2450,
      "Ġrisk": 2451,
      "ĠÂ": 2452,
      "IS": 2453,
      "itary": 2454,
      "Ġinclude": 2455,
      "32": 2456,
      "aged": 2457,
      "Ġcy": 2458,
      "ze": 2459,
      "Ġeduc": 2460,
      "Ġsize": 2461,
      "Ġinit": 2462,
      "''": 2463,
      "012": 2464,
      "hers": 2465,
      "Ġspeak": 2466,
      "Ġprotect": 2467,
      "Ġinteresting": 2468,
      "ĠSu": 2469,
      "Ġturned": 2470,
      "ables": 2471,
      "Ġinside": 2472,
      "medi": 2473,
      "ĠAmerica": 2474,
      "Ġrate": 2475,
      "____": 2476,
      "Ġshows": 2477,
      "Ġmedia": 2478,
      "Ġassoci": 2479,
      "aving": 2480,
      "Ġones": 2481,
      "Ġattempt": 2482,
      "ĠCar": 2483,
      "Ġprevious": 2484,
      "etic": 2485,
      "Ġep": 2486,
      "Ġlost": 2487,
      "Ġaction": 2488,
      "erc": 2489,
      "Ġminutes": 2490,
      "Ġslow": 2491,
      "Ġblog": 2492,
      "oor": 2493,
      "Ġhear": 2494,
      "Ġmyself": 2495,
      "ĠYour": 2496,
      "apt": 2497,
      "ili": 2498,
      "Ġsn": 2499,
      "Ġchanges": 2500,
      "Ġpage": 2501,
      "ĠQu": 2502,
      "Ġmaybe": 2503,
      "ĠGr": 2504,
      "ped": 2505,
      "ober": 2506,
      "unk": 2507,
      "onse": 2508,
      "Ġapproach": 2509,
      "Ġpath": 2510,
      "ĠWar": 2511,
      "36": 2512,
      "Ġonline": 2513,
      "fl": 2514,
      "ences": 2515,
      "Ġcamp": 2516,
      "Ġwrite": 2517,
      "ocr": 2518,
      "Ġmembers": 2519,
      "Ġparty": 2520,
      "ero": 2521,
      "Ġdistrib": 2522,
      "Ġsystems": 2523,
      "Ġcontent": 2524,
      "Ġcorrect": 2525,
      "Ġwriting": 2526,
      "osing": 2527,
      "ming": 2528,
      "Ġchall": 2529,
      "Ġmach": 2530,
      "bo": 2531,
      "Ġcomplex": 2532,
      "Ġeffort": 2533,
      "ĠGu": 2534,
      "Ġimag": 2535,
      "Sh": 2536,
      "Ġmovie": 2537,
      "}{": 2538,
      "Ġviol": 2539,
      "Ġevidence": 2540,
      "010": 2541,
      "Ġexc": 2542,
      "Ġaud": 2543,
      "aves": 2544,
      "ĠĠĠĠĠĠ": 2545,
      "itted": 2546,
      "Ġprofess": 2547,
      "Ġmillion": 2548,
      "Ġtool": 2549,
      "Ġtalking": 2550,
      "70": 2551,
      "Ġdead": 2552,
      "atures": 2553,
      "Ġprim": 2554,
      "ĠEn": 2555,
      "Ġnatural": 2556,
      "rightarrow": 2557,
      "overed": 2558,
      "oph": 2559,
      "berg": 2560,
      "oe": 2561,
      "Ġreview": 2562,
      "011": 2563,
      "icient": 2564,
      "icro": 2565,
      "Ġvideo": 2566,
      "Ġfather": 2567,
      "Ġbecame": 2568,
      "013": 2569,
      "anger": 2570,
      "Ġrole": 2571,
      "ev": 2572,
      "Ġ?": 2573,
      "Ġdoor": 2574,
      "Ġrunning": 2575,
      "ensive": 2576,
      "cript": 2577,
      "urch": 2578,
      "cious": 2579,
      "Ġweight": 2580,
      "ached": 2581,
      "Ġnews": 2582,
      "Ġbegan": 2583,
      "time": 2584,
      "Ġsqu": 2585,
      "48": 2586,
      "Ġpurp": 2587,
      "Ġserious": 2588,
      "stit": 2589,
      "Ġreading": 2590,
      "Ġaffect": 2591,
      "Ġsell": 2592,
      "Ġhappened": 2593,
      "Ġperfect": 2594,
      "AT": 2595,
      "Ġsometimes": 2596,
      "ilities": 2597,
      "Ġsleep": 2598,
      "izing": 2599,
      "ĠEd": 2600,
      "Ġseries": 2601,
      "aff": 2602,
      "Ġknowledge": 2603,
      "ĠGen": 2604,
      "Ġblock": 2605,
      "Ġconcern": 2606,
      "Ġmis": 2607,
      "arning": 2608,
      "add": 2609,
      "Ġlower": 2610,
      "oms": 2611,
      "Ġversion": 2612,
      "off": 2613,
      "amed": 2614,
      "Ġcompet": 2615,
      "::": 2616,
      "Ġcompletely": 2617,
      "Ġstates": 2618,
      "ises": 2619,
      "ĠApp": 2620,
      "].": 2621,
      "ĠUniversity": 2622,
      "obal": 2623,
      "lim": 2624,
      "deriv": 2625,
      "Ġcases": 2626,
      "38": 2627,
      "ese": 2628,
      "Ġdifference": 2629,
      "Ġcreated": 2630,
      "ĠYork": 2631,
      "37": 2632,
      "31": 2633,
      "ram": 2634,
      "Ġpack": 2635,
      "ha": 2636,
      "goal": 2637,
      "Ġfix": 2638,
      "ening": 2639,
      "Ġsite": 2640,
      "lex": 2641,
      "Ġindic": 2642,
      "ĠAf": 2643,
      "Ġsource": 2644,
      "idered": 2645,
      "Ġsend": 2646,
      "My": 2647,
      "ĠPer": 2648,
      "Ġwritten": 2649,
      "Ġoriginal": 2650,
      "Ġdru": 2651,
      "Ġrecogn": 2652,
      "rm": 2653,
      "bit": 2654,
      "Ġgave": 2655,
      "frac": 2656,
      "008": 2657,
      "atever": 2658,
      "Ġsituation": 2659,
      "Ġsepar": 2660,
      "ny": 2661,
      "chan": 2662,
      "Ġsong": 2663,
      "Ġpotential": 2664,
      "come": 2665,
      "Ġobserv": 2666,
      "ĠWell": 2667,
      "ĠSec": 2668,
      "Ġhot": 2669,
      "Ġexcept": 2670,
      "AL": 2671,
      "Ġregard": 2672,
      "Ġdig": 2673,
      "unt": 2674,
      "Ġimage": 2675,
      "Ġexactly": 2676,
      "Ġcouple": 2677,
      "Ġcommunity": 2678,
      "Ġconcept": 2679,
      "inci": 2680,
      "Ġshare": 2681,
      "ival": 2682,
      "Ġkids": 2683,
      "Ġfair": 2684,
      "Ġtried": 2685,
      "sych": 2686,
      "wise": 2687,
      "ĠDon": 2688,
      "Ġnature": 2689,
      "Ġforce": 2690,
      "Ġlives": 2691,
      "Ġut": 2692,
      "Ġachie": 2693,
      "tr": 2694,
      "ID": 2695,
      "era": 2696,
      "Ġhon": 2697,
      "Ġbrain": 2698,
      "ivil": 2699,
      "ĠFl": 2700,
      "het": 2701,
      "Ġsil": 2702,
      "Ġbelow": 2703,
      "34": 2704,
      "Ġquickly": 2705,
      "Ġcoun": 2706,
      "ecause": 2707,
      "Ġbed": 2708,
      "Ġsurpr": 2709,
      "Ġextra": 2710,
      "ĠMc": 2711,
      "Ġtable": 2712,
      "Ġcompanies": 2713,
      "Ġcoll": 2714,
      "Ġconsidered": 2715,
      "attle": 2716,
      "Ġappear": 2717,
      "Ġincrease": 2718,
      "Ġpicture": 2719,
      "ana": 2720,
      "Ġtowards": 2721,
      "Ġbuilding": 2722,
      "Ġwonder": 2723,
      "sequ": 2724,
      "009": 2725,
      "ĠPres": 2726,
      "Ġnormal": 2727,
      "Ġprice": 2728,
      "Ġtend": 2729,
      "Ġyes": 2730,
      "Ġcirc": 2731,
      "Ġinflu": 2732,
      "ĠBrit": 2733,
      "Ġden": 2734,
      "Ġjud": 2735,
      "irit": 2736,
      "ran": 2737,
      "ades": 2738,
      "ĠWill": 2739,
      "Ġgames": 2740,
      "ishing": 2741,
      "ĠWorld": 2742,
      "Ġrelative": 2743,
      "_{\\": 2744,
      "Ġfear": 2745,
      "Ġbeaut": 2746,
      "ĠÐ": 2747,
      "Ġoil": 2748,
      "Ġcross": 2749,
      "ĠGe": 2750,
      "ĠGerm": 2751,
      "asons": 2752,
      "mit": 2753,
      "Ġaddress": 2754,
      "Ġrev": 2755,
      "Ġstore": 2756,
      "ruction": 2757,
      "Ġdise": 2758,
      "Ġcountries": 2759,
      "oul": 2760,
      "Ġmanage": 2761,
      "Ġdescrib": 2762,
      "Ġtrack": 2763,
      "Ġimpact": 2764,
      "Ġlooks": 2765,
      "ops": 2766,
      "007": 2767,
      "Ġforward": 2768,
      "Ġcontrib": 2769,
      "Ġphysical": 2770,
      "Ġclean": 2771,
      "ened": 2772,
      "Ġattention": 2773,
      "erson": 2774,
      "Ġtheory": 2775,
      "Ġconsum": 2776,
      "aught": 2777,
      "pping": 2778,
      "ga": 2779,
      "Ġri": 2780,
      "lying": 2781,
      "~\\": 2782,
      "Ġloss": 2783,
      "isc": 2784,
      "Ġtechnology": 2785,
      "arily": 2786,
      "more": 2787,
      "Ġtruth": 2788,
      "Ġnetwork": 2789,
      "Ġlack": 2790,
      "inary": 2791,
      "zy": 2792,
      "Ġpercent": 2793,
      "ĠGo": 2794,
      "Ġeat": 2795,
      "Ġobvious": 2796,
      "Ġ^": 2797,
      "Ġopportun": 2798,
      "Ġsociety": 2799,
      "016": 2800,
      "Ġnice": 2801,
      "Ġwouldn": 2802,
      "Ġlearning": 2803,
      "Ġscient": 2804,
      "eah": 2805,
      "Ġstri": 2806,
      "Ġagre": 2807,
      "illed": 2808,
      "Ġsun": 2809,
      "alls": 2810,
      "ceed": 2811,
      "44": 2812,
      "uk": 2813,
      "Ġfoot": 2814,
      "Ġfast": 2815,
      "ĠTw": 2816,
      "ground": 2817,
      "tain": 2818,
      "Ġâ": 2819,
      "ĠHar": 2820,
      "oring": 2821,
      "Ġcouldn": 2822,
      "Ġfac": 2823,
      "Ġability": 2824,
      "Ġeffects": 2825,
      "Ġguess": 2826,
      "ems": 2827,
      "Ġhit": 2828,
      "nces": 2829,
      "Ġmeaning": 2830,
      "?âĢĿ": 2831,
      "osition": 2832,
      "ĠPart": 2833,
      "ension": 2834,
      "irth": 2835,
      "uted": 2836,
      "ĠEnglish": 2837,
      "atory": 2838,
      "Ġcells": 2839,
      "ĠAb": 2840,
      "epend": 2841,
      "##": 2842,
      "Ġswe": 2843,
      "Ġlength": 2844,
      "Ġrange": 2845,
      "ĠCent": 2846,
      "ino": 2847,
      "fort": 2848,
      "olar": 2849,
      "Ġfinan": 2850,
      "RE": 2851,
      "Ġsus": 2852,
      "olic": 2853,
      "55": 2854,
      "Ġanalysis": 2855,
      "uel": 2856,
      "Ġcomputer": 2857,
      "Ġwebs": 2858,
      "Ġbott": 2859,
      "()": 2860,
      "urt": 2861,
      "ĠMed": 2862,
      "On": 2863,
      "Ġcontinue": 2864,
      "Ġjo": 2865,
      "Ġintrodu": 2866,
      "Ġguy": 2867,
      "ĠJan": 2868,
      "ĠIm": 2869,
      "cription": 2870,
      "Ġtotal": 2871,
      "Ġsam": 2872,
      "NA": 2873,
      "astic": 2874,
      "Ġtit": 2875,
      "Ġcard": 2876,
      "ÂłÂłÂł": 2877,
      "Ġpoor": 2878,
      "Ġpopular": 2879,
      "Ġlate": 2880,
      "Ġfeeling": 2881,
      "Ġcollect": 2882,
      "ĠNe": 2883,
      "oes": 2884,
      "yond": 2885,
      "ĠWhile": 2886,
      "load": 2887,
      "Ġimprove": 2888,
      "ĠÂłĠÂł": 2889,
      "Ġresponse": 2890,
      "Ġengine": 2891,
      "ibly": 2892,
      "Ġgroups": 2893,
      "Ġquality": 2894,
      "Ġnecessary": 2895,
      "39": 2896,
      "IC": 2897,
      "Ġperformance": 2898,
      "arth": 2899,
      "47": 2900,
      "ta": 2901,
      "ĠEven": 2902,
      "duct": 2903,
      "Ġexperien": 2904,
      "su": 2905,
      "ief": 2906,
      "Ġparents": 2907,
      "Ġrequired": 2908,
      "anced": 2909,
      "ĠArt": 2910,
      "Ġhair": 2911,
      "Ġdeg": 2912,
      "gest": 2913,
      "Ġliter": 2914,
      "Ex": 2915,
      "Ġbooks": 2916,
      "Ġalone": 2917,
      "Ġhappy": 2918,
      "II": 2919,
      "apan": 2920,
      "Ġtravel": 2921,
      "cell": 2922,
      "Ġphone": 2923,
      "omb": 2924,
      "ivity": 2925,
      "Is": 2926,
      "Ġvoice": 2927,
      "Ġbab": 2928,
      "ned": 2929,
      "Con": 2930,
      "Ġmultip": 2931,
      "Ġrecent": 2932,
      "abel": 2933,
      "Ġestab": 2934,
      "46": 2935,
      "Ġver": 2936,
      "Ġinvolved": 2937,
      "ĠCal": 2938,
      "Ġshall": 2939,
      "Ġson": 2940,
      "Ġign": 2941,
      "ucle": 2942,
      "Ġparts": 2943,
      "They": 2944,
      "Ġfavor": 2945,
      "Ġinte": 2946,
      "erve": 2947,
      "Ġemot": 2948,
      "Ġimmedi": 2949,
      "just": 2950,
      "Ġuser": 2951,
      "Ġfrequ": 2952,
      "ĠRuss": 2953,
      "Ġcommunic": 2954,
      "agn": 2955,
      "Ġoffer": 2956,
      "ales": 2957,
      "Ġskin": 2958,
      "omp": 2959,
      "014": 2960,
      "ournal": 2961,
      "Ġdecided": 2962,
      ">\\<": 2963,
      "Ġagree": 2964,
      "pite": 2965,
      "ĠLet": 2966,
      "proof": 2967,
      "rict": 2968,
      "Ġeasily": 2969,
      "Ġlevels": 2970,
      "Ġsold": 2971,
      "Ġcover": 2972,
      "ĠTH": 2973,
      "Ġ...": 2974,
      "olute": 2975,
      "AC": 2976,
      "Ġextreme": 2977,
      "Ġsafe": 2978,
      "Ġscience": 2979,
      "Ġmilitary": 2980,
      "One": 2981,
      "eq": 2982,
      "yl": 2983,
      "cient": 2984,
      "Ġbal": 2985,
      "Ġmodern": 2986,
      "Ġthreat": 2987,
      "Ġtou": 2988,
      "Ġstructure": 2989,
      "Ġwants": 2990,
      "dom": 2991,
      "Ġfinal": 2992,
      "ĠÎ": 2993,
      "Ġhuge": 2994,
      "Ġreach": 2995,
      "Ġdrink": 2996,
      "Ġsurv": 2997,
      "ĠOf": 2998,
      "Ġheav": 2999,
      "Ġchance": 3000,
      "05": 3001,
      "Ġstru": 3002,
      "ĠInt": 3003,
      "Ġtypes": 3004,
      "Ġareas": 3005,
      "Ġple": 3006,
      "Ġthird": 3007,
      "Ġperhaps": 3008,
      "hel": 3009,
      "Ġroad": 3010,
      "ĠCont": 3011,
      "Ġaren": 3012,
      "Ġens": 3013,
      "Ġtemper": 3014,
      "Ġspeed": 3015,
      "iam": 3016,
      "irm": 3017,
      "Ġmorning": 3018,
      "Ġstandard": 3019,
      "oses": 3020,
      "Ġoccur": 3021,
      "Ġnumbers": 3022,
      "Ġfem": 3023,
      "urd": 3024,
      "Ġfinally": 3025,
      "udd": 3026,
      "Ġavoid": 3027,
      "Ġsecurity": 3028,
      "Ġwide": 3029,
      "Ġevents": 3030,
      "inally": 3031,
      "uments": 3032,
      "ada": 3033,
      "Ġpolice": 3034,
      "ball": 3035,
      "aling": 3036,
      "ĠComm": 3037,
      "Ġservices": 3038,
      "Ġce": 3039,
      "Ġvot": 3040,
      "Ġda": 3041,
      "Ġfocus": 3042,
      "artment": 3043,
      "Ġheld": 3044,
      "Ġbrought": 3045,
      "ĠHere": 3046,
      "Ġgives": 3047,
      "Ġgun": 3048,
      "Ġgas": 3049,
      "Ġdro": 3050,
      "Ġconditions": 3051,
      "rest": 3052,
      "Ġexperim": 3053,
      "ĠIntern": 3054,
      "Ġ>": 3055,
      "aul": 3056,
      "Why": 3057,
      "ĠJew": 3058,
      "Ġ;": 3059,
      "Ġrights": 3060,
      "Ġcat": 3061,
      "Ġeconomic": 3062,
      "Ġproducts": 3063,
      "07": 3064,
      "Ġadded": 3065,
      "ĠYes": 3066,
      "ky": 3067,
      "Ġdecl": 3068,
      "Ġregular": 3069,
      "Ġfine": 3070,
      "itude": 3071,
      "ĠDr": 3072,
      "with": 3073,
      "imum": 3074,
      "ux": 3075,
      "ties": 3076,
      "iles": 3077,
      "hood": 3078,
      "She": 3079,
      "Ġrecomm": 3080,
      "icles": 3081,
      "Ġpubl": 3082,
      "king": 3083,
      "Ġcool": 3084,
      "amb": 3085,
      "Ġplaying": 3086,
      "$,": 3087,
      "Ġord": 3088,
      "ĠMus": 3089,
      "Ġpopulation": 3090,
      "itation": 3091,
      "Ġcomments": 3092,
      "Ph": 3093,
      "Ġshown": 3094,
      "Ġtraining": 3095,
      "col": 3096,
      "Ġhost": 3097,
      "Ġmechan": 3098,
      "hold": 3099,
      "Ġchoice": 3100,
      "Ġdraw": 3101,
      "Ġgone": 3102,
      "Ġbox": 3103,
      "06": 3104,
      "Ġcharacters": 3105,
      "Ġur": 3106,
      "Ġvict": 3107,
      "Ġrelated": 3108,
      "ees": 3109,
      "Ġmeasure": 3110,
      "Ġweeks": 3111,
      "Ġbreat": 3112,
      "Ġflow": 3113,
      "Ġtown": 3114,
      "ounds": 3115,
      "Ġwhatever": 3116,
      "cies": 3117,
      "Ġfa": 3118,
      "Ġir": 3119,
      "Ġaccording": 3120,
      "Ġprinci": 3121,
      "Ġdream": 3122,
      "IT": 3123,
      "idge": 3124,
      "Ġproduction": 3125,
      "Ġdemon": 3126,
      "Ġpractice": 3127,
      "Ġfell": 3128,
      "At": 3129,
      "Ġprevent": 3130,
      "ously": 3131,
      "Ġbase": 3132,
      "lation": 3133,
      "Ġsolution": 3134,
      "ĠProject": 3135,
      "Ġcam": 3136,
      "Ġrock": 3137,
      "Ġconvers": 3138,
      "Ġbank": 3139,
      "that": 3140,
      "bed": 3141,
      "Ġdel": 3142,
      "but": 3143,
      "Ġworked": 3144,
      "Ġgrowth": 3145,
      "rs": 3146,
      "Ġpositive": 3147,
      "Ġunderstanding": 3148,
      "],": 3149,
      "Ġculture": 3150,
      "Ġfeed": 3151,
      "Ġcredit": 3152,
      "Ġopin": 3153,
      "ager": 3154,
      "oura": 3155,
      "ament": 3156,
      "Ġcertainly": 3157,
      "lier": 3158,
      "Ġdoub": 3159,
      "ĠDem": 3160,
      "Ġchanged": 3161,
      "Ġpolicy": 3162,
      "eff": 3163,
      "mission": 3164,
      "Ġearth": 3165,
      "Ġassum": 3166,
      "Ġindustry": 3167,
      "Ġthous": 3168,
      "Ġsoftware": 3169,
      "ara": 3170,
      "Ġnational": 3171,
      "ĠCo": 3172,
      "da": 3173,
      "fact": 3174,
      "ken": 3175,
      "Ġfat": 3176,
      "Ġcolor": 3177,
      "Ġsignificant": 3178,
      "Ġcontact": 3179,
      "Ġdocument": 3180,
      "uten": 3181,
      "aries": 3182,
      "Ġideas": 3183,
      "Ġvalues": 3184,
      "AM": 3185,
      "ĠPresident": 3186,
      "pre": 3187,
      "Ġcry": 3188,
      "ii": 3189,
      "Ġsix": 3190,
      "Ġdecision": 3191,
      "hib": 3192,
      "08": 3193,
      "Ġaddition": 3194,
      "oly": 3195,
      "Ġcourt": 3196,
      "Ġsett": 3197,
      "Ġarch": 3198,
      "Ġgiving": 3199,
      "Un": 3200,
      "Ġreve": 3201,
      "US": 3202,
      "key": 3203,
      "Le": 3204,
      "Ġpiece": 3205,
      "Ġfigure": 3206,
      "ĠUs": 3207,
      "49": 3208,
      "bf": 3209,
      "Ġhappens": 3210,
      "Ġinvestig": 3211,
      "Ġreasons": 3212,
      "Ġdeli": 3213,
      "aur": 3214,
      "rael": 3215,
      "Cl": 3216,
      "pha": 3217,
      "no": 3218,
      "Ġmiddle": 3219,
      "rit": 3220,
      "Ġseemed": 3221,
      "Med": 3222,
      "ĠMin": 3223,
      "ĠHer": 3224,
      "undred": 3225,
      "ĠJapan": 3226,
      "Ġthus": 3227,
      "Ġteach": 3228,
      "Ġpen": 3229,
      "Ġexec": 3230,
      "atives": 3231,
      "Ġchoose": 3232,
      "Ġoffice": 3233,
      "OS": 3234,
      "part": 3235,
      "ald": 3236,
      "Ġprivate": 3237,
      "ĠKing": 3238,
      "oup": 3239,
      "ĠSm": 3240,
      "Ġtreatment": 3241,
      "Ġstreng": 3242,
      "Ġautom": 3243,
      "urance": 3244,
      "pper": 3245,
      "Ġwife": 3246,
      "ellig": 3247,
      "order": 3248,
      "ashing": 3249,
      "Ġteac": 3250,
      "Ġbeyond": 3251,
      "Now": 3252,
      "ĠMost": 3253,
      "Ġaverage": 3254,
      "rows": 3255,
      "Ġcompl": 3256,
      "Ġreality": 3257,
      "Ġ`": 3258,
      "Ġmultiple": 3259,
      "Ġwhose": 3260,
      "\">": 3261,
      "Ġlif": 3262,
      "ĠĠĠĠĠĠĠĠĠ": 3263,
      "Ġcand": 3264,
      "65": 3265,
      "09": 3266,
      "ris": 3267,
      "Ġarri": 3268,
      "def": 3269,
      "Pro": 3270,
      "aughter": 3271,
      "ED": 3272,
      "Ġcontr": 3273,
      "Ġalthough": 3274,
      "015": 3275,
      "org": 3276,
      "Ġund": 3277,
      "pir": 3278,
      "ĠDav": 3279,
      "minist": 3280,
      "Ġnote": 3281,
      "iled": 3282,
      "006": 3283,
      "Ġdrive": 3284,
      "ĠChina": 3285,
      "ĠEl": 3286,
      "Ġallowed": 3287,
      "Ġinn": 3288,
      "Ġten": 3289,
      "Ġdirectly": 3290,
      "imin": 3291,
      "$.": 3292,
      "Ġtrust": 3293,
      "resp": 3294,
      "Ġpressure": 3295,
      "this": 3296,
      "TATE": 3297,
      "ĠEvery": 3298,
      "eta": 3299,
      "Ġrules": 3300,
      "Ġcapt": 3301,
      "Ġuses": 3302,
      "ĠAg": 3303,
      "Ġpan": 3304,
      "which": 3305,
      "ĠAct": 3306,
      "iful": 3307,
      "ĠAlso": 3308,
      "ĠAug": 3309,
      "Ġspect": 3310,
      "Ġcapital": 3311,
      "ronic": 3312,
      "Ġquant": 3313,
      "Ġplease": 3314,
      "Ġanti": 3315,
      "enty": 3316,
      "Ġcivil": 3317,
      "Ġready": 3318,
      "Ġimplement": 3319,
      "ĠDes": 3320,
      "Ġfit": 3321,
      "ĠĠĠĠĠĠĠĠĠĠĠĠĠĠĠ": 3322,
      "Ġgenerally": 3323,
      "rench": 3324,
      "Ġarm": 3325,
      "Ġweap": 3326,
      "Ġweb": 3327,
      "All": 3328,
      "Ġlegal": 3329,
      "Be": 3330,
      "itely": 3331,
      "Ġfinancial": 3332,
      "ĠBar": 3333,
      "Ġknows": 3334,
      "Ġcold": 3335,
      "room": 3336,
      "rupt": 3337,
      "Ġpurpose": 3338,
      "Ġmoving": 3339,
      "Ġfeet": 3340,
      "Ġroll": 3341,
      "Ġconsist": 3342,
      "aging": 3343,
      "onym": 3344,
      "Ġstar": 3345,
      "ping": 3346,
      "Ġspirit": 3347,
      "ĠChar": 3348,
      "ĠObama": 3349,
      "Ġder": 3350,
      "ongrightarrow": 3351,
      "ĠNorth": 3352,
      "irection": 3353,
      "Ġaware": 3354,
      "Ġgold": 3355,
      "ĠMore": 3356,
      "zz": 3357,
      "Ġprep": 3358,
      "ĠAust": 3359,
      "ĠRepublic": 3360,
      "Ġupd": 3361,
      "Ġglobal": 3362,
      "Ġvs": 3363,
      "ror": 3364,
      "ĠJes": 3365,
      "Ġlines": 3366,
      "Ġsave": 3367,
      "Ġmessage": 3368,
      "apter": 3369,
      "Ġdoll": 3370,
      "ĠCor": 3371,
      "OT": 3372,
      "aly": 3373,
      "ners": 3374,
      "By": 3375,
      "Ġpc": 3376,
      "Ġmedical": 3377,
      "Ġactual": 3378,
      "Ð°": 3379,
      "Ġleaders": 3380,
      "Ġslight": 3381,
      "Ðµ": 3382,
      "iday": 3383,
      "ech": 3384,
      "Ġcopy": 3385,
      "iny": 3386,
      "Ġwarm": 3387,
      "Ġoption": 3388,
      "Ġrepe": 3389,
      "LL": 3390,
      "omen": 3391,
      "band": 3392,
      "75": 3393,
      "Ġbuilt": 3394,
      "ederal": 3395,
      "airs": 3396,
      "Ġpresident": 3397,
      "Ġselect": 3398,
      "Ġrecently": 3399,
      "Ġscreen": 3400,
      "Ġsurface": 3401,
      "ham": 3402,
      "ests": 3403,
      "word": 3404,
      "Ġbrother": 3405,
      "Ġdat": 3406,
      "Ġpsych": 3407,
      "alse": 3408,
      "label": 3409,
      "lection": 3410,
      "Ġfra": 3411,
      "how": 3412,
      "Ġmix": 3413,
      "Ġseason": 3414,
      "Ġpattern": 3415,
      "what": 3416,
      "nes": 3417,
      "Ġmist": 3418,
      "Ġemail": 3419,
      "Ġsequ": 3420,
      "ĠBecause": 3421,
      "Ġball": 3422,
      "men": 3423,
      "Ġstyle": 3424,
      "ĠAfric": 3425,
      "Ġguys": 3426,
      "Ġtherefore": 3427,
      "based": 3428,
      "pri": 3429,
      "oming": 3430,
      "ĠPar": 3431,
      "Ġemer": 3432,
      "Ð¾": 3433,
      "Ġproperty": 3434,
      "Ġcommand": 3435,
      "Ġled": 3436,
      "arp": 3437,
      "Ġeffective": 3438,
      "Ġabsolute": 3439,
      "Ġhundred": 3440,
      "Ġbecomes": 3441,
      "ĠSouth": 3442,
      "03": 3443,
      "uary": 3444,
      "Ġcook": 3445,
      "new": 3446,
      "ession": 3447,
      "vant": 3448,
      "Ġbasic": 3449,
      "Ġbirth": 3450,
      "Ġwebsite": 3451,
      "ius": 3452,
      "state": 3453,
      "Ġbehavior": 3454,
      "Ġdanger": 3455,
      "isions": 3456,
      "Ġfeatures": 3457,
      "Ġbeginning": 3458,
      "Ġprote": 3459,
      "Ġcarry": 3460,
      "Ġwrote": 3461,
      "ĠKe": 3462,
      "Ġeye": 3463,
      "Ġmodels": 3464,
      "ĠGoogle": 3465,
      "04": 3466,
      "han": 3467,
      "64": 3468,
      "orrow": 3469,
      "Ġofficial": 3470,
      "iced": 3471,
      "Ġformer": 3472,
      "Ġparticip": 3473,
      "005": 3474,
      "Ġwait": 3475,
      "Ġaltern": 3476,
      "arc": 3477,
      "roy": 3478,
      "rely": 3479,
      "Ġinstall": 3480,
      "iven": 3481,
      "Ġcondition": 3482,
      "aign": 3483,
      "see": 3484,
      "ights": 3485,
      "ĠFrom": 3486,
      "200": 3487,
      "ĠGl": 3488,
      "hern": 3489,
      "Ġcontext": 3490,
      "orks": 3491,
      "Ġassociated": 3492,
      "kk": 3493,
      "itiz": 3494,
      "Ġexplain": 3495,
      "Ġplaces": 3496,
      "Ġstraight": 3497,
      "Ġeducation": 3498,
      "Ġuseful": 3499,
      "Ġmovement": 3500,
      "Ġparticularly": 3501,
      "imal": 3502,
      "Ġmachine": 3503,
      "Ġexpected": 3504,
      "02": 3505,
      "Ġdisease": 3506,
      "Ġindepend": 3507,
      "Ġstories": 3508,
      "ĠOct": 3509,
      "Ġdemand": 3510,
      "Ġmeant": 3511,
      "estern": 3512,
      "ĠSim": 3513,
      "Ġult": 3514,
      "Ġprovided": 3515,
      "ĠAny": 3516,
      "ighb": 3517,
      "Not": 3518,
      "ĠSpe": 3519,
      "ael": 3520,
      "itter": 3521,
      "imately": 3522,
      "Ġshot": 3523,
      "cribe": 3524,
      "asc": 3525,
      "Ġprior": 3526,
      "oles": 3527,
      "Ġmax": 3528,
      "mathcal": 3529,
      "Ġbound": 3530,
      "Ġclos": 3531,
      "Ġallows": 3532,
      "Ġ)": 3533,
      "Ġmemory": 3534,
      "ilos": 3535,
      "kay": 3536,
      "ores": 3537,
      "Ġ_": 3538,
      "angle": 3539,
      "ĠIsrael": 3540,
      "Ġdate": 3541,
      "ĠApr": 3542,
      "ĠState": 3543,
      "Ġintegr": 3544,
      "ĠFirst": 3545,
      "Ġband": 3546,
      "ĠRom": 3547,
      "Ġbroad": 3548,
      "rand": 3549,
      "Ġsection": 3550,
      "Ġmedic": 3551,
      "ani": 3552,
      "Ġburn": 3553,
      "aches": 3554,
      "With": 3555,
      "Ġvia": 3556,
      "istance": 3557,
      "Ġmethods": 3558,
      "iation": 3559,
      "Ġprint": 3560,
      "Ġhistor": 3561,
      "Ġwish": 3562,
      "rief": 3563,
      "Ġharm": 3564,
      "Ġnucle": 3565,
      "ils": 3566,
      "Ar": 3567,
      "Ġrout": 3568,
      "dden": 3569,
      "Ġpaid": 3570,
      "Ġcentury": 3571,
      "Ġplayers": 3572,
      "Ġload": 3573,
      "Ġhaven": 3574,
      "odes": 3575,
      "Ġdie": 3576,
      "entially": 3577,
      "Ġliber": 3578,
      "ĠAre": 3579,
      "500": 3580,
      "====": 3581,
      "earch": 3582,
      "Ġunc": 3583,
      "ancy": 3584,
      "')": 3585,
      "Ġgrad": 3586,
      "ĠIS": 3587,
      "ĠSte": 3588,
      "ĠSTE": 3589,
      "Ġeconomy": 3590,
      "Ġcalcul": 3591,
      "Ġgoal": 3592,
      "Ġpurch": 3593,
      "orry": 3594,
      "Ġwat": 3595,
      "Ġvac": 3596,
      "Ġvisit": 3597,
      "htt": 3598,
      "fig": 3599,
      "ynam": 3600,
      "Ġmouth": 3601,
      "Ġactivity": 3602,
      "Ġplayed": 3603,
      "Ġdog": 3604,
      "aled": 3605,
      "Ġapplication": 3606,
      "Ġkept": 3607,
      "ype": 3608,
      "Ġunf": 3609,
      "Ġgreen": 3610,
      "iant": 3611,
      "Ġadvant": 3612,
      "Ġsupposed": 3613,
      "inter": 3614,
      "Ġsudden": 3615,
      "Ġfing": 3616,
      "Ġlat": 3617,
      "Ġscen": 3618,
      "Ġexerc": 3619,
      "rie": 3620,
      "Ġcosts": 3621,
      "ĠMon": 3622,
      "Ġtele": 3623,
      "Ġvote": 3624,
      "Ġincreasing": 3625,
      "Ġdamage": 3626,
      "Ġge": 3627,
      "Ġlaws": 3628,
      "nown": 3629,
      "aker": 3630,
      "017": 3631,
      "Ġspent": 3632,
      "igma": 3633,
      "section": 3634,
      "ss": 3635,
      "isf": 3636,
      "Ġsecret": 3637,
      "gar": 3638,
      "cience": 3639,
      "comp": 3640,
      "Ġlarger": 3641,
      "Ġchem": 3642,
      "ĠEm": 3643,
      "Ġkilled": 3644,
      "umn": 3645,
      "year": 3646,
      "Ġmoved": 3647,
      "ĠEarth": 3648,
      "ae": 3649,
      "Ġcast": 3650,
      "Ġtrou": 3651,
      "Ġdeveloped": 3652,
      "Ġstrugg": 3653,
      "Ġgod": 3654,
      "Ġhop": 3655,
      "iber": 3656,
      "Ġclearly": 3657,
      "Ġfuck": 3658,
      "Ġbur": 3659,
      "Ġproduce": 3660,
      "Ġstudies": 3661,
      "Ġsounds": 3662,
      "Ġdirection": 3663,
      "Ġhom": 3664,
      "inct": 3665,
      "Ġrule": 3666,
      "42": 3667,
      "iverse": 3668,
      "Ġmentioned": 3669,
      "Ġparam": 3670,
      "41": 3671,
      "Ġinj": 3672,
      "Ġresources": 3673,
      "Ġnearly": 3674,
      "Ġseeing": 3675,
      "Ġearlier": 3676,
      "la": 3677,
      "Ġcontract": 3678,
      "Ġreceived": 3679,
      "ĠTV": 3680,
      "mark": 3681,
      "Ġplant": 3682,
      "onymous": 3683,
      "Ġrespond": 3684,
      "Ġunique": 3685,
      "Ġcompon": 3686,
      "ĠPeople": 3687,
      "well": 3688,
      "Ġspread": 3689,
      "Ġargument": 3690,
      "Ġheat": 3691,
      "ĠInst": 3692,
      "pret": 3693,
      "ĠSTATE": 3694,
      "Ġstock": 3695,
      "Ġneighb": 3696,
      "Ġpatients": 3697,
      "Ġenem": 3698,
      "Ġpow": 3699,
      "Ġusers": 3700,
      "Ġshoot": 3701,
      "ica": 3702,
      "gal": 3703,
      "Ġpowerful": 3704,
      "iling": 3705,
      "ĠChristian": 3706,
      "ĠChe": 3707,
      "Ġoptions": 3708,
      "Ġblue": 3709,
      "anc": 3710,
      "ĠAdd": 3711,
      "ube": 3712,
      "ĠJesus": 3713,
      "ĠSw": 3714,
      "Ġlearned": 3715,
      "resh": 3716,
      "Ġgreater": 3717,
      "Ġspecies": 3718,
      "cast": 3719,
      "ĠBritish": 3720,
      "urb": 3721,
      "Ġaspect": 3722,
      "Ġprogress": 3723,
      "istics": 3724,
      "Ġstarting": 3725,
      "Ġplayer": 3726,
      "Well": 3727,
      "Ġhtt": 3728,
      "88": 3729,
      "prove": 3730,
      "Ġpeace": 3731,
      "ĠHouse": 3732,
      "Ġprovides": 3733,
      "LE": 3734,
      "Ġnegative": 3735,
      "Ġlimit": 3736,
      "56": 3737,
      "Ġpredict": 3738,
      "Ġmer": 3739,
      "Ġcampaign": 3740,
      "Ġindividuals": 3741,
      "Ġbenefits": 3742,
      "ĠOh": 3743,
      "edom": 3744,
      "Ġlimited": 3745,
      "}(": 3746,
      "idth": 3747,
      "AP": 3748,
      "Ġaccur": 3749,
      "57": 3750,
      "box": 3751,
      "Ġnation": 3752,
      "})": 3753,
      "lict": 3754,
      "ĠSTEP": 3755,
      "ĠMich": 3756,
      "Ġmid": 3757,
      "Ġimmediately": 3758,
      "Ġinterested": 3759,
      "mar": 3760,
      "reci": 3761,
      "ĠComp": 3762,
      "Ġid": 3763,
      "ls": 3764,
      "raw": 3765,
      "Ġlose": 3766,
      "ĠÃ": 3767,
      ",\\": 3768,
      "TS": 3769,
      "Ġgraph": 3770,
      "ĠSam": 3771,
      "ĠMark": 3772,
      "âĢĿ.": 3773,
      "equation": 3774,
      "Ġround": 3775,
      "OM": 3776,
      "Ġfollowed": 3777,
      "Ġfactors": 3778,
      "Ġcaused": 3779,
      "Ġanaly": 3780,
      "Ġeasier": 3781,
      "Ġtouch": 3782,
      "004": 3783,
      "Ġthroughout": 3784,
      "RI": 3785,
      "Ġnames": 3786,
      "Ġmulti": 3787,
      "Ġmember": 3788,
      "nds": 3789,
      "ĠOur": 3790,
      "Tr": 3791,
      "Here": 3792,
      "Ġhighly": 3793,
      "Ġanimals": 3794,
      "cont": 3795,
      "ubMed": 3796,
      "$\\": 3797,
      "azing": 3798,
      "001": 3799,
      "Ġframe": 3800,
      "Ġmatch": 3801,
      "Ġesc": 3802,
      "Ġflu": 3803,
      "43": 3804,
      "Ġtask": 3805,
      "Ġstress": 3806,
      "Ġcontain": 3807,
      "Ġcomfort": 3808,
      "eration": 3809,
      "Ġstrength": 3810,
      "Ġopportunity": 3811,
      "Ġfully": 3812,
      "utenberg": 3813,
      "Ġwood": 3814,
      "down": 3815,
      "><": 3816,
      "Ġbaby": 3817,
      "Ġstick": 3818,
      "Ġinterview": 3819,
      "ĠNational": 3820,
      "you": 3821,
      "ague": 3822,
      "Ġthoughts": 3823,
      "Ġprec": 3824,
      "ulations": 3825,
      "ulate": 3826,
      "arian": 3827,
      "lin": 3828,
      "Ġinstance": 3829,
      "ked": 3830,
      "Ġvirt": 3831,
      "Ġgrand": 3832,
      "Ġdesigned": 3833,
      "aven": 3834,
      "58": 3835,
      "ĠRed": 3836,
      "Ġexpression": 3837,
      "enge": 3838,
      "ĠPol": 3839,
      "Ġbeautiful": 3840,
      "Ġchalleng": 3841,
      "Ġnut": 3842,
      "Ġpassed": 3843,
      "Ġreligious": 3844,
      "cles": 3845,
      "Ġonto": 3846,
      "Ġwall": 3847,
      "atform": 3848,
      "ĠSee": 3849,
      "Ġdescribed": 3850,
      "Ġmount": 3851,
      "Ġmagn": 3852,
      "Ġbelief": 3853,
      "ĠMany": 3854,
      "Ġadditional": 3855,
      "orge": 3856,
      "ĠTra": 3857,
      "aint": 3858,
      "OU": 3859,
      "mpt": 3860,
      "Ġstage": 3861,
      "Ġcompared": 3862,
      "ĠSince": 3863,
      "lied": 3864,
      "Ġscene": 3865,
      "ĠWest": 3866,
      "Ġelements": 3867,
      "ĠDis": 3868,
      "alpha": 3869,
      "ĠGO": 3870,
      "Ġwatching": 3871,
      "Ġnovel": 3872,
      "Ġnor": 3873,
      "ags": 3874,
      "ĠCons": 3875,
      "abor": 3876,
      "ustr": 3877,
      "Ġrand": 3878,
      "inese": 3879,
      "Ġcharge": 3880,
      "iers": 3881,
      "Ġopinion": 3882,
      "Ġcho": 3883,
      "ĠSer": 3884,
      "gn": 3885,
      "Ġdetails": 3886,
      "Ġdied": 3887,
      "Pl": 3888,
      "kes": 3889,
      "aper": 3890,
      "rab": 3891,
      "Ġhus": 3892,
      "Ġfig": 3893,
      "actions": 3894,
      "Ġforces": 3895,
      "ĠOther": 3896,
      "Yes": 3897,
      "bon": 3898,
      "Ġborn": 3899,
      "ondon": 3900,
      "iver": 3901,
      "acter": 3902,
      "Ġrace": 3903,
      "round": 3904,
      "Do": 3905,
      "ett": 3906,
      "Ġintellig": 3907,
      "izes": 3908,
      "mitted": 3909,
      "Ġachieve": 3910,
      "rum": 3911,
      "Ġtrade": 3912,
      "Ġcancer": 3913,
      "ĠLike": 3914,
      "Ġcurrently": 3915,
      "Ġbill": 3916,
      "Ġworse": 3917,
      "Ġkid": 3918,
      "uman": 3919,
      "itable": 3920,
      "Ġbattle": 3921,
      "Ġcitiz": 3922,
      "Ġremain": 3923,
      "wards": 3924,
      "Ġdemonstr": 3925,
      "Ġtitle": 3926,
      "ortunately": 3927,
      "Longrightarrow": 3928,
      "Ġsubst": 3929,
      "cember": 3930,
      "ady": 3931,
      "ffic": 3932,
      "Ġeventually": 3933,
      "ING": 3934,
      "orts": 3935,
      "Ġdim": 3936,
      "EC": 3937,
      "Ġstatement": 3938,
      "gment": 3939,
      "othes": 3940,
      "Ġwild": 3941,
      "Ġrecommend": 3942,
      "ternal": 3943,
      "Ġfloor": 3944,
      "Ġvir": 3945,
      "Google": 3946,
      "opt": 3947,
      "Ġincreased": 3948,
      "oves": 3949,
      "mod": 3950,
      "brakk": 3951,
      "Ġboard": 3952,
      "Ġregion": 3953,
      "Oh": 3954,
      "Ġmanagement": 3955,
      "Ġcounter": 3956,
      "Ġforeign": 3957,
      "Ġenter": 3958,
      "Ġhelps": 3959,
      "Ġwilling": 3960,
      "Ġrelease": 3961,
      "After": 3962,
      "ĠFeb": 3963,
      "Ġencoura": 3964,
      "Ġrandom": 3965,
      "Ġrequires": 3966,
      "Ġmut": 3967,
      "Ġadminist": 3968,
      "unction": 3969,
      "Ġbasis": 3970,
      "Ġnamed": 3971,
      "Ġter": 3972,
      "inc": 3973,
      "Ġtruly": 3974,
      "respond": 3975,
      "Ġhyp": 3976,
      "list": 3977,
      "Ġnotice": 3978,
      "Ġdisplay": 3979,
      "018": 3980,
      "Ġtal": 3981,
      "ĠBlack": 3982,
      "ĠFrench": 3983,
      "amma": 3984,
      "Ġdoubt": 3985,
      "Ġmill": 3986,
      "Ġmostly": 3987,
      "alt": 3988,
      "log": 3989,
      "Ġdegree": 3990,
      "Ġtast": 3991,
      "Ġconduct": 3992,
      "Ġweak": 3993,
      "ategy": 3994,
      "ĠAugust": 3995,
      "Ġerror": 3996,
      "Ġactions": 3997,
      "Ġpun": 3998,
      "Ġappears": 3999,
      "ptember": 4000,
      "Ġreported": 4001,
      "Ġskills": 4002,
      "que": 4003,
      "002": 4004,
      "Ġang": 4005,
      "Ġdetect": 4006,
      "ulated": 4007,
      "Ġinsurance": 4008,
      "Ġrob": 4009,
      "osis": 4010,
      "Ġtemperature": 4011,
      "Ġrat": 4012,
      "Ġgrowing": 4013,
      "tered": 4014,
      "Ġreduce": 4015,
      "Ġmeeting": 4016,
      "change": 4017,
      "adem": 4018,
      "Ġcreating": 4019,
      "asion": 4020,
      "Ġthank": 4021,
      "atur": 4022,
      "Ġcenter": 4023,
      "Ġinput": 4024,
      "Ġmajority": 4025,
      "Let": 4026,
      "Ġcru": 4027,
      "ET": 4028,
      "ĠPaul": 4029,
      "riage": 4030,
      "clus": 4031,
      "Ġcollege": 4032,
      "Ġarms": 4033,
      "ifying": 4034,
      "Ġreflect": 4035,
      "}_": 4036,
      "ufact": 4037,
      "spe": 4038,
      "pective": 4039,
      "Ġcontinu": 4040,
      "Ð¸": 4041,
      "Ġexpress": 4042,
      "ĠII": 4043,
      "ĠAN": 4044,
      "Ġdrug": 4045,
      "Ġincluded": 4046,
      "Ġstream": 4047,
      "Ġpublished": 4048,
      ".[": 4049,
      "ek": 4050,
      "Ġapply": 4051,
      "Ġfunctions": 4052,
      "ĠGutenberg": 4053,
      "force": 4054,
      "Ġapparent": 4055,
      "ĠJanuary": 4056,
      "pes": 4057,
      "point": 4058,
      "Ġphoto": 4059,
      "anch": 4060,
      "Ġleading": 4061,
      "ĠJune": 4062,
      "pen": 4063,
      "ĠMarch": 4064,
      "XX": 4065,
      "Ġforms": 4066,
      "}^": 4067,
      "gor": 4068,
      "itness": 4069,
      "ception": 4070,
      "do": 4071,
      "ovember": 4072,
      "ĠPress": 4073,
      "78": 4074,
      "Ġadult": 4075,
      "Ġappropri": 4076,
      "AD": 4077,
      "vey": 4078,
      "Ġfactor": 4079,
      "Ġveh": 4080,
      "Ġoutput": 4081,
      "Ġthrow": 4082,
      "Ġbackground": 4083,
      "Ġtree": 4084,
      "ams": 4085,
      "rain": 4086,
      "Ġ/><": 4087,
      "lebr": 4088,
      "Ġsatisf": 4089,
      "Ġvalid": 4090,
      "Ġshop": 4091,
      "uild": 4092,
      "Ġeth": 4093,
      "Ġhosp": 4094,
      "board": 4095,
      "Ġclosed": 4096,
      "ĠScholar": 4097,
      "Some": 4098,
      "Ġspot": 4099,
      "TI": 4100,
      "Ġrefer": 4101,
      "Ġsteps": 4102,
      "Ġstudent": 4103,
      "Ġcompar": 4104,
      "ĠPM": 4105,
      "Ġunless": 4106,
      "ship": 4107,
      "Ġolder": 4108,
      "66": 4109,
      "ĠVal": 4110,
      "iring": 4111,
      "à¥": 4112,
      "Ġdefinitely": 4113,
      "urg": 4114,
      "Ġfaith": 4115,
      "reet": 4116,
      "Ġimages": 4117,
      "Ġdestroy": 4118,
      "ĠApril": 4119,
      "Ġpus": 4120,
      "ĠAmericans": 4121,
      "Ġsoul": 4122,
      "can": 4123,
      "ĠCour": 4124,
      "rem": 4125,
      "Ġfol": 4126,
      "Ġrid": 4127,
      "Qu": 4128,
      "Ġemb": 4129,
      "mbol": 4130,
      "Ġtools": 4131,
      "Ġfarm": 4132,
      "Ġsuccessful": 4133,
      "ensity": 4134,
      "Ġinform": 4135,
      "under": 4136,
      "ded": 4137,
      "Ġcandid": 4138,
      "inated": 4139,
      "Ġdiscussion": 4140,
      "Ġmob": 4141,
      "??": 4142,
      "rial": 4143,
      "ruit": 4144,
      "Ġfeature": 4145,
      "ĠLord": 4146,
      "ĠDavid": 4147,
      "ĠPal": 4148,
      "raft": 4149,
      "itect": 4150,
      "ĠIndia": 4151,
      "Ġterror": 4152,
      "Ġensure": 4153,
      "Ġdistance": 4154,
      "ĠPost": 4155,
      "ography": 4156,
      "Ġwindow": 4157,
      "Ġextremely": 4158,
      "atically": 4159,
      "ender": 4160,
      "ĠMod": 4161,
      "elta": 4162,
      "Ġsexual": 4163,
      "ĠAcc": 4164,
      "Ġbottom": 4165,
      "->": 4166,
      "ĠCong": 4167,
      "Ġhealthy": 4168,
      "003": 4169,
      "clude": 4170,
      "ml": 4171,
      "Ġcateg": 4172,
      "asure": 4173,
      "Ġtraditional": 4174,
      "otic": 4175,
      "Ġdevice": 4176,
      "Ġheavy": 4177,
      "Ġstatus": 4178,
      "Ġprefer": 4179,
      "ĠGreat": 4180,
      "Ġforg": 4181,
      "Ġhumans": 4182,
      "cp": 4183,
      "acebook": 4184,
      "Ġherself": 4185,
      "ici": 4186,
      "Ġconsequ": 4187,
      "sum": 4188,
      "Ġinitial": 4189,
      "Ġinternational": 4190,
      "ĠStud": 4191,
      "Ġwaiting": 4192,
      "illing": 4193,
      "Ġvill": 4194,
      "known": 4195,
      "Ġdefined": 4196,
      "ĠTrans": 4197,
      "raq": 4198,
      "019": 4199,
      "Ġleaving": 4200,
      "ĠCity": 4201,
      "Ġepis": 4202,
      "Ġcustomers": 4203,
      "Ġcontinued": 4204,
      "ĠMaybe": 4205,
      "Ġsetting": 4206,
      "ĠJuly": 4207,
      "ossible": 4208,
      "Ġmale": 4209,
      "Ġhonest": 4210,
      "\\\\": 4211,
      "Ġship": 4212,
      "ares": 4213,
      "Ġsmaller": 4214,
      "Ġaim": 4215,
      "59": 4216,
      "CC": 4217,
      "Ġer": 4218,
      "ĠWho": 4219,
      "vision": 4220,
      "Ġchurch": 4221,
      "ugg": 4222,
      "www": 4223,
      "Ġsaf": 4224,
      "ĠAc": 4225,
      "ĠGood": 4226,
      "wr": 4227,
      "Ġelement": 4228,
      "ocked": 4229,
      "Ġqual": 4230,
      "Ġindex": 4231,
      "Ġprograms": 4232,
      "Ġplatform": 4233,
      "ĠDemocr": 4234,
      "Ġcontroll": 4235,
      "Ġtells": 4236,
      "vere": 4237,
      "istory": 4238,
      "ĠIslam": 4239,
      "ait": 4240,
      "ĠRec": 4241,
      "ste": 4242,
      "Ġrates": 4243,
      "020": 4244,
      "Ġpatient": 4245,
      "Ġrich": 4246,
      "Ġconstit": 4247,
      "Ġincludes": 4248,
      "Ġwhom": 4249,
      "ula": 4250,
      "ĠChinese": 4251,
      "Ġinfluence": 4252,
      "ulf": 4253,
      "âĢ¢": 4254,
      "Ġbenefit": 4255,
      "Ġluck": 4256,
      "Ġevolution": 4257,
      "From": 4258,
      "Ġdistribution": 4259,
      "Ġmap": 4260,
      "Ġremind": 4261,
      "ij": 4262,
      "Ġasking": 4263,
      "Ġjobs": 4264,
      "rier": 4265,
      "wood": 4266,
      "Ġappreci": 4267,
      "ĠAustral": 4268,
      "Ġconflict": 4269,
      "var": 4270,
      "Ġcentral": 4271,
      "AA": 4272,
      "ĠMor": 4273,
      "ĠGree": 4274,
      "ĠArch": 4275,
      "Ġdaily": 4276,
      "Ġhusband": 4277,
      "Ġotherwise": 4278,
      "Ġrequest": 4279,
      "PS": 4280,
      "Ġglass": 4281,
      "Ġsources": 4282,
      "ears": 4283,
      "Ġconnection": 4284,
      "Ġincome": 4285,
      "term": 4286,
      "ĠPat": 4287,
      "Ġdisp": 4288,
      "Ġacqu": 4289,
      "Ġproduced": 4290,
      "Ġprimary": 4291,
      "ya": 4292,
      "Ġnumer": 4293,
      "cks": 4294,
      "odies": 4295,
      "ki": 4296,
      "xi": 4297,
      "Ġestabl": 4298,
      "Ġspl": 4299,
      "Ġmicro": 4300,
      "Ġdespite": 4301,
      "bar": 4302,
      "Ġking": 4303,
      "Ġshowed": 4304,
      "ĠJack": 4305,
      "Ġspeech": 4306,
      "Or": 4307,
      "Don": 4308,
      "uration": 4309,
      "Ġestim": 4310,
      "Ġphilos": 4311,
      "Ġpresence": 4312,
      "Ġitems": 4313,
      "Ġinstit": 4314,
      "pid": 4315,
      "Ġvictim": 4316,
      "ĠEv": 4317,
      "Ġscale": 4318,
      "Ġdetermine": 4319,
      "Ġslightly": 4320,
      "Ġforget": 4321,
      "Ġelectric": 4322,
      "bum": 4323,
      "Ġattract": 4324,
      "ford": 4325,
      "Ġlisten": 4326,
      "oving": 4327,
      "Ġbud": 4328,
      "Ġworkers": 4329,
      "igr": 4330,
      "Ġcauses": 4331,
      "Ġtrain": 4332,
      "opy": 4333,
      "Ġhate": 4334,
      "Ġletter": 4335,
      "clusion": 4336,
      "Ġeating": 4337,
      "ĠDep": 4338,
      "ocol": 4339,
      "och": 4340,
      "top": 4341,
      "Ġfalse": 4342,
      "ache": 4343,
      "works": 4344,
      "Ġjump": 4345,
      "gorith": 4346,
      "rim": 4347,
      "ĠFound": 4348,
      "Ġdiet": 4349,
      "ĠLondon": 4350,
      "place": 4351,
      "Ġeval": 4352,
      "Ġcorpor": 4353,
      "Ġactivities": 4354,
      "Ġcatch": 4355,
      "ÑĤ": 4356,
      "ĠIraq": 4357,
      "Ġchann": 4358,
      "Ġgirls": 4359,
      "izations": 4360,
      "Ġreligion": 4361,
      "Ġcalls": 4362,
      "umber": 4363,
      "Ġdoctor": 4364,
      "Ġmanufact": 4365,
      "Ġbul": 4366,
      "77": 4367,
      "ĠWhite": 4368,
      "Ġapplications": 4369,
      "Ġtransform": 4370,
      "ading": 4371,
      "field": 4372,
      "ĠOnce": 4373,
      "ym": 4374,
      "ĠDecember": 4375,
      "Ġstrategy": 4376,
      "from": 4377,
      "ĠMet": 4378,
      "Ġhell": 4379,
      "Ġdynam": 4380,
      "oted": 4381,
      "Ġactive": 4382,
      "Ġconcent": 4383,
      "sim": 4384,
      "Ġremains": 4385,
      "Ġreleased": 4386,
      "sigma": 4387,
      "Ġreceive": 4388,
      "rey": 4389,
      "Ġcorrespond": 4390,
      "aid": 4391,
      "Ġreached": 4392,
      "Ġice": 4393,
      "Ġtransfer": 4394,
      "iliar": 4395,
      "alle": 4396,
      "oday": 4397,
      "Ġtelling": 4398,
      "tained": 4399,
      "ript": 4400,
      "ours": 4401,
      "Ġanimal": 4402,
      "Ġfemale": 4403,
      "ĠRem": 4404,
      "ĠAnt": 4405,
      "Ġinternet": 4406,
      "Ġfreedom": 4407,
      "ĠSeptember": 4408,
      "Ġshape": 4409,
      "ending": 4410,
      "Ġeight": 4411,
      "Ġworry": 4412,
      "ĠUK": 4413,
      "Ġindeed": 4414,
      "aked": 4415,
      "ĠDef": 4416,
      "Ġ\\\\": 4417,
      "ĠLaw": 4418,
      "ashington": 4419,
      "Ġble": 4420,
      "Ġlots": 4421,
      "Ġ!": 4422,
      "ander": 4423,
      "Ø§": 4424,
      "Ġcritical": 4425,
      "Ġmental": 4426,
      "Ġadvantage": 4427,
      "Ġnuclear": 4428,
      "ava": 4429,
      "osh": 4430,
      "ĠWind": 4431,
      "Ġreb": 4432,
      "Ġslowly": 4433,
      "BC": 4434,
      "ctors": 4435,
      "Ġrealize": 4436,
      "Ġcelebr": 4437,
      "ilies": 4438,
      "Ġconstruct": 4439,
      "Ġfinding": 4440,
      "lo": 4441,
      "ĠEuropean": 4442,
      "idden": 4443,
      "Ġthanks": 4444,
      "Ġstopped": 4445,
      "icks": 4446,
      "Ġfavorite": 4447,
      "Ġ%": 4448,
      "********": 4449,
      "51": 4450,
      "inner": 4451,
      "New": 4452,
      "Ġprofessional": 4453,
      "Ġvariety": 4454,
      ".'": 4455,
      "rible": 4456,
      "anging": 4457,
      "Ġsitting": 4458,
      "ruary": 4459,
      "Ġsche": 4460,
      "itz": 4461,
      "Ġbrief": 4462,
      "antic": 4463,
      "onday": 4464,
      "Ġimagine": 4465,
      "Ġsales": 4466,
      "Ġhero": 4467,
      "ĠTrump": 4468,
      "ST": 4469,
      "----------------": 4470,
      "ario": 4471,
      "Ġdouble": 4472,
      "erences": 4473,
      "ĠNovember": 4474,
      "ĠSen": 4475,
      "Ġnone": 4476,
      "Ġanyway": 4477,
      "Ġvel": 4478,
      "Ġsea": 4479,
      "ĠBill": 4480,
      "Ġsad": 4481,
      "Ġstaff": 4482,
      "ĠDay": 4483,
      "Ġhous": 4484,
      "mu": 4485,
      "Ġhandle": 4486,
      "igned": 4487,
      "Ġbalance": 4488,
      "Ġlibr": 4489,
      "Ġforced": 4490,
      "Ġlived": 4491,
      "Ġdebt": 4492,
      "fr": 4493,
      "OL": 4494,
      "Ġequal": 4495,
      "Ġgain": 4496,
      "Ġthr": 4497,
      "Ġturns": 4498,
      "iance": 4499,
      "Ġcustomer": 4500,
      "Ġdaughter": 4501,
      "Ġsummer": 4502,
      "Ġsurround": 4503,
      "Ġsafety": 4504,
      "Ġahead": 4505,
      "ĠMac": 4506,
      "Ġreplace": 4507,
      "mathbb": 4508,
      "mat": 4509,
      "ĠUp": 4510,
      "upid": 4511,
      "Ġorganization": 4512,
      "Ġinterpret": 4513,
      "Ġaudience": 4514,
      "mas": 4515,
      "ĠMuslim": 4516,
      "Ġlocation": 4517,
      "Ġplanet": 4518,
      "Ġunit": 4519,
      "ĠReg": 4520,
      "ĠOctober": 4521,
      "aming": 4522,
      "Ġseparate": 4523,
      "Ġdecide": 4524,
      "Ġresponsible": 4525,
      "ĠTHE": 4526,
      "name": 4527,
      "ipp": 4528,
      "Ġlic": 4529,
      "Ġfollows": 4530,
      "Ġfederal": 4531,
      "hest": 4532,
      "asy": 4533,
      "ĠBook": 4534,
      "Ġcircum": 4535,
      "unday": 4536,
      "Ġrise": 4537,
      "68": 4538,
      "overy": 4539,
      "isms": 4540,
      "Ġstarts": 4541,
      "hens": 4542,
      "Ġconserv": 4543,
      "ka": 4544,
      "'.": 4545,
      "Ġmur": 4546,
      "Ġscript": 4547,
      "Ġthousands": 4548,
      "Ġpark": 4549,
      "eds": 4550,
      "Ġdrop": 4551,
      "ĠAlthough": 4552,
      "ingly": 4553,
      "Ġ(\\<": 4554,
      "Ġamazing": 4555,
      "Ġoverall": 4556,
      "ĠThanks": 4557,
      "iforn": 4558,
      "While": 4559,
      "Ġpoly": 4560,
      "olf": 4561,
      "Ġsac": 4562,
      "Ġsmart": 4563,
      "âĢĿ,": 4564,
      "Ġradio": 4565,
      "ĠNet": 4566,
      "Ġcrow": 4567,
      "Ġdry": 4568,
      "ban": 4569,
      "Ġproperties": 4570,
      "Ġfeels": 4571,
      "Ġmaster": 4572,
      "ĠÂłĊ": 4573,
      "mercial": 4574,
      "Ġexamples": 4575,
      "eters": 4576,
      "ĠJames": 4577,
      "Ġpure": 4578,
      "Ġfan": 4579,
      "Your": 4580,
      "Ġshut": 4581,
      "ĠLa": 4582,
      "][": 4583,
      "rian": 4584,
      "Ġprison": 4585,
      "Ġfresh": 4586,
      "Ġcareer": 4587,
      "53": 4588,
      "Ġpossibly": 4589,
      "Ab": 4590,
      "Ġpoll": 4591,
      "rh": 4592,
      "Ġloved": 4593,
      "iques": 4594,
      "Ġhelped": 4595,
      "TH": 4596,
      "ĠRet": 4597,
      "ails": 4598,
      "Ġbrand": 4599,
      "rix": 4600,
      "ometimes": 4601,
      "Ġscientific": 4602,
      "Then": 4603,
      "Fr": 4604,
      "Ġkeeping": 4605,
      "Ġessential": 4606,
      "(\"": 4607,
      "yr": 4608,
      "Ġevil": 4609,
      "lig": 4610,
      "ico": 4611,
      "De": 4612,
      "Ġsem": 4613,
      "ĠThank": 4614,
      "Ġcaught": 4615,
      "Ġmaterials": 4616,
      "Ġstanding": 4617,
      "Ġodd": 4618,
      "ipment": 4619,
      "ĠTheir": 4620,
      "cil": 4621,
      "Ġcoff": 4622,
      "Ġast": 4623,
      "Ġputting": 4624,
      "ĠMichael": 4625,
      "vis": 4626,
      "osite": 4627,
      "OC": 4628,
      "Ġstars": 4629,
      "Ġpet": 4630,
      "Ġreference": 4631,
      "Ġded": 4632,
      "Ġterr": 4633,
      "Ġbeat": 4634,
      "Ġgeneration": 4635,
      "ĠAM": 4636,
      "Ġproced": 4637,
      "Ġbecoming": 4638,
      "iable": 4639,
      "appe": 4640,
      "Ġchallenge": 4641,
      "Ġconversation": 4642,
      "Ġbillion": 4643,
      "inate": 4644,
      "ĠĠĠĠĠĠĠĠĠĠĠĠĠĠĠĠĠĠĠĠĠĠĠĠĠĠĠĠĠĠĠĠĠĠĠĠĠĠĠĠĠĠĠĠĠĠĠĠĠĠĠĠĠĠĠĠĠĠĠĠĠĠĠĠ": 4645,
      "Ġtim": 4646,
      "ios": 4647,
      "Ġtour": 4648,
      "Ġabsolutely": 4649,
      "Ġclaims": 4650,
      "Us": 4651,
      "Ġsweet": 4652,
      "Ġbasically": 4653,
      "Ġquiet": 4654,
      "Ġoffers": 4655,
      "Ġyell": 4656,
      "ibr": 4657,
      "Im": 4658,
      "ey": 4659,
      "52": 4660,
      "ifornia": 4661,
      "Ġproof": 4662,
      "rag": 4663,
      "Ġchemical": 4664,
      "xy": 4665,
      "Ġwealth": 4666,
      "inn": 4667,
      "gers": 4668,
      "Ġexercise": 4669,
      "Ġtotally": 4670,
      "Ġplaced": 4671,
      "Ġhttp": 4672,
      "ocal": 4673,
      "Ġentirely": 4674,
      "Ġphen": 4675,
      "Ġprotein": 4676,
      "Ġleaves": 4677,
      "agon": 4678,
      "coh": 4679,
      "Ġstreet": 4680,
      "Ġplans": 4681,
      "Ġassess": 4682,
      "54": 4683,
      "Ġ//": 4684,
      "ĠTom": 4685,
      "ĠIN": 4686,
      "ayer": 4687,
      "sm": 4688,
      "Ġprices": 4689,
      "acity": 4690,
      "CH": 4691,
      "uations": 4692,
      "ooth": 4693,
      "Ġcore": 4694,
      "Ġran": 4695,
      "ĠKore": 4696,
      "Ġstood": 4697,
      "anted": 4698,
      "Ġtransport": 4699,
      ".;": 4700,
      "Ġalle": 4701,
      "Ġminor": 4702,
      "type": 4703,
      "Ġcontains": 4704,
      "ĠGerman": 4705,
      "Ġfish": 4706,
      "dro": 4707,
      "Ġlabor": 4708,
      "Ġleader": 4709,
      "vest": 4710,
      "Int": 4711,
      "ida": 4712,
      "range": 4713,
      "ĠThus": 4714,
      "Ġappropriate": 4715,
      "Ġexistence": 4716,
      "Ġshowing": 4717,
      "Ġsympt": 4718,
      "ĠWashington": 4719,
      "ĠĠĠĠĠĠĠĠĠĠ": 4720,
      "itc": 4721,
      "Ġremoved": 4722,
      "Ġtopic": 4723,
      "ĠSun": 4724,
      "encies": 4725,
      "\":": 4726,
      "Ġweapons": 4727,
      "View": 4728,
      "ĠRich": 4729,
      "soft": 4730,
      "ĠEast": 4731,
      "ission": 4732,
      "Ġconstant": 4733,
      "oper": 4734,
      "oto": 4735,
      "Ġhar": 4736,
      "Ġapplied": 4737,
      "Ġuniverse": 4738,
      "Ġ{\\": 4739,
      "Ġstrateg": 4740,
      "Ġarchitect": 4741,
      "Ġexisting": 4742,
      "Ð½": 4743,
      "ipe": 4744,
      "Ġsuddenly": 4745,
      "istry": 4746,
      "Ġing": 4747,
      "Ġexplan": 4748,
      "Post": 4749,
      "ĠRober": 4750,
      "Ġadapt": 4751,
      "ĠMat": 4752,
      "Ġmir": 4753,
      "Ġhurt": 4754,
      "Ġholding": 4755,
      "ĠWilliam": 4756,
      "ogen": 4757,
      "Ġtransl": 4758,
      "Ġleads": 4759,
      "ĠCongress": 4760,
      "ĠCourt": 4761,
      "Ġpages": 4762,
      "________": 4763,
      "ĠSan": 4764,
      "erry": 4765,
      "istan": 4766,
      "Ġopened": 4767,
      "Ġobjects": 4768,
      "Ġfighting": 4769,
      "Ġschools": 4770,
      "Ġcrime": 4771,
      "Ġraised": 4772,
      "Ġbudget": 4773,
      "ĠWhere": 4774,
      "Ġimpossible": 4775,
      "kin": 4776,
      "Ġargu": 4777,
      "Ġfixed": 4778,
      "Ġprocesses": 4779,
      "ĠCount": 4780,
      "........": 4781,
      "Ġremove": 4782,
      "Ġsites": 4783,
      "Ġsolid": 4784,
      "uate": 4785,
      "char": 4786,
      "Ġbroken": 4787,
      "Ġcars": 4788,
      "ocity": 4789,
      "ĠSl": 4790,
      "Ġadvice": 4791,
      "Ġalbum": 4792,
      "tra": 4793,
      "Ġpp": 4794,
      "Ġmovies": 4795,
      "ĠStar": 4796,
      "Ġfuel": 4797,
      "cellent": 4798,
      "ixt": 4799,
      "Ġbelong": 4800,
      "edia": 4801,
      "rapy": 4802,
      "acing": 4803,
      "Ġfamilies": 4804,
      "lor": 4805,
      "Ġserver": 4806,
      "Ġefforts": 4807,
      "Ġcitizens": 4808,
      "Ġchanging": 4809,
      "big": 4810,
      "Ġbird": 4811,
      "ĠIran": 4812,
      "ĠGet": 4813,
      "met": 4814,
      "Ġstrange": 4815,
      "Ġknowing": 4816,
      "Ġdecre": 4817,
      "icit": 4818,
      "Cont": 4819,
      "Ġtight": 4820,
      "Ġwitness": 4821,
      "Ġtrouble": 4822,
      "Ġmine": 4823,
      "ĠGovern": 4824,
      "Ġconscious": 4825,
      "norm": 4826,
      "Ġbow": 4827,
      "ĠMart": 4828,
      "Ġelection": 4829,
      "Ġclasses": 4830,
      "Ġmarriage": 4831,
      "Ġviolence": 4832,
      "Ġflat": 4833,
      "Ġsupply": 4834,
      "Ġfailed": 4835,
      "otes": 4836,
      "Ġfilled": 4837,
      "ĠCO": 4838,
      "Ġdriving": 4839,
      "These": 4840,
      "ĠNews": 4841,
      "upp": 4842,
      "ĠAP": 4843,
      "cd": 4844,
      "ĠEngland": 4845,
      "Ġassume": 4846,
      "ĠArticle": 4847,
      "Ġended": 4848,
      "Ġagreement": 4849,
      "Ġsubs": 4850,
      "Ġserve": 4851,
      "vention": 4852,
      "Of": 4853,
      "ĠPre": 4854,
      "Ñģ": 4855,
      "Ġalgorith": 4856,
      "Ġmissing": 4857,
      "Ġdifferences": 4858,
      "Ġapprox": 4859,
      "tm": 4860,
      "bre": 4861,
      "Ġsignal": 4862,
      "arant": 4863,
      "Ġdefinition": 4864,
      "Ġalternative": 4865,
      "DA": 4866,
      "Can": 4867,
      "turn": 4868,
      "ingu": 4869,
      "edy": 4870,
      "ca": 4871,
      "Ġsick": 4872,
      "Com": 4873,
      "Ġfirm": 4874,
      "However": 4875,
      "Ġplants": 4876,
      "Ġegg": 4877,
      "Ġexpensive": 4878,
      "Ġerr": 4879,
      "Ġadjust": 4880,
      "uesday": 4881,
      "!âĢĿ": 4882,
      "ented": 4883,
      "Ġcovered": 4884,
      "Ġxcp": 4885,
      "Ġhappening": 4886,
      "alled": 4887,
      "Ġequipment": 4888,
      "Ġindependent": 4889,
      "gl": 4890,
      "Ġancient": 4891,
      "Ġpaying": 4892,
      "Ġmanner": 4893,
      "Ġspending": 4894,
      "lling": 4895,
      "ria": 4896,
      "ĠHigh": 4897,
      "Ġprove": 4898,
      "Ġfaster": 4899,
      "PubMed": 4900,
      "ĠVol": 4901,
      "Ad": 4902,
      "Sc": 4903,
      "Ġbreath": 4904,
      "Ġminute": 4905,
      "ĠBen": 4906,
      "eps": 4907,
      "Ġpulled": 4908,
      "Me": 4909,
      "arter": 4910,
      "Ġstring": 4911,
      "uke": 4912,
      "oom": 4913,
      "Ġdangerous": 4914,
      "oyal": 4915,
      "Ġmort": 4916,
      "Ġdevices": 4917,
      "Ed": 4918,
      "Ġbright": 4919,
      "Ġdescribe": 4920,
      "Ġincred": 4921,
      "ĠCalifornia": 4922,
      "apers": 4923,
      "Ġpieces": 4924,
      "idents": 4925,
      "Ġdiscovered": 4926,
      "Ġobviously": 4927,
      "Ġhearing": 4928,
      "MS": 4929,
      "ednes": 4930,
      "Ġspeaking": 4931,
      "Ġtypically": 4932,
      "Ġmo": 4933,
      "999": 4934,
      "Ġfamiliar": 4935,
      "Ġedge": 4936,
      "lamb": 4937,
      "ĠFebruary": 4938,
      "Ġmission": 4939,
      "ias": 4940,
      "Res": 4941,
      "ĠSystem": 4942,
      "ĠBra": 4943,
      "urrent": 4944,
      "Ġcomplic": 4945,
      "ĠOut": 4946,
      "Se": 4947,
      "Ġcloud": 4948,
      "Ps": 4949,
      "ĠIndian": 4950,
      "Ġstupid": 4951,
      "Ġpair": 4952,
      "Ġapart": 4953,
      "Bl": 4954,
      "67": 4955,
      "Ġplot": 4956,
      "Ġton": 4957,
      "ĠSub": 4958,
      "Ġtro": 4959,
      "Ġreturned": 4960,
      "Ġdesire": 4961,
      "Ġpal": 4962,
      "Ġvan": 4963,
      "ĠBel": 4964,
      "ĠDoes": 4965,
      "Ġgar": 4966,
      "300": 4967,
      "ĠServ": 4968,
      "stitution": 4969,
      "Ġque": 4970,
      "cket": 4971,
      "Ġidentify": 4972,
      "Ġdrugs": 4973,
      "Ġcamera": 4974,
      "ĠIts": 4975,
      "uct": 4976,
      "Ġmode": 4977,
      ")\\": 4978,
      "abase": 4979,
      "69": 4980,
      "SS": 4981,
      "ologies": 4982,
      "Ġimpl": 4983,
      "Tw": 4984,
      "class": 4985,
      "irty": 4986,
      "ednesday": 4987,
      "asks": 4988,
      "ĠPC": 4989,
      "Ġproposed": 4990,
      "lambda": 4991,
      "Ġdigital": 4992,
      "Ġmaintain": 4993,
      "Ġpros": 4994,
      "Ġtrip": 4995,
      "ÑĢ": 4996,
      "ĠGeorge": 4997,
      "More": 4998,
      "racy": 4999,
      "}^{": 5000,
      "Ġrestrict": 5001,
      "Ġdecisions": 5002,
      "Ġperspective": 5003,
      "Ġrelatively": 5004,
      "ĠOver": 5005,
      "();": 5006,
      "osure": 5007,
      "Ġempt": 5008,
      "ĠCanada": 5009,
      "Ġprem": 5010,
      "ĠRob": 5011,
      "EL": 5012,
      "Get": 5013,
      "Ġreaction": 5014,
      "Ġmetal": 5015,
      "Ġsuspect": 5016,
      "Ġhun": 5017,
      "uries": 5018,
      "Sp": 5019,
      "Ġsch": 5020,
      "stood": 5021,
      "Ġcash": 5022,
      "Ġbond": 5023,
      "IM": 5024,
      "Ġclick": 5025,
      "Ġdollars": 5026,
      "Ġsubgoal": 5027,
      "Ġring": 5028,
      "house": 5029,
      "hetic": 5030,
      "amin": 5031,
      "Ġnotes": 5032,
      "Ġsmile": 5033,
      "Ġwear": 5034,
      "Ġseconds": 5035,
      "Ġpolitics": 5036,
      "Just": 5037,
      "Ġattacks": 5038,
      "Ġclimate": 5039,
      "Ġvision": 5040,
      "Ġpush": 5041,
      "Ġwalked": 5042,
      "ĠÏ": 5043,
      "ding": 5044,
      "Ġreports": 5045,
      "uls": 5046,
      "phi": 5047,
      "Ġconcerned": 5048,
      "ursday": 5049,
      "Ġban": 5050,
      "div": 5051,
      "anda": 5052,
      "Ġvolume": 5053,
      "she": 5054,
      "Ġdetermined": 5055,
      "Ġnoticed": 5056,
      "ĠRussia": 5057,
      "look": 5058,
      "\")": 5059,
      "za": 5060,
      "osen": 5061,
      "ĠSuper": 5062,
      "Ġwave": 5063,
      "Ġanswers": 5064,
      "Ġhospital": 5065,
      "Ġbiggest": 5066,
      "rees": 5067,
      "-\\": 5068,
      "Ġgal": 5069,
      "Ġsets": 5070,
      "Ġestablished": 5071,
      "zen": 5072,
      "ĠScience": 5073,
      "ih": 5074,
      "item": 5075,
      "Ġmotiv": 5076,
      "phas": 5077,
      "ĠGermany": 5078,
      "Ġemployees": 5079,
      "Ġproviding": 5080,
      "Ġmassive": 5081,
      "Ġmiles": 5082,
      "Ġcris": 5083,
      "Ġconnected": 5084,
      "ĠHam": 5085,
      "Ġsolutions": 5086,
      "Ġefficient": 5087,
      "while": 5088,
      "Ġlie": 5089,
      "Ġrelevant": 5090,
      "Ġforth": 5091,
      "Ġcoffee": 5092,
      "ĠRel": 5093,
      "ĠMicro": 5094,
      "Ġwalking": 5095,
      "Ġkiss": 5096,
      "olly": 5097,
      "Ġcommunication": 5098,
      "Ġstation": 5099,
      "Ġvisual": 5100,
      "Ġexperiences": 5101,
      "Ġinstruct": 5102,
      "Ġpresented": 5103,
      "Ġcritic": 5104,
      "Ġrot": 5105,
      "road": 5106,
      "Ġshared": 5107,
      "Ġmanaged": 5108,
      "ĠMal": 5109,
      "Ġexpand": 5110,
      "onna": 5111,
      "ophy": 5112,
      "Ġmarried": 5113,
      "lies": 5114,
      "icians": 5115,
      "Ġposts": 5116,
      "enses": 5117,
      "ĠEr": 5118,
      "hand": 5119,
      "ĠInstead": 5120,
      "ĠGeneral": 5121,
      "Ġparties": 5122,
      "Ġlatest": 5123,
      "semb": 5124,
      "Ġcloser": 5125,
      "ĠThom": 5126,
      "oder": 5127,
      "Ġdial": 5128,
      "ourney": 5129,
      "stitute": 5130,
      "ĠInter": 5131,
      "Ġmarketing": 5132,
      "file": 5133,
      "Ġbought": 5134,
      "Ġtrees": 5135,
      "ĠInc": 5136,
      "Ġthick": 5137,
      ")}": 5138,
      "isation": 5139,
      "ĠFoundation": 5140,
      "Ġjudge": 5141,
      "Ġsorry": 5142,
      "Ġafford": 5143,
      "esh": 5144,
      "cend": 5145,
      "ĠInternet": 5146,
      "Ġsomewhere": 5147,
      "Ġthread": 5148,
      "ĠMag": 5149,
      "Ġguide": 5150,
      "Ġappeared": 5151,
      "Ġoccup": 5152,
      "Ġoptim": 5153,
      "Ġrapid": 5154,
      "Ġnav": 5155,
      "âĢĺ": 5156,
      "Ġphase": 5157,
      "Ġworst": 5158,
      "ĠCam": 5159,
      "Ġfant": 5160,
      "Ġwaste": 5161,
      "Ġswitch": 5162,
      "_\\": 5163,
      "Ġowners": 5164,
      "ashion": 5165,
      "Ġtrial": 5166,
      "Ġseven": 5167,
      "Ġcheap": 5168,
      "Ġsymbol": 5169,
      "Ġobserved": 5170,
      "Ġinternal": 5171,
      "Ġjournal": 5172,
      "Ġexplained": 5173,
      "cr": 5174,
      "Add": 5175,
      "onic": 5176,
      "ishes": 5177,
      "Ġtests": 5178,
      "Ġunivers": 5179,
      "Ġcards": 5180,
      "ago": 5181,
      "Ġrealized": 5182,
      "cohol": 5183,
      "Ġdomain": 5184,
      "Ġcollection": 5185,
      "olved": 5186,
      "Ġmotion": 5187,
      "http": 5188,
      "Ġgoals": 5189,
      "Ġfailure": 5190,
      "ĠFrance": 5191,
      "ounced": 5192,
      "win": 5193,
      "ules": 5194,
      "Ġfamous": 5195,
      "Ġunlike": 5196,
      "Ġkick": 5197,
      "Ġnorth": 5198,
      "pi": 5199,
      "Val": 5200,
      "Ġfacts": 5201,
      "Ġconfig": 5202,
      "Ġliqu": 5203,
      "Ġtesting": 5204,
      "UT": 5205,
      "Ġremark": 5206,
      "dis": 5207,
      "Ġbodies": 5208,
      "Ġcolumn": 5209,
      "uthors": 5210,
      "Ġfle": 5211,
      "Ġmole": 5212,
      "ĠBig": 5213,
      "Ġcalling": 5214,
      "UR": 5215,
      "real": 5216,
      "ĠTime": 5217,
      "night": 5218,
      "ĠLog": 5219,
      "Ã¡": 5220,
      "craft": 5221,
      "ini": 5222,
      "Ġcontrast": 5223,
      "iciency": 5224,
      "Ġneut": 5225,
      "Ġbelieved": 5226,
      "Ġzero": 5227,
      "Ġbare": 5228,
      "Ġsen": 5229,
      "Ġourselves": 5230,
      "Ġisland": 5231,
      "ĠLin": 5232,
      "Ġproperly": 5233,
      "Ġdefault": 5234,
      "Ġsky": 5235,
      "erg": 5236,
      "rig": 5237,
      "Ġwatched": 5238,
      "ĠAp": 5239,
      "Ġassist": 5240,
      "Ġvelocity": 5241,
      "apping": 5242,
      "ĠArab": 5243,
      "Ġdefend": 5244,
      "Ġprojects": 5245,
      "ipped": 5246,
      "aturday": 5247,
      "Ġsust": 5248,
      "=\\": 5249,
      "Ġattrib": 5250,
      "ĠTherefore": 5251,
      "Ġclim": 5252,
      "width": 5253,
      "Ġbes": 5254,
      "Ġaccepted": 5255,
      "erate": 5256,
      "host": 5257,
      "ĠThose": 5258,
      "Ġfinished": 5259,
      "Ġrub": 5260,
      "blog": 5261,
      "ĠPark": 5262,
      "Ġinvestment": 5263,
      "Ġcultural": 5264,
      "Ġpregn": 5265,
      "Ġfields": 5266,
      "ompl": 5267,
      "rad": 5268,
      "ĠBush": 5269,
      "See": 5270,
      "Ġsugar": 5271,
      "Ġsides": 5272,
      "ena": 5273,
      "Ġenh": 5274,
      "ĠChurch": 5275,
      "Ġmagic": 5276,
      "Ġexperiment": 5277,
      "ords": 5278,
      "Ġdiagn": 5279,
      "wide": 5280,
      "Ġdebate": 5281,
      "Ġille": 5282,
      "omy": 5283,
      "Ġruns": 5284,
      "Ġoffered": 5285,
      "Ġcircumst": 5286,
      "iot": 5287,
      "Ġjoin": 5288,
      "bsp": 5289,
      "Ġequival": 5290,
      "Ġsand": 5291,
      "Ġusual": 5292,
      "iously": 5293,
      "ĠWeb": 5294,
      "itory": 5295,
      "Ġreci": 5296,
      "align": 5297,
      "Ġsymptoms": 5298,
      "iment": 5299,
      "ĠHealth": 5300,
      "Ġpictures": 5301,
      "Ġtrig": 5302,
      "Book": 5303,
      "care": 5304,
      "ĠTwo": 5305,
      "amental": 5306,
      "Ġreven": 5307,
      "Ġepisode": 5308,
      "Ġcommercial": 5309,
      "Ġsight": 5310,
      "ĠâĪ": 5311,
      "arden": 5312,
      ">\\<^": 5313,
      "ĠApple": 5314,
      "Ġincor": 5315,
      "ĠRev": 5316,
      "ference": 5317,
      "Ġcreation": 5318,
      "Ġformat": 5319,
      "ĠAlex": 5320,
      "Ġexcellent": 5321,
      "aud": 5322,
      "Ġregarding": 5323,
      "estion": 5324,
      "Ġtechniques": 5325,
      "osm": 5326,
      "Ġkinds": 5327,
      "Ġends": 5328,
      "ĠBo": 5329,
      "inding": 5330,
      "ashed": 5331,
      "Ġenemy": 5332,
      "Ġfairly": 5333,
      "Ġsin": 5334,
      "ĠFe": 5335,
      "itors": 5336,
      "aph": 5337,
      "fil": 5338,
      "cknow": 5339,
      "Ġbehavi": 5340,
      "87": 5341,
      "uit": 5342,
      "Ġimportance": 5343,
      "Ġsomewhat": 5344,
      "Ġdownload": 5345,
      "ĠJapanese": 5346,
      "Ġexists": 5347,
      "Ġcommit": 5348,
      "Ġbigger": 5349,
      "EM": 5350,
      "illy": 5351,
      "Ġplanning": 5352,
      "]{": 5353,
      "Ġopening": 5354,
      "Ġwel": 5355,
      "ĠOff": 5356,
      "ups": 5357,
      "Ġreject": 5358,
      "Ġclin": 5359,
      "orage": 5360,
      "ĠLife": 5361,
      "Ġbag": 5362,
      "Ġrequirements": 5363,
      "ĠJim": 5364,
      "Ġcarried": 5365,
      "ĠAss": 5366,
      "ĠMex": 5367,
      "Ġaccident": 5368,
      "mail": 5369,
      "orter": 5370,
      "atin": 5371,
      "ĠAfrica": 5372,
      "iders": 5373,
      "Ġhol": 5374,
      "Ġteacher": 5375,
      "cons": 5376,
      "Pr": 5377,
      "Ġweather": 5378,
      "import": 5379,
      "ĠUSA": 5380,
      "IL": 5381,
      "ãģ": 5382,
      "free": 5383,
      "Ġadvert": 5384,
      "Ġaccompl": 5385,
      "Ġshouldn": 5386,
      "fraid": 5387,
      "Ġbatter": 5388,
      "Ġrain": 5389,
      "ĠLook": 5390,
      "Ġsister": 5391,
      "Ġidentity": 5392,
      "owing": 5393,
      "Ġsample": 5394,
      "porary": 5395,
      "Ġcombination": 5396,
      "issue": 5397,
      "Ġconver": 5398,
      "Ġdescription": 5399,
      "raint": 5400,
      "Ġmoral": 5401,
      "ĠJournal": 5402,
      "Ġfunny": 5403,
      "Ġlinks": 5404,
      "Ġstim": 5405,
      "Ġcycle": 5406,
      "Ġexpert": 5407,
      "akers": 5408,
      "Our": 5409,
      "pm": 5410,
      "Ġtaxes": 5411,
      "cean": 5412,
      "ittee": 5413,
      "ĠGreen": 5414,
      "ĠDid": 5415,
      "ums": 5416,
      "Ġraise": 5417,
      "ĠReview": 5418,
      "Ġmeat": 5419,
      "Ġhistorical": 5420,
      "RA": 5421,
      "ĠAnge": 5422,
      "Ġarmy": 5423,
      "Ġdeveloping": 5424,
      "Ġhur": 5425,
      "Ġneither": 5426,
      "Ġperformed": 5427,
      "Ġopposite": 5428,
      "Ġprotection": 5429,
      "Ġnod": 5430,
      "ĠWestern": 5431,
      "oking": 5432,
      "struct": 5433,
      "Ġrough": 5434,
      "Ġlayer": 5435,
      "ancing": 5436,
      "gypt": 5437,
      "OD": 5438,
      "Ġseek": 5439,
      "Ġdefense": 5440,
      "ocks": 5441,
      "Ġlabel": 5442,
      "tau": 5443,
      "ĠEach": 5444,
      "ĠJul": 5445,
      "ĠOnly": 5446,
      "Ġutil": 5447,
      "Ġdepends": 5448,
      "Ġmel": 5449,
      "Ġengage": 5450,
      "Ġfeelings": 5451,
      "Ġapparently": 5452,
      "ĠCr": 5453,
      "Ġlargest": 5454,
      "ĠHel": 5455,
      "ĠFacebook": 5456,
      "Ġelectronic": 5457,
      "Ġsyn": 5458,
      "Ġemp": 5459,
      "Ġ[]": 5460,
      "Ġlegis": 5461,
      "Ġadding": 5462,
      "Ġreact": 5463,
      "ĠSur": 5464,
      "Ġinstr": 5465,
      "array": 5466,
      "erved": 5467,
      "aks": 5468,
      "ĠGold": 5469,
      "Ġacid": 5470,
      "ĠParty": 5471,
      "Ġreduced": 5472,
      "Ġroot": 5473,
      "OW": 5474,
      "Ġclient": 5475,
      "ita": 5476,
      "ĠCommun": 5477,
      "war": 5478,
      "Ġment": 5479,
      "Ġcorner": 5480,
      "ĠInternational": 5481,
      "Ġprepared": 5482,
      "Ġsufficient": 5483,
      "Ġcrazy": 5484,
      "Ġturning": 5485,
      "ĠJud": 5486,
      "Ġanymore": 5487,
      "Ġwonderful": 5488,
      "Ġnecessarily": 5489,
      "ĠES": 5490,
      "claim": 5491,
      "stream": 5492,
      "Ġhelpful": 5493,
      "Ġstret": 5494,
      "ĠâĢ¦": 5495,
      "Ġhighest": 5496,
      "Ġfill": 5497,
      "ĠPlease": 5498,
      "ĠJewish": 5499,
      "Ġcities": 5500,
      "Ġinterests": 5501,
      "Ġbuying": 5502,
      "Ġallowing": 5503,
      "ĠPeter": 5504,
      "Ġintelligence": 5505,
      "tes": 5506,
      "terday": 5507,
      "ML": 5508,
      "Ġfolks": 5509,
      "Ġcrim": 5510,
      "Ġspecifically": 5511,
      "Ġcapacity": 5512,
      "Ġscore": 5513,
      "anged": 5514,
      "Ġintroduced": 5515,
      "Ġsequence": 5516,
      "Ġviews": 5517,
      "Ġthinks": 5518,
      "ĠCD": 5519,
      "Ġsomehow": 5520,
      "ensions": 5521,
      "ĠJews": 5522,
      "First": 5523,
      "ocracy": 5524,
      "Ġsignificantly": 5525,
      "}_{": 5526,
      "net": 5527,
      "hi": 5528,
      "note": 5529,
      "Ġmurder": 5530,
      "Ġtick": 5531,
      "aped": 5532,
      "Ġsupported": 5533,
      "Ġboys": 5534,
      "Ġpowers": 5535,
      "Ġdut": 5536,
      "rate": 5537,
      "ĠNOT": 5538,
      "ĠCle": 5539,
      "Ġfans": 5540,
      "ĠWork": 5541,
      "Ġexchange": 5542,
      "Ġestablish": 5543,
      "400": 5544,
      ".<": 5545,
      "ĠWindows": 5546,
      "ĠSocial": 5547,
      "Ġteaching": 5548,
      "reate": 5549,
      "Ġclub": 5550,
      "trans": 5551,
      "Ð¾Ð": 5552,
      "amm": 5553,
      "beta": 5554,
      "Ġlegs": 5555,
      "Ġsynt": 5556,
      "bal": 5557,
      "ĠAv": 5558,
      "Ġokay": 5559,
      "ĠRussian": 5560,
      "Ġsongs": 5561,
      "Ġneck": 5562,
      "estic": 5563,
      "Ġauthority": 5564,
      "Ġcock": 5565,
      "Ġrecords": 5566,
      "Ġexperienced": 5567,
      "Ġhelping": 5568,
      "Ġflo": 5569,
      "Ġshit": 5570,
      "ĠHistory": 5571,
      "Ġafraid": 5572,
      "Ġarrest": 5573,
      "Ġtreated": 5574,
      "Ġtom": 5575,
      "Ġcontinues": 5576,
      "Ġpossibility": 5577,
      "uster": 5578,
      "ĠUnder": 5579,
      "roid": 5580,
      "rog": 5581,
      "size": 5582,
      "ÂŃ": 5583,
      "inger": 5584,
      "hab": 5585,
      "Ġrelationships": 5586,
      "En": 5587,
      "Ġemotional": 5588,
      "Ġspin": 5589,
      "Ġdecades": 5590,
      "Ġphenomen": 5591,
      "Ġpreviously": 5592,
      "Ġseriously": 5593,
      "Ġcomponents": 5594,
      "ellect": 5595,
      "Ġteams": 5596,
      "Ġdisappe": 5597,
      "Ġtwice": 5598,
      "asp": 5599,
      "Ġdu": 5600,
      "eper": 5601,
      "Ġintended": 5602,
      "Ġjourney": 5603,
      "Ind": 5604,
      "swe": 5605,
      "Ġfort": 5606,
      "Ġdiscover": 5607,
      "IR": 5608,
      "Ġempty": 5609,
      "ĠResearch": 5610,
      "ĠMiss": 5611,
      "Ġdogs": 5612,
      "nbsp": 5613,
      "IA": 5614,
      "Ġplays": 5615,
      "uzz": 5616,
      "ato": 5617,
      "Ġtun": 5618,
      "tw": 5619,
      "Ġminimum": 5620,
      "Ġstated": 5621,
      "IG": 5622,
      "Ġtraffic": 5623,
      "ogue": 5624,
      "Ġobtain": 5625,
      "61": 5626,
      "Ġunderstood": 5627,
      "Ġvast": 5628,
      "Ġcrowd": 5629,
      "Ġalive": 5630,
      "Ġplus": 5631,
      "Ġsimpl": 5632,
      "olve": 5633,
      "'',": 5634,
      "print": 5635,
      "Ġtaste": 5636,
      "Ġideal": 5637,
      "ĠSchool": 5638,
      "Ġkilling": 5639,
      "Ġmedium": 5640,
      "Ġdistinct": 5641,
      "Ġglad": 5642,
      "May": 5643,
      "Ġinteract": 5644,
      "Ġ:)": 5645,
      "Ġmatters": 5646,
      "ĠAir": 5647,
      "Ġwrit": 5648,
      "pic": 5649,
      "Ġdress": 5650,
      "ĠBoth": 5651,
      "Ġlocated": 5652,
      "89": 5653,
      "esome": 5654,
      "Ġplenty": 5655,
      "Ġpurchase": 5656,
      "Ġcup": 5657,
      "icip": 5658,
      "iveness": 5659,
      "ĠDNA": 5660,
      "utor": 5661,
      "related": 5662,
      "Ġalt": 5663,
      "ulous": 5664,
      "illa": 5665,
      "cher": 5666,
      "Ġsnow": 5667,
      "Ġprecise": 5668,
      "map": 5669,
      "Ġfif": 5670,
      "kend": 5671,
      "Ġcarbon": 5672,
      "Ġuns": 5673,
      "fortunately": 5674,
      "hered": 5675,
      "yer": 5676,
      "Ġlibrary": 5677,
      "eal": 5678,
      "IV": 5679,
      "icial": 5680,
      "Ġveget": 5681,
      "Ġsentence": 5682,
      "Ġsouth": 5683,
      "bert": 5684,
      "ĠWhich": 5685,
      "ĠUse": 5686,
      "ado": 5687,
      "Ġfold": 5688,
      "isher": 5689,
      "Ġadm": 5690,
      "Ġiron": 5691,
      "Ġrestaur": 5692,
      "mary": 5693,
      "Ġrevolution": 5694,
      "Ġdefe": 5695,
      "Ĥ¬": 5696,
      "ãĢ": 5697,
      "Ġconsidering": 5698,
      "adow": 5699,
      "rd": 5700,
      "ï¼": 5701,
      "Ġlatter": 5702,
      "Ġbegins": 5703,
      "hemat": 5704,
      "anish": 5705,
      "omic": 5706,
      "Ġheight": 5707,
      "Î±": 5708,
      "urally": 5709,
      "62": 5710,
      "Ġphr": 5711,
      "ĠTechn": 5712,
      "mosp": 5713,
      "Ġcas": 5714,
      "ĠWr": 5715,
      "roduction": 5716,
      "Ġrecept": 5717,
      "63": 5718,
      "Ġwriter": 5719,
      "Ġdele": 5720,
      "Ġlaug": 5721,
      "orem": 5722,
      "Ġdiss": 5723,
      "uts": 5724,
      "Ġdepending": 5725,
      "sl": 5726,
      "Ġfly": 5727,
      "Ġorigin": 5728,
      "Ġlies": 5729,
      "ĠDec": 5730,
      "ĠĠĠĠĠĠĠĠĠĠĠĠĠĠĠĠĠĠĠ": 5731,
      "Ġweren": 5732,
      "utive": 5733,
      "Ġformed": 5734,
      "ĠFrank": 5735,
      "agram": 5736,
      "ĠAnother": 5737,
      "Ġpossess": 5738,
      "Ġmilk": 5739,
      "Ġwearing": 5740,
      "ĠProf": 5741,
      "Ġtechnical": 5742,
      "Ġobtained": 5743,
      "Ġchest": 5744,
      "igration": 5745,
      "ĠMary": 5746,
      "Ġmillions": 5747,
      "ĠDa": 5748,
      "Ġnoise": 5749,
      "athy": 5750,
      "Ġproceed": 5751,
      "Ġcrisis": 5752,
      "aded": 5753,
      "ĠYet": 5754,
      "ora": 5755,
      "SE": 5756,
      "Ġpartner": 5757,
      "long": 5758,
      "ounce": 5759,
      "Ġsav": 5760,
      "arsh": 5761,
      "ĠMo": 5762,
      "Ġsurprised": 5763,
      "Ġguarant": 5764,
      "Ġcart": 5765,
      "Ġarticles": 5766,
      "Ġconstruction": 5767,
      "cel": 5768,
      "Ġearn": 5769,
      "Any": 5770,
      "ĠSal": 5771,
      "Ġaspects": 5772,
      "ĠRoman": 5773,
      "Ġsquare": 5774,
      "Ġexplanation": 5775,
      "Ġalcohol": 5776,
      "uting": 5777,
      "Ġsmell": 5778,
      "times": 5779,
      "oding": 5780,
      "ĠHarry": 5781,
      "Ġnarr": 5782,
      "Ġvit": 5783,
      "abilities": 5784,
      "ighter": 5785,
      "yth": 5786,
      "Ġguard": 5787,
      "yan": 5788,
      "idel": 5789,
      "Ġsuggested": 5790,
      "ĠCoun": 5791,
      "phone": 5792,
      "Ġteeth": 5793,
      "Ġtypical": 5794,
      "Ġadministration": 5795,
      "Ġplane": 5796,
      "aa": 5797,
      "Ġgreatest": 5798,
      "Ġunits": 5799,
      "inf": 5800,
      "Ġentertain": 5801,
      "Ġloud": 5802,
      "ĠEgypt": 5803,
      "!)": 5804,
      "Ġhref": 5805,
      "Ġspectrum": 5806,
      "Ġforest": 5807,
      "standing": 5808,
      "Ġcausing": 5809,
      "Ġgrew": 5810,
      "Ġresulting": 5811,
      "Ġpolicies": 5812,
      "Ġitem": 5813,
      "ĠMad": 5814,
      "Ġinnov": 5815,
      "Ã¢": 5816,
      "space": 5817,
      "ÂłÂłÂłÂłÂłÂłÂłÂłÂłÂłÂłÂłÂłÂłÂłÂł": 5818,
      "Ġsurprise": 5819,
      "Ġlaugh": 5820,
      "ĠRobert": 5821,
      "etry": 5822,
      "Man": 5823,
      "Ġfilms": 5824,
      "Ġsigns": 5825,
      "ĠMil": 5826,
      "outhern": 5827,
      "Ġshift": 5828,
      "Ġrank": 5829,
      "Ġresponsibility": 5830,
      "Ġincreases": 5831,
      "ĠTur": 5832,
      "ker": 5833,
      "Ġtiny": 5834,
      "iform": 5835,
      "Ġec": 5836,
      "Ġfocused": 5837,
      "Ġmerely": 5838,
      "uh": 5839,
      "ĠHy": 5840,
      "icing": 5841,
      "Ġtaught": 5842,
      "rete": 5843,
      "ĠYeah": 5844,
      "GE": 5845,
      "Ġvehicle": 5846,
      "bel": 5847,
      "Ġhole": 5848,
      "Ġowner": 5849,
      "Ġextent": 5850,
      "Ġorganizations": 5851,
      "Ġrare": 5852,
      "Ġoperation": 5853,
      "Ġanywhere": 5854,
      "Ġdatabase": 5855,
      "ĠGra": 5856,
      "Read": 5857,
      "Ġhorse": 5858,
      "Ġrelax": 5859,
      "acc": 5860,
      "ĠRight": 5861,
      "Ġgonna": 5862,
      "Ġstandards": 5863,
      "aning": 5864,
      "lem": 5865,
      "iate": 5866,
      "++": 5867,
      "IP": 5868,
      "ĠOpen": 5869,
      "ĠStreet": 5870,
      "ĠAccording": 5871,
      "Ġbutton": 5872,
      "Ġdriver": 5873,
      "Ġspoke": 5874,
      "Ġrepeated": 5875,
      "Ġsuggests": 5876,
      "Ġreform": 5877,
      "Ġadvent": 5878,
      "Ġfundamental": 5879,
      "abet": 5880,
      "Ġauthors": 5881,
      "Ġmaximum": 5882,
      "atural": 5883,
      "azon": 5884,
      "ĠSecond": 5885,
      "Ġtow": 5886,
      "stract": 5887,
      "ĠAC": 5888,
      "Ġconstantly": 5889,
      "Ġclothes": 5890,
      "iki": 5891,
      "Ġoperations": 5892,
      "ĠHave": 5893,
      "Ġreaders": 5894,
      "Ġattend": 5895,
      "nel": 5896,
      "Ġfruit": 5897,
      "Ġforgot": 5898,
      "ĠCentral": 5899,
      "Ġbusinesses": 5900,
      "Ġentry": 5901,
      "Ġscr": 5902,
      "Ġmonitor": 5903,
      "Leave": 5904,
      "Ġhundreds": 5905,
      "ĠID": 5906,
      "Ġposted": 5907,
      "uous": 5908,
      "Ġspiritual": 5909,
      "rence": 5910,
      "Ġabsor": 5911,
      "Ġprocessing": 5912,
      "Ġpool": 5913,
      "Ġfingers": 5914,
      "Ġbull": 5915,
      "Every": 5916,
      "Ġcapable": 5917,
      "Ġgro": 5918,
      "Ġidentified": 5919,
      "rine": 5920,
      "Ġagreed": 5921,
      "ching": 5922,
      "Ġneighbor": 5923,
      "orthern": 5924,
      "Who": 5925,
      "ĠSmith": 5926,
      "Ġscream": 5927,
      "Ġselling": 5928,
      "uy": 5929,
      "ano": 5930,
      "Ġmuscle": 5931,
      "Ġemphas": 5932,
      "Ġbreast": 5933,
      "Ġscientists": 5934,
      "Ġsolve": 5935,
      "ads": 5936,
      "Ġdeliver": 5937,
      "Ġbacter": 5938,
      "Ġcriminal": 5939,
      "Ġpatterns": 5940,
      "990": 5941,
      "comm": 5942,
      "Ġfashion": 5943,
      "ĠDepartment": 5944,
      "Ġfoods": 5945,
      "orph": 5946,
      "lder": 5947,
      "Ġelimin": 5948,
      "Â°": 5949,
      "iest": 5950,
      "PM": 5951,
      "Ġchallenges": 5952,
      "Ġimplic": 5953,
      "Ġbear": 5954,
      "allel": 5955,
      "Ġtrick": 5956,
      "Ġcircumstances": 5957,
      "Ġsmooth": 5958,
      "Ġadvance": 5959,
      "Ġwinter": 5960,
      "Ġbunch": 5961,
      "$-": 5962,
      "ĠReply": 5963,
      "Ġnoted": 5964,
      "ipping": 5965,
      "riv": 5966,
      "Ġtalked": 5967,
      "Ġextract": 5968,
      "Ġweird": 5969,
      "cular": 5970,
      "aying": 5971,
      "ĠFre": 5972,
      "UN": 5973,
      "length": 5974,
      "Ġchain": 5975,
      "ĠAustralia": 5976,
      "des": 5977,
      ".</": 5978,
      "Ġindu": 5979,
      "icated": 5980,
      "then": 5981,
      "Ġoccasion": 5982,
      "Ġjoy": 5983,
      "inking": 5984,
      "Ġresearc": 5985,
      "elf": 5986,
      "ĠAtt": 5987,
      "Ġthin": 5988,
      "isted": 5989,
      "Ġthousand": 5990,
      "Ġaccurate": 5991,
      "cking": 5992,
      "Spe": 5993,
      "erves": 5994,
      "ĠPort": 5995,
      "rage": 5996,
      "Ġescape": 5997,
      "ao": 5998,
      "Are": 5999,
      "Ġjoined": 6000,
      "Ġgent": 6001,
      "Ġgalax": 6002,
      "ĠBet": 6003,
      "Americ": 6004,
      "Ġtradition": 6005,
      "Ġyield": 6006,
      "Ġdefine": 6007,
      "Ġjustice": 6008,
      "Ġacknow": 6009,
      "Most": 6010,
      "Ġadvanced": 6011,
      "Ġexcess": 6012,
      "Ġsituations": 6013,
      "Ġmoments": 6014,
      "ĠCenter": 6015,
      "^{\\": 6016,
      "Ġliterally": 6017,
      "Ġbanks": 6018,
      "021": 6019,
      "ĠOF": 6020,
      "Ġaffected": 6021,
      "Ġmobile": 6022,
      "Ġeverybody": 6023,
      "ĠBi": 6024,
      "Anonymous": 6025,
      "Ġformation": 6026,
      "Ġchair": 6027,
      "Ġdesk": 6028,
      "Ġevening": 6029,
      "Ġfellow": 6030,
      "Ġnumerous": 6031,
      "Ġacadem": 6032,
      "uable": 6033,
      "Ġblind": 6034,
      "rc": 6035,
      "ĠPhil": 6036,
      "pet": 6037,
      "ona": 6038,
      "erent": 6039,
      "Ġfault": 6040,
      "Ġcolon": 6041,
      "Ġreader": 6042,
      "Ġsuc": 6043,
      "ocation": 6044,
      "Ġ==": 6045,
      "Gen": 6046,
      "Ġatmosp": 6047,
      "Col": 6048,
      "gery": 6049,
      "ĠDel": 6050,
      "DF": 6051,
      "Ġfinish": 6052,
      "Ġinfect": 6053,
      "iat": 6054,
      "Ġprinciple": 6055,
      "ĠWhe": 6056,
      "data": 6057,
      "Ġarguments": 6058,
      "Des": 6059,
      "Ġhat": 6060,
      "ĠCath": 6061,
      "oken": 6062,
      "Ġflight": 6063,
      "style": 6064,
      "Ġyeah": 6065,
      "outs": 6066,
      "omin": 6067,
      "ĠRef": 6068,
      "Ġequation": 6069,
      "Ġarrived": 6070,
      "Ġhadn": 6071,
      "Ġmeasures": 6072,
      "Ġdinner": 6073,
      "Ġupper": 6074,
      "ĠPerhaps": 6075,
      "aine": 6076,
      "Ġresistance": 6077,
      "they": 6078,
      "Ġchoices": 6079,
      "Ġgrav": 6080,
      "Ġeffectively": 6081,
      "Ġteen": 6082,
      "Ġperfectly": 6083,
      "icon": 6084,
      "ĠMake": 6085,
      "Ġreasonable": 6086,
      "going": 6087,
      "Ġtor": 6088,
      "stein": 6089,
      "figure": 6090,
      "ĠBre": 6091,
      "Ġflav": 6092,
      "arly": 6093,
      "ĠBob": 6094,
      "Ġsoldiers": 6095,
      "Where": 6096,
      "Ġremaining": 6097,
      "Ġlosing": 6098,
      "ĠSk": 6099,
      "('": 6100,
      "Ġpromot": 6101,
      "draw": 6102,
      "ĠJoe": 6103,
      "Ġnetworks": 6104,
      "Ġinvolve": 6105,
      "gency": 6106,
      "mathbf": 6107,
      "Ġgay": 6108,
      "Ġq": 6109,
      "ĠDuring": 6110,
      "Ġbomb": 6111,
      "Ġfrequently": 6112,
      "igation": 6113,
      "ĠChristmas": 6114,
      "ĠQue": 6115,
      "ĠTimes": 6116,
      "Ġconvention": 6117,
      "Ġdiscussed": 6118,
      "79": 6119,
      "ĠLou": 6120,
      "Ġsports": 6121,
      "Ġdepth": 6122,
      "Ġstruggle": 6123,
      "ses": 6124,
      "oman": 6125,
      "icken": 6126,
      "page": 6127,
      "Rel": 6128,
      "enced": 6129,
      "ilon": 6130,
      "998": 6131,
      "Ġprofit": 6132,
      "Ġru": 6133,
      "Ġliked": 6134,
      "Ġharder": 6135,
      "Ġequivalent": 6136,
      "Ġchannel": 6137,
      "}{\\": 6138,
      "ceived": 6139,
      "ä¸": 6140,
      "itchen": 6141,
      "73": 6142,
      "Ġgene": 6143,
      "graph": 6144,
      "Ġcomfortable": 6145,
      "ĠUnion": 6146,
      "Ġdirector": 6147,
      "Ġfrequency": 6148,
      "rical": 6149,
      "ĠPubl": 6150,
      "ĠTre": 6151,
      "Ġstone": 6152,
      "coming": 6153,
      "Ġkeeps": 6154,
      "Ġcompetition": 6155,
      "igen": 6156,
      "Ġrent": 6157,
      "bi": 6158,
      "Ġcomparison": 6159,
      "ĠHill": 6160,
      "ĠPower": 6161,
      "150": 6162,
      "OP": 6163,
      "Ġhyper": 6164,
      "Ġauto": 6165,
      "Ġchapter": 6166,
      "Ġappearance": 6167,
      "va": 6168,
      "Ġdance": 6169,
      "Ġjoint": 6170,
      "cluding": 6171,
      "Ġisol": 6172,
      "pd": 6173,
      "Ġwhis": 6174,
      "Ġteachers": 6175,
      "ĠTor": 6176,
      "okes": 6177,
      "post": 6178,
      "inst": 6179,
      "Ġamb": 6180,
      "Ġenvironmental": 6181,
      "Ġprepar": 6182,
      "Ġultimately": 6183,
      "omething": 6184,
      "ye": 6185,
      "Ġunable": 6186,
      "BS": 6187,
      "Another": 6188,
      "Ġintellect": 6189,
      "Ġcreative": 6190,
      "Ġsamples": 6191,
      "Ġlistening": 6192,
      "ÙĦ": 6193,
      "ĠStep": 6194,
      "span": 6195,
      "bor": 6196,
      "apped": 6197,
      "ĠAfrican": 6198,
      "Ġpurposes": 6199,
      "App": 6200,
      "ĠSupp": 6201,
      "TER": 6202,
      "bing": 6203,
      "ĠStr": 6204,
      "Ġserved": 6205,
      "Ġvariable": 6206,
      "url": 6207,
      "ĠBas": 6208,
      "ĠTest": 6209,
      "test": 6210,
      "orders": 6211,
      "========": 6212,
      "Ġshock": 6213,
      "level": 6214,
      "Ġpointed": 6215,
      "Ġdensity": 6216,
      "iler": 6217,
      "Ġ(\\": 6218,
      "Ġpractical": 6219,
      "ĠGreek": 6220,
      "Ġdisci": 6221,
      "wing": 6222,
      "ĠBer": 6223,
      "Ġessentially": 6224,
      "Ġmic": 6225,
      "Ġflex": 6226,
      "include": 6227,
      "LA": 6228,
      "ĠAgain": 6229,
      "Ġseat": 6230,
      "ĠSometimes": 6231,
      "aching": 6232,
      "ĠEnd": 6233,
      "Ġrecognize": 6234,
      "friend": 6235,
      "Ġvacc": 6236,
      "Ġgenerate": 6237,
      "^{-": 6238,
      "Ġpicked": 6239,
      "Ġpackage": 6240,
      "Ġconsult": 6241,
      "Ġcoord": 6242,
      "Ġtasks": 6243,
      "Ġinsp": 6244,
      "Ġlips": 6245,
      "Ġexternal": 6246,
      "ĠØ": 6247,
      "Ġsecure": 6248,
      "ĠFurther": 6249,
      "Ġrational": 6250,
      "Ġheads": 6251,
      "ĠBible": 6252,
      "html": 6253,
      "Ġbrings": 6254,
      "Ġhall": 6255,
      "Ġconsequences": 6256,
      "Ġpractices": 6257,
      "Ġacts": 6258,
      "Ġyounger": 6259,
      "Ġbell": 6260,
      "Ġlock": 6261,
      "swered": 6262,
      "Pe": 6263,
      "ĠTex": 6264,
      "Please": 6265,
      "ĠScott": 6266,
      "Ġspell": 6267,
      "case": 6268,
      "Ġstructures": 6269,
      "Ġsevere": 6270,
      "Ġconvin": 6271,
      "Ġbusy": 6272,
      "ION": 6273,
      "ĠMcC": 6274,
      "life": 6275,
      "72": 6276,
      "Ġstuck": 6277,
      "ĠSol": 6278,
      "ĠPhys": 6279,
      "Ġcompre": 6280,
      "Ġargue": 6281,
      "eding": 6282,
      "Ġupdate": 6283,
      "800": 6284,
      "Ġride": 6285,
      "ala": 6286,
      "ĠSoci": 6287,
      "roph": 6288,
      "ĠHome": 6289,
      "Ġsucceed": 6290,
      "Ġsle": 6291,
      "rency": 6292,
      "ĠTim": 6293,
      "ructure": 6294,
      "oma": 6295,
      "Ġliquid": 6296,
      "Ġmad": 6297,
      "ĠRE": 6298,
      "PC": 6299,
      "ĠProt": 6300,
      "Ġbrows": 6301,
      "nam": 6302,
      "herent": 6303,
      "ĠCap": 6304,
      "Ġtelevision": 6305,
      "Ġaid": 6306,
      "ĠVir": 6307,
      "BA": 6308,
      "Ġ</": 6309,
      "ura": 6310,
      "Ġmoves": 6311,
      "ĠHen": 6312,
      "Ġdram": 6313,
      "cked": 6314,
      "Ġconsistent": 6315,
      "asm": 6316,
      "Ġgenerated": 6317,
      "Ġillegal": 6318,
      "ĠSil": 6319,
      "Ġhidden": 6320,
      "Ġhabit": 6321,
      "ĠRepublican": 6322,
      "Ġmessages": 6323,
      "usiness": 6324,
      "rome": 6325,
      "ĠGovernment": 6326,
      "Ġnarrow": 6327,
      "Ġsan": 6328,
      "gun": 6329,
      "ĠMer": 6330,
      "ĠHuman": 6331,
      "Ġoperating": 6332,
      "Î½": 6333,
      "Ġhighlight": 6334,
      "Ġhydro": 6335,
      "ÃŃ": 6336,
      "Ġabuse": 6337,
      "fty": 6338,
      "agers": 6339,
      "Ġtomorrow": 6340,
      "Ġconcerns": 6341,
      "Ġsubt": 6342,
      "aser": 6343,
      "Ġweapon": 6344,
      "Ġacting": 6345,
      "Ġasks": 6346,
      "Ġdropped": 6347,
      "ĠBro": 6348,
      "Ġchosen": 6349,
      "ENT": 6350,
      "Ġassert": 6351,
      "usal": 6352,
      "*}": 6353,
      "Ġgather": 6354,
      "Ġskill": 6355,
      "ville": 6356,
      "Ġaside": 6357,
      "Ġmath": 6358,
      "Ġfasc": 6359,
      "Ġtechnique": 6360,
      "Ġquantum": 6361,
      "Ġmanif": 6362,
      "Gr": 6363,
      "ĠUN": 6364,
      "rbrakk": 6365,
      "Ġsurvive": 6366,
      "Ġholds": 6367,
      "ĠMS": 6368,
      "ĠDet": 6369,
      "Ġliterature": 6370,
      "Ġax": 6371,
      "Ġmoon": 6372,
      "Ġagent": 6373,
      "Ġsuffering": 6374,
      "Ġforever": 6375,
      "Ġbroke": 6376,
      "nic": 6377,
      "Ġfool": 6378,
      "ĠAssoci": 6379,
      "arl": 6380,
      "ansion": 6381,
      "Ġexcited": 6382,
      "Ġnormally": 6383,
      "Ġstorage": 6384,
      "Ġmedicine": 6385,
      "Rec": 6386,
      "Ġchief": 6387,
      "celer": 6388,
      "leq": 6389,
      "lines": 6390,
      "Ġsuppose": 6391,
      "Ġbath": 6392,
      "ifts": 6393,
      "Ġvul": 6394,
      "Ġstands": 6395,
      "Ġju": 6396,
      "Ġspring": 6397,
      "Ġparameters": 6398,
      "inton": 6399,
      "Ġgotten": 6400,
      "Ġleadership": 6401,
      "600": 6402,
      "Ġcab": 6403,
      "Ġunknown": 6404,
      "Rep": 6405,
      "Ġcomponent": 6406,
      "Ġmail": 6407,
      "Ġaccounts": 6408,
      "Ġdisapp": 6409,
      "ĠOld": 6410,
      "Ġwalls": 6411,
      "Ġtwenty": 6412,
      "oret": 6413,
      "Ġplastic": 6414,
      "pal": 6415,
      "Ġstorm": 6416,
      "Ġlargely": 6417,
      "Mr": 6418,
      "Ġexplore": 6419,
      "ĠJer": 6420,
      "Ġreply": 6421,
      "Ġterrible": 6422,
      "was": 6423,
      "Ġopportunities": 6424,
      "function": 6425,
      "Ob": 6426,
      "unte": 6427,
      "Ġriver": 6428,
      "stile": 6429,
      "Ġdrag": 6430,
      "ette": 6431,
      "ensional": 6432,
      "lbrakk": 6433,
      "Ġrevealed": 6434,
      "Ġmyth": 6435,
      "Ġtruck": 6436,
      "Ġinteraction": 6437,
      "Ġvary": 6438,
      "gent": 6439,
      "Î¿": 6440,
      "Ġtired": 6441,
      "Ġmotor": 6442,
      "Ġletters": 6443,
      "ĠAND": 6444,
      "Ġselection": 6445,
      "dim": 6446,
      "ician": 6447,
      "itle": 6448,
      "ilde": 6449,
      "ĠFree": 6450,
      "Ġdomin": 6451,
      "ĠDi": 6452,
      "nu": 6453,
      "MP": 6454,
      "Ġgenes": 6455,
      "Go": 6456,
      "+\\": 6457,
      "74": 6458,
      "iller": 6459,
      "zed": 6460,
      "Ġyouth": 6461,
      "empl": 6462,
      "Ġcarefully": 6463,
      "></": 6464,
      "agraph": 6465,
      "ĠProp": 6466,
      "ns": 6467,
      "ĠTake": 6468,
      "Ġtough": 6469,
      "aze": 6470,
      "Ġhomes": 6471,
      "Ġcommunities": 6472,
      "Ġconclusion": 6473,
      "Ġmainly": 6474,
      "ĠId": 6475,
      "Ġappoint": 6476,
      "Ġsees": 6477,
      "Ġdealing": 6478,
      "ĠSunday": 6479,
      "Ġpassion": 6480,
      "ĠLast": 6481,
      "Ġrac": 6482,
      "ĠLu": 6483,
      "Ġsomebody": 6484,
      "imp": 6485,
      "``": 6486,
      "Ġanswered": 6487,
      "Ġappreciate": 6488,
      "Ġphotos": 6489,
      "ĠToday": 6490,
      "Ġoccurs": 6491,
      "Ġprinciples": 6492,
      "Since": 6493,
      "run": 6494,
      "Ġgenetic": 6495,
      "Ġofficer": 6496,
      "ĠBack": 6497,
      "iated": 6498,
      "Ġmargin": 6499,
      "ĠThomas": 6500,
      "Ġyesterday": 6501,
      "Ġsubstant": 6502,
      "Ġlanguages": 6503,
      "Ġrecon": 6504,
      "cific": 6505,
      "Ġhasn": 6506,
      "alian": 6507,
      "resents": 6508,
      "Ġborder": 6509,
      "non": 6510,
      "lands": 6511,
      "sey": 6512,
      "ĠPlan": 6513,
      "Ġbrown": 6514,
      "Ġske": 6515,
      "icago": 6516,
      "Ġshoulder": 6517,
      "ĠFin": 6518,
      "Ġtum": 6519,
      "turnstile": 6520,
      "icted": 6521,
      "ĠPage": 6522,
      "Ġsplit": 6523,
      "Ġfunds": 6524,
      "ython": 6525,
      "abled": 6526,
      "eless": 6527,
      "rt": 6528,
      "Te": 6529,
      "á½": 6530,
      "Ġvent": 6531,
      "Ġboost": 6532,
      "lege": 6533,
      "inity": 6534,
      "rep": 6535,
      "ĠFriday": 6536,
      "inks": 6537,
      "Ġcandidate": 6538,
      "Ġcert": 6539,
      "Ġpartners": 6540,
      "Ġrom": 6541,
      "Ġprofession": 6542,
      "ulture": 6543,
      "Ġà¤": 6544,
      "Ġperman": 6545,
      "Ġcombined": 6546,
      "Ġweekend": 6547,
      "oin": 6548,
      "Ġillustr": 6549,
      "Ġloan": 6550,
      "Ġdegrees": 6551,
      "Ġwire": 6552,
      "andon": 6553,
      "Ġremote": 6554,
      "umin": 6555,
      "ba": 6556,
      "Also": 6557,
      "Ġbeauty": 6558,
      "Ġmac": 6559,
      "Ġofficials": 6560,
      "Ġwine": 6561,
      "Ġmal": 6562,
      "otal": 6563,
      "zing": 6564,
      "ĠĠĠĠĠĠĠĠĠĠĠĠĠ": 6565,
      "ĠMicrosoft": 6566,
      "Ġmanager": 6567,
      "uated": 6568,
      "Ġfinds": 6569,
      "Ġsharing": 6570,
      "kins": 6571,
      "Ġgoods": 6572,
      "Ġintention": 6573,
      "Ġexhib": 6574,
      "ĠWil": 6575,
      "Äģ": 6576,
      "Ġadmit": 6577,
      "Ġreturns": 6578,
      "Ġdisag": 6579,
      "Ġtransition": 6580,
      "ĠClass": 6581,
      "ĠPet": 6582,
      "ibilities": 6583,
      "Ġxs": 6584,
      "Ġgrown": 6585,
      "fast": 6586,
      "mes": 6587,
      "Ġmarkets": 6588,
      "Ġwra": 6589,
      "####": 6590,
      "ĠEmp": 6591,
      "85": 6592,
      "Ġcrew": 6593,
      "Ġboot": 6594,
      "Ġdetailed": 6595,
      "mo": 6596,
      "ĠFore": 6597,
      "Ġreferred": 6598,
      "Ġnations": 6599,
      "Even": 6600,
      "?)": 6601,
      "Ġwarn": 6602,
      "Ġinvolves": 6603,
      "ushed": 6604,
      "ĠDev": 6605,
      "raction": 6606,
      "Sub": 6607,
      "Ġadop": 6608,
      "water": 6609,
      "Ġnobody": 6610,
      "oration": 6611,
      "Ġfalling": 6612,
      "Per": 6613,
      "gebra": 6614,
      "ĠIr": 6615,
      "ĠHall": 6616,
      "Ġnegot": 6617,
      "mathrm": 6618,
      "Ġpaint": 6619,
      "Ġlogic": 6620,
      "997": 6621,
      "ĠAut": 6622,
      "who": 6623,
      "Ġproud": 6624,
      "burg": 6625,
      "ĠRichard": 6626,
      "Ġregions": 6627,
      "Ġwal": 6628,
      "EO": 6629,
      "ether": 6630,
      "Ġencourage": 6631,
      "bec": 6632,
      "ãĥ": 6633,
      "Ġmistake": 6634,
      "SA": 6635,
      "Ġfinger": 6636,
      "orted": 6637,
      "Ġorg": 6638,
      "ifies": 6639,
      "Ġratio": 6640,
      ",'": 6641,
      "Ġnaturally": 6642,
      "Ġentered": 6643,
      "Ġintent": 6644,
      "Ġbringing": 6645,
      "apse": 6646,
      "Ġtherapy": 6647,
      "azine": 6648,
      "Ġfeedback": 6649,
      "ota": 6650,
      "Name": 6651,
      "Ġangry": 6652,
      "ptions": 6653,
      "Back": 6654,
      "ua": 6655,
      "Ġeditor": 6656,
      "ĠAD": 6657,
      "!!!": 6658,
      "Ġspr": 6659,
      "980": 6660,
      "Page": 6661,
      "ĠAnn": 6662,
      "ĠRad": 6663,
      "Ġfilter": 6664,
      "mid": 6665,
      "Ġimper": 6666,
      "Var": 6667,
      "Ġdocuments": 6668,
      "John": 6669,
      "taining": 6670,
      "adian": 6671,
      "Ġvaluable": 6672,
      "ught": 6673,
      "ication": 6674,
      "Ġsubsequ": 6675,
      "Ġpil": 6676,
      "Ġvideos": 6677,
      "Ġconven": 6678,
      "Ġhide": 6679,
      "bered": 6680,
      "Ġcommitted": 6681,
      "anges": 6682,
      "Ġsacr": 6683,
      "osal": 6684,
      "ortion": 6685,
      "ample": 6686,
      ".]": 6687,
      "Ġmanufacture": 6688,
      "Ġregul": 6689,
      "EE": 6690,
      "ĠNone": 6691,
      "onent": 6692,
      "ĠDirect": 6693,
      "Ġextend": 6694,
      "theta": 6695,
      "cor": 6696,
      "there": 6697,
      "aws": 6698,
      "car": 6699,
      "ĠFranc": 6700,
      "Ġpassing": 6701,
      "Ġstack": 6702,
      "van": 6703,
      "Ġfucking": 6704,
      "Ġpositions": 6705,
      ">>": 6706,
      "rieved": 6707,
      "itar": 6708,
      "Right": 6709,
      "Ġsmiled": 6710,
      "Ġprofile": 6711,
      "])": 6712,
      "Ġhung": 6713,
      "Ġlights": 6714,
      "pling": 6715,
      "Ġmanip": 6716,
      "Ġwed": 6717,
      "Ġreplaced": 6718,
      "Ġmyst": 6719,
      "greg": 6720,
      "Ġpin": 6721,
      "Ġawesome": 6722,
      "Ġrepresents": 6723,
      "Ġingred": 6724,
      "Out": 6725,
      "PA": 6726,
      "ĠAI": 6727,
      "sect": 6728,
      "ĠNor": 6729,
      "atus": 6730,
      "Ġsaved": 6731,
      "ola": 6732,
      "delta": 6733,
      "rip": 6734,
      "Ġreward": 6735,
      "ĠFire": 6736,
      "pg": 6737,
      "gged": 6738,
      "Ġexplains": 6739,
      "atar": 6740,
      "appy": 6741,
      "Ġremained": 6742,
      "ĠTop": 6743,
      "ĠSection": 6744,
      "Ġaudio": 6745,
      "exp": 6746,
      "Id": 6747,
      "ĠSat": 6748,
      "rho": 6749,
      "$$": 6750,
      "Ġextended": 6751,
      "Ġautomatically": 6752,
      "Ġvirtual": 6753,
      "ĠAS": 6754,
      "elling": 6755,
      "Ġcomplicated": 6756,
      "Ġtrib": 6757,
      "ĠTy": 6758,
      "Ġclients": 6759,
      "Ġplain": 6760,
      "xiety": 6761,
      "Ġvariables": 6762,
      "Ġstudied": 6763,
      "Ġartist": 6764,
      "Ġbread": 6765,
      "Ġfab": 6766,
      "ĠNote": 6767,
      "Ġarchitecture": 6768,
      "ĠData": 6769,
      "connect": 6770,
      "Ġdrinking": 6771,
      "Ġrespectively": 6772,
      "Ġamounts": 6773,
      "Ġinner": 6774,
      "arts": 6775,
      "ĠLove": 6776,
      "Ġinjury": 6777,
      "Ġ~": 6778,
      "Ġsurprising": 6779,
      "Ġfro": 6780,
      "âĤ¬": 6781,
      "Ġofficers": 6782,
      "Ġhang": 6783,
      "Ġpromise": 6784,
      "Ġfigures": 6785,
      "Ġexpressed": 6786,
      "Ġblame": 6787,
      "Ġwidely": 6788,
      "Ġconfir": 6789,
      "reens": 6790,
      "https": 6791,
      "Ġtail": 6792,
      "sk": 6793,
      "ĠBefore": 6794,
      "ĠSteve": 6795,
      "Ġflag": 6796,
      "Ġpersonally": 6797,
      "vsp": 6798,
      "Ġsolar": 6799,
      "Ġalgorithm": 6800,
      "Ġwound": 6801,
      "anna": 6802,
      "Ġsustain": 6803,
      "ĠSar": 6804,
      "Ġtall": 6805,
      "Ġcere": 6806,
      "ĠIns": 6807,
      "duc": 6808,
      "Ġoblig": 6809,
      "ĠMa": 6810,
      "}$,": 6811,
      "Ġsession": 6812,
      "Ġoccurred": 6813,
      "ĠSing": 6814,
      "Ġkitchen": 6815,
      "irc": 6816,
      "ressive": 6817,
      "ĠDevelop": 6818,
      "Ġgender": 6819,
      "Ġcareful": 6820,
      "ĠSum": 6821,
      "amily": 6822,
      "ĠFinally": 6823,
      "ĠÂłĠÂłĠÂłĠÂł": 6824,
      "Ġopposed": 6825,
      "apes": 6826,
      "Ã³": 6827,
      "Ġstom": 6828,
      "ican": 6829,
      "Ġlayers": 6830,
      "py": 6831,
      "Type": 6832,
      "Ġmissed": 6833,
      "rast": 6834,
      "ĠAbout": 6835,
      "Ġrelation": 6836,
      "Ġvillage": 6837,
      "Ġcontrolled": 6838,
      "Ġarray": 6839,
      "Ġconfidence": 6840,
      "oral": 6841,
      "Ġerrors": 6842,
      "ĠMen": 6843,
      "Ġclar": 6844,
      "Ġeverywhere": 6845,
      "ĠIll": 6846,
      "een": 6847,
      "Ġcro": 6848,
      "Ġheaven": 6849,
      "nding": 6850,
      "MA": 6851,
      "ĠLong": 6852,
      "aniel": 6853,
      "...\"": 6854,
      "ĠInf": 6855,
      "Ġinnoc": 6856,
      "sq": 6857,
      "foot": 6858,
      "Ġera": 6859,
      "acle": 6860,
      "Ġbless": 6861,
      "Ġwondering": 6862,
      "ounter": 6863,
      "Ġsalt": 6864,
      "Ġcharged": 6865,
      "Ġmechanism": 6866,
      "Ġreplied": 6867,
      "ystem": 6868,
      "Ġpleasure": 6869,
      "Sec": 6870,
      "Many": 6871,
      "Ġtheme": 6872,
      "Ġexception": 6873,
      "dule": 6874,
      "rich": 6875,
      "Ġtong": 6876,
      "isters": 6877,
      "Ġmixed": 6878,
      "Ġannoy": 6879,
      "ĠSir": 6880,
      "Ġimproved": 6881,
      "Acc": 6882,
      "ĠNever": 6883,
      "iger": 6884,
      "ĠInstitute": 6885,
      "ĠBur": 6886,
      "Ġstrict": 6887,
      "share": 6888,
      "ĠTexas": 6889,
      "Because": 6890,
      "Ġsector": 6891,
      "Ġcombat": 6892,
      "Ġfrs": 6893,
      "ĠUsing": 6894,
      "xual": 6895,
      "ĠMass": 6896,
      "ĠSand": 6897,
      "Ġsharp": 6898,
      "forcement": 6899,
      "Ġoriginally": 6900,
      "Ġcosm": 6901,
      "bles": 6902,
      "lets": 6903,
      "ĠMiddle": 6904,
      "Gamma": 6905,
      "ĠBritain": 6906,
      "ishment": 6907,
      "Ġgentle": 6908,
      "Ne": 6909,
      "Ġboss": 6910,
      "DP": 6911,
      "Ġbon": 6912,
      "ĠInformation": 6913,
      "dr": 6914,
      "alysis": 6915,
      "roat": 6916,
      "Ġphilosophy": 6917,
      "Ġcircle": 6918,
      "Ġcreates": 6919,
      "Ġcopyright": 6920,
      "Ġmask": 6921,
      "Ġlinked": 6922,
      "ĠMel": 6923,
      "Ġwelcome": 6924,
      "Ġsmoke": 6925,
      "pected": 6926,
      "Ġdestroyed": 6927,
      "Ġmachines": 6928,
      "Ġstatements": 6929,
      "Ġcommonly": 6930,
      "ĠWater": 6931,
      "ĠFig": 6932,
      "Ġgift": 6933,
      "Ġcategory": 6934,
      "Ġassemb": 6935,
      "Ġexplo": 6936,
      "ĠHell": 6937,
      "ĠEconom": 6938,
      "Ġrow": 6939,
      "996": 6940,
      "Ġyellow": 6941,
      "Ġcompare": 6942,
      "Ġphysics": 6943,
      "Ġenjoyed": 6944,
      "Ġplate": 6945,
      "Ġpushed": 6946,
      "Ġexperiments": 6947,
      "ĠAnsw": 6948,
      "Ð°Ð": 6949,
      "Ġtag": 6950,
      "oster": 6951,
      "Ġsuffer": 6952,
      "indu": 6953,
      "Ġtact": 6954,
      "Ġsuit": 6955,
      "ĠWall": 6956,
      "requ": 6957,
      "Ġdust": 6958,
      "Ġadults": 6959,
      "ĠTwitter": 6960,
      "Ġuniform": 6961,
      "ĠMax": 6962,
      "Ġprocedure": 6963,
      "Ġresolution": 6964,
      "enth": 6965,
      "Ġsoil": 6966,
      "ographic": 6967,
      "hh": 6968,
      "Ġshooting": 6969,
      "ilit": 6970,
      "ildren": 6971,
      "Ġnewsp": 6972,
      "Ġgiant": 6973,
      "ĠBrown": 6974,
      "Ġadvoc": 6975,
      "ĠMem": 6976,
      "anny": 6977,
      "ĠSuch": 6978,
      "Ġnative": 6979,
      "lock": 6980,
      "ĠFigure": 6981,
      "Ġxa": 6982,
      "Ġlinear": 6983,
      "obe": 6984,
      "Ġbeliefs": 6985,
      "ghan": 6986,
      "ĠJose": 6987,
      "inet": 6988,
      "Ġwis": 6989,
      "cm": 6990,
      "Am": 6991,
      "ĠLiber": 6992,
      "Ġtroops": 6993,
      "ĠElect": 6994,
      "Ġlimits": 6995,
      "ĠHol": 6996,
      "Ġfootball": 6997,
      "ĠNav": 6998,
      "ĠCharles": 6999,
      "Ġbeings": 7000,
      "stk": 7001,
      "Ġvirus": 7002,
      "Ġassign": 7003,
      "Ġroutine": 7004,
      "born": 7005,
      "Ġresource": 7006,
      "ĠRead": 7007,
      "ĠWould": 7008,
      "Ġabandon": 7009,
      "Ġoffering": 7010,
      "anta": 7011,
      "Ġdeploy": 7012,
      "ĠBudd": 7013,
      "Ġcorresponding": 7014,
      "olit": 7015,
      "ĠĠĊ": 7016,
      "ogy": 7017,
      "Ġboat": 7018,
      "Ġformal": 7019,
      "Ġdisappoint": 7020,
      "Ġ=>": 7021,
      "Ġtox": 7022,
      "Ġorders": 7023,
      "Ġhouses": 7024,
      "Ġwet": 7025,
      "CE": 7026,
      "Ġemotion": 7027,
      "iner": 7028,
      "Ġframework": 7029,
      "Ġdivers": 7030,
      "ĠMartin": 7031,
      ".âĢĻ": 7032,
      "Ġprime": 7033,
      "Ġsurgery": 7034,
      "ĠExp": 7035,
      "Ġpump": 7036,
      "Ġquote": 7037,
      "Ġdistrict": 7038,
      "ĠKorea": 7039,
      "Ġvo": 7040,
      "ĠLi": 7041,
      "Ġcoast": 7042,
      "Ġdesper": 7043,
      "owed": 7044,
      "cers": 7045,
      "lements": 7046,
      "Ġpra": 7047,
      "tri": 7048,
      "Ġbreaking": 7049,
      "Ġscenario": 7050,
      "Ġdecent": 7051,
      "Ġtries": 7052,
      "List": 7053,
      "Ġcolors": 7054,
      "Ġdrawn": 7055,
      "Ġemotions": 7056,
      "Ġclosely": 7057,
      "120": 7058,
      "Ġsending": 7059,
      "edit": 7060,
      "pel": 7061,
      "Ġlaunch": 7062,
      "ifications": 7063,
      "whel": 7064,
      "Ġinvestigation": 7065,
      "Ġstro": 7066,
      "Ġconstitution": 7067,
      "Ġcomputers": 7068,
      "Ġunw": 7069,
      "ÂłĠ": 7070,
      "Ġproport": 7071,
      "Ġindicate": 7072,
      "Ġlikes": 7073,
      "Ġuncertain": 7074,
      "Ġstronger": 7075,
      "ĠGal": 7076,
      "istor": 7077,
      "asant": 7078,
      "have": 7079,
      "Ġincident": 7080,
      "grade": 7081,
      "Ġrecorded": 7082,
      "Ġremem": 7083,
      "erring": 7084,
      "Ġped": 7085,
      "pass": 7086,
      "eping": 7087,
      "Data": 7088,
      "aren": 7089,
      "ested": 7090,
      "Ġliberal": 7091,
      "ĠRock": 7092,
      "Ġbat": 7093,
      "ruption": 7094,
      "Ġresearchers": 7095,
      "Ġcorporate": 7096,
      "ĠOK": 7097,
      "hent": 7098,
      "ĠDark": 7099,
      "Ġdad": 7100,
      "Ġridic": 7101,
      "ĠSup": 7102,
      "pring": 7103,
      "RL": 7104,
      "Ġchunk": 7105,
      "Ġstable": 7106,
      "BI": 7107,
      "ĠSecurity": 7108,
      "Ġsale": 7109,
      "gend": 7110,
      "oust": 7111,
      "ĠPublic": 7112,
      "ĠFlor": 7113,
      "Ġindustrial": 7114,
      "lar": 7115,
      "Ġversions": 7116,
      "inite": 7117,
      "Ġprogramming": 7118,
      "Ġending": 7119,
      "Ġquarter": 7120,
      "Ġminds": 7121,
      "Last": 7122,
      "inent": 7123,
      "ilty": 7124,
      "Ġpotentially": 7125,
      "ĠFrancis": 7126,
      "Ġlegit": 7127,
      "Ġblow": 7128,
      "othing": 7129,
      "sters": 7130,
      "Ġportion": 7131,
      "Ref": 7132,
      "Ġdoctors": 7133,
      "Sim": 7134,
      "Ġye": 7135,
      "abs": 7136,
      "Ġtone": 7137,
      "Ġconsumer": 7138,
      "ĠLiter": 7139,
      "ĠNov": 7140,
      "995": 7141,
      "Ġfaces": 7142,
      "Mar": 7143,
      "Thanks": 7144,
      "Ġpm": 7145,
      "ãĤ": 7146,
      "ĠForm": 7147,
      "Ġenemies": 7148,
      "Ġagents": 7149,
      "Ġcharacteristics": 7150,
      "Ã¶": 7151,
      "xx": 7152,
      "code": 7153,
      "Ġdecade": 7154,
      "Ġinterface": 7155,
      "Ġcomplexity": 7156,
      "Good": 7157,
      "Ġflying": 7158,
      "VER": 7159,
      "Ġenhance": 7160,
      "ĠWal": 7161,
      "enny": 7162,
      "Ġmatrix": 7163,
      "ĠAmazon": 7164,
      "eness": 7165,
      "ĠJe": 7166,
      "Ġapproaches": 7167,
      "Ġattempts": 7168,
      "Ġdriven": 7169,
      "Ġwaves": 7170,
      "Ġstomach": 7171,
      "ĠChicago": 7172,
      "mega": 7173,
      "Ġvictims": 7174,
      "ĠList": 7175,
      "Ġrig": 7176,
      "Ġhardware": 7177,
      "ĠPak": 7178,
      "Ġstrategies": 7179,
      "hline": 7180,
      "Ġbone": 7181,
      "ras": 7182,
      "Ġcream": 7183,
      "IF": 7184,
      "Ġvolunte": 7185,
      "Ġtort": 7186,
      "Once": 7187,
      "ffect": 7188,
      "Ġwhenever": 7189,
      "Ġclassic": 7190,
      "Ġnose": 7191,
      "âĢĻ.": 7192,
      "bits": 7193,
      "Ġpayment": 7194,
      "Ġdiseases": 7195,
      "Ġefficiency": 7196,
      "Ġguns": 7197,
      "ĠDist": 7198,
      "Ġdeeply": 7199,
      "ĠCH": 7200,
      "Ġstrongly": 7201,
      "ĠCy": 7202,
      "âĢ¦.": 7203,
      "Ġstores": 7204,
      "Ġnom": 7205,
      "ĠCouncil": 7206,
      "value": 7207,
      "Ġtoler": 7208,
      "ĠSpanish": 7209,
      "noon": 7210,
      "Ġdomestic": 7211,
      "Ġessay": 7212,
      "eline": 7213,
      "liament": 7214,
      "uine": 7215,
      "Ġincorpor": 7216,
      "Ġignore": 7217,
      "Ġprepare": 7218,
      "Ġlying": 7219,
      "Ġfeat": 7220,
      "Ġpray": 7221,
      "Ġprimarily": 7222,
      "Ġmeal": 7223,
      "Ġatmosphere": 7224,
      "esub": 7225,
      "ĠStill": 7226,
      "Ġcharges": 7227,
      "bsub": 7228,
      "Ġregist": 7229,
      "pack": 7230,
      "ji": 7231,
      "Ġstreets": 7232,
      "Ġfulf": 7233,
      "Ġtherm": 7234,
      "Ġclaimed": 7235,
      "opyright": 7236,
      "Ġstead": 7237,
      "Ġtill": 7238,
      "Ġarc": 7239,
      "Ġdreams": 7240,
      "Ġcraft": 7241,
      "Ã¼": 7242,
      "called": 7243,
      "Mod": 7244,
      "Yeah": 7245,
      "ĠLear": 7246,
      "udes": 7247,
      "Ġtips": 7248,
      "Ġhoping": 7249,
      "Ġcontaining": 7250,
      "ju": 7251,
      "Ġcow": 7252,
      "About": 7253,
      "umps": 7254,
      "ĠĠĠĠĠĠĠĠĠĠĠĠ": 7255,
      "86": 7256,
      "inations": 7257,
      "Ġdelay": 7258,
      "71": 7259,
      "ĠClinton": 7260,
      "Ġinstitutions": 7261,
      "Ġlaid": 7262,
      "Ġdistributed": 7263,
      "Ġcollabor": 7264,
      "ĠJeff": 7265,
      "Ġhardly": 7266,
      "Ġbuff": 7267,
      "Ġgall": 7268,
      "inder": 7269,
      "Ġgrass": 7270,
      "Ġseeking": 7271,
      "Ġattitude": 7272,
      "Ġincreasingly": 7273,
      "Monday": 7274,
      "Ġfacing": 7275,
      "Ġbuildings": 7276,
      "active": 7277,
      "Ġflash": 7278,
      "rovers": 7279,
      "ĠIP": 7280,
      "cdot": 7281,
      "ĠCatholic": 7282,
      "Ġvisible": 7283,
      "Ġexposure": 7284,
      "person": 7285,
      "Ġordered": 7286,
      "ĠLee": 7287,
      "Dr": 7288,
      "anguage": 7289,
      "Ġhel": 7290,
      "ener": 7291,
      "Ġves": 7292,
      "ĠBank": 7293,
      "Ġimmune": 7294,
      "Ġcoverage": 7295,
      "Ġmeasured": 7296,
      "ĠCa": 7297,
      "Ġwindows": 7298,
      "Ġparagraph": 7299,
      "etime": 7300,
      "orters": 7301,
      "ĠJava": 7302,
      "ĠWas": 7303,
      "Ġocean": 7304,
      "ĠMrs": 7305,
      "Ġparameter": 7306,
      "Ġwake": 7307,
      "haust": 7308,
      "Other": 7309,
      "orough": 7310,
      "icide": 7311,
      "rec": 7312,
      "ĠVer": 7313,
      "Ġregardless": 7314,
      "uan": 7315,
      "ĠService": 7316,
      "vin": 7317,
      "ĠMonday": 7318,
      "ĠAtl": 7319,
      "ĠJon": 7320,
      "Ġloose": 7321,
      "ĠWood": 7322,
      "Ġgrade": 7323,
      "Ġputs": 7324,
      "ĠJo": 7325,
      "Ġacceler": 7326,
      "TC": 7327,
      "Ġexplos": 7328,
      "Ġshell": 7329,
      "Ġselected": 7330,
      "eting": 7331,
      "Ġunion": 7332,
      "Ġsensitive": 7333,
      "Ġdict": 7334,
      "utation": 7335,
      "ĠSociety": 7336,
      "Ġsigned": 7337,
      "Ġexplicit": 7338,
      "improve": 7339,
      "Ġpersonality": 7340,
      "92": 7341,
      "Ġblank": 7342,
      "Ġgarden": 7343,
      "Ġwheel": 7344,
      "Ġtheories": 7345,
      "Ġpill": 7346,
      "ĠParis": 7347,
      "ĠDemocrats": 7348,
      "Ġannounced": 7349,
      "ĠSov": 7350,
      "Ġcorrel": 7351,
      "ĠUnfortunately": 7352,
      "Part": 7353,
      "eties": 7354,
      "Over": 7355,
      "inem": 7356,
      "MR": 7357,
      "ĠYOU": 7358,
      "eries": 7359,
      "ĠBay": 7360,
      "Ġlicense": 7361,
      "Ġexposed": 7362,
      "Ġembra": 7363,
      "ĠMike": 7364,
      "Ġchose": 7365,
      "Ġbarely": 7366,
      "cluded": 7367,
      "ds": 7368,
      "Ġinfo": 7369,
      "Ġanxiety": 7370,
      "994": 7371,
      "Ġroute": 7372,
      "plete": 7373,
      "power": 7374,
      "101": 7375,
      "Ġscenes": 7376,
      "ME": 7377,
      "Thank": 7378,
      "Ġsupporting": 7379,
      "Ġconsumption": 7380,
      "ĠCP": 7381,
      "arted": 7382,
      "Ġequally": 7383,
      "Ġillness": 7384,
      "Ġrose": 7385,
      "ĠAsia": 7386,
      "Ġconcepts": 7387,
      "Ġrepresentation": 7388,
      "Ġrecommended": 7389,
      "Ġ]": 7390,
      "Ġhook": 7391,
      "thm": 7392,
      "250": 7393,
      "Ġtank": 7394,
      "Ġregime": 7395,
      "angers": 7396,
      "gra": 7397,
      "ĠBab": 7398,
      "Ġwriters": 7399,
      "Ġvulner": 7400,
      "arry": 7401,
      "ĠHaw": 7402,
      "Ġcompleted": 7403,
      "Ġhoriz": 7404,
      "obs": 7405,
      "Ġimmediate": 7406,
      "td": 7407,
      "abetes": 7408,
      "Ġswim": 7409,
      "Ġgap": 7410,
      "useum": 7411,
      "ĠArmy": 7412,
      "Ġfalls": 7413,
      "Ġcalm": 7414,
      "ikip": 7415,
      "Ġworried": 7416,
      "Wednesday": 7417,
      "rection": 7418,
      "Ġsurvey": 7419,
      "Ġconsciousness": 7420,
      "Ġlad": 7421,
      "rangle": 7422,
      "Ġbutter": 7423,
      "Ġdatas": 7424,
      "ologist": 7425,
      "ĠBest": 7426,
      "94": 7427,
      "Ġbelieves": 7428,
      "QL": 7429,
      "Ġexperts": 7430,
      "strong": 7431,
      "Ġoutcome": 7432,
      "ĠDiv": 7433,
      "world": 7434,
      "Ġwinning": 7435,
      "agger": 7436,
      "after": 7437,
      "Ġnerv": 7438,
      "Ġsport": 7439,
      "}$.": 7440,
      "Ġrecall": 7441,
      "TP": 7442,
      "Ġconfused": 7443,
      "Ġdraft": 7444,
      "anned": 7445,
      "Ġachieved": 7446,
      "izer": 7447,
      "Ġdepartment": 7448,
      "Ġpromote": 7449,
      "Ġdestruction": 7450,
      "ĠRepublicans": 7451,
      "ĠConstitution": 7452,
      "Ġadopt": 7453,
      "ĠMexico": 7454,
      "Ġlady": 7455,
      "Ġsilver": 7456,
      "Ġtears": 7457,
      "asty": 7458,
      "vy": 7459,
      "sis": 7460,
      "employ": 7461,
      "Ġignor": 7462,
      "Ġattached": 7463,
      "Ġwrites": 7464,
      "ĠÙ": 7465,
      "Ġemployee": 7466,
      "ĠLight": 7467,
      "some": 7468,
      "zer": 7469,
      "ĠThough": 7470,
      "gamma": 7471,
      "ĠProgram": 7472,
      "Look": 7473,
      "Ġwest": 7474,
      "date": 7475,
      "Ġartists": 7476,
      "comfort": 7477,
      "ami": 7478,
      "aned": 7479,
      "Ġunus": 7480,
      "ket": 7481,
      "ĠCapt": 7482,
      "bid": 7483,
      "ĠRiver": 7484,
      "Ġoverwhel": 7485,
      "vec": 7486,
      "VE": 7487,
      "Ġstrike": 7488,
      "NN": 7489,
      "Ġaccomp": 7490,
      "clusive": 7491,
      "Ġmathemat": 7492,
      "Ġrarely": 7493,
      "Ġarrange": 7494,
      "Ġampl": 7495,
      "ĠCat": 7496,
      "Ġrecognition": 7497,
      "omega": 7498,
      "Ġresist": 7499,
      "ĠExt": 7500,
      "Ġdistingu": 7501,
      "Ġdelic": 7502,
      "Ġconstraint": 7503,
      "Ġfee": 7504,
      "Ġdeeper": 7505,
      "Ġfunding": 7506,
      "Ġanger": 7507,
      "Ġbridge": 7508,
      "lamm": 7509,
      "Ġok": 7510,
      "ĠSure": 7511,
      "ĠSecret": 7512,
      "His": 7513,
      "po": 7514,
      "even": 7515,
      "Ġinvent": 7516,
      "Ġreviews": 7517,
      "xygen": 7518,
      "Ġpref": 7519,
      "lla": 7520,
      "den": 7521,
      "Î¹": 7522,
      "Wr": 7523,
      "Ġopposition": 7524,
      "ila": 7525,
      "ĠVe": 7526,
      "ĠDan": 7527,
      "ideo": 7528,
      "lessly": 7529,
      "ĠHa": 7530,
      "cop": 7531,
      "Ġwhereas": 7532,
      "Ġ->": 7533,
      "ĠKnow": 7534,
      "Ġrein": 7535,
      "cker": 7536,
      "Ġath": 7537,
      "rid": 7538,
      "low": 7539,
      "Ġflood": 7540,
      "bridge": 7541,
      "cest": 7542,
      "icking": 7543,
      "Ġuniversity": 7544,
      "Ġcrucial": 7545,
      "ĠGrand": 7546,
      "ĠSn": 7547,
      "ĠChris": 7548,
      "fit": 7549,
      "ifferent": 7550,
      "Ġformula": 7551,
      "Tuesday": 7552,
      "ĠGame": 7553,
      "isa": 7554,
      "olt": 7555,
      "Ġletting": 7556,
      "Ġmountain": 7557,
      "infty": 7558,
      "Ġprobability": 7559,
      "Ġ<<": 7560,
      "ko": 7561,
      "Ġcoal": 7562,
      "Sm": 7563,
      "Ġconfident": 7564,
      "Ġdemocracy": 7565,
      "Ġmuscles": 7566,
      "Ġapproximately": 7567,
      "Ġraw": 7568,
      "Ġduty": 7569,
      "ĠDen": 7570,
      "Ġ**": 7571,
      "Ġnine": 7572,
      "Friday": 7573,
      "istent": 7574,
      "ikipedia": 7575,
      "DE": 7576,
      "ĠNext": 7577,
      "Ġhumanity": 7578,
      "Ġaward": 7579,
      "teen": 7580,
      "Ġgenuine": 7581,
      "Ġts": 7582,
      "Ġna": 7583,
      "ÂłÂłĊ": 7584,
      "ocratic": 7585,
      "ja": 7586,
      "Ġgovernments": 7587,
      "Ġintense": 7588,
      "Ġtissue": 7589,
      "Ġdollar": 7590,
      "Ġtrained": 7591,
      "Ġinteractions": 7592,
      "Ġbattery": 7593,
      "pat": 7594,
      "Ġlisted": 7595,
      "Ġphrase": 7596,
      "Ġsole": 7597,
      "law": 7598,
      "Ġinfection": 7599,
      "Will": 7600,
      "Ġchat": 7601,
      "pled": 7602,
      "84": 7603,
      "Ġoh": 7604,
      ")(": 7605,
      "DS": 7606,
      "Ġborrow": 7607,
      "Ġagency": 7608,
      "Ġcutting": 7609,
      "Ġelev": 7610,
      "tenance": 7611,
      "Note": 7612,
      "ĠCollege": 7613,
      "orney": 7614,
      "Ġtables": 7615,
      "Ġneur": 7616,
      "Ġmood": 7617,
      "Ġsurrounding": 7618,
      "Ġhealthcare": 7619,
      "970": 7620,
      "Ġobjective": 7621,
      "Ã¤": 7622,
      "RS": 7623,
      "rive": 7624,
      "yes": 7625,
      "ĠAng": 7626,
      "Ġafternoon": 7627,
      "Ġdiscovery": 7628,
      "Ġinstrument": 7629,
      "Ġtested": 7630,
      "orse": 7631,
      "Rem": 7632,
      "Ġwise": 7633,
      "Ġimplementation": 7634,
      "Ġshoes": 7635,
      "ĠIII": 7636,
      "ĠBlog": 7637,
      "Ġangle": 7638,
      "ĠSci": 7639,
      "Ġfavour": 7640,
      "Ġassets": 7641,
      "ĉĉĉ": 7642,
      "path": 7643,
      "Ġdiam": 7644,
      "Ġprompt": 7645,
      "Ġembed": 7646,
      "Ġmetab": 7647,
      "Ġconservative": 7648,
      "Ġsurvival": 7649,
      "Ġpig": 7650,
      ")\\<": 7651,
      "ĠBoy": 7652,
      "ctrine": 7653,
      "Ġmas": 7654,
      "ĠFlorida": 7655,
      "Ġintellectual": 7656,
      "Ġ(\"": 7657,
      "nda": 7658,
      "Ġconference": 7659,
      "Ġbirds": 7660,
      "Ġpercentage": 7661,
      "Ġbutt": 7662,
      "Like": 7663,
      "ĠAfghan": 7664,
      "Ġblocks": 7665,
      "Ġnotion": 7666,
      "Ġtechnologies": 7667,
      "ĠMaster": 7668,
      "Ġtip": 7669,
      "Ġpassword": 7670,
      "ĠIT": 7671,
      "ĠProfess": 7672,
      "Ġcarrying": 7673,
      "Ġrestaurant": 7674,
      "ificial": 7675,
      "umer": 7676,
      "pers": 7677,
      "Ġbother": 7678,
      "Ġdepression": 7679,
      "ivered": 7680,
      "table": 7681,
      "scape": 7682,
      "inating": 7683,
      "Ġprosec": 7684,
      "Comp": 7685,
      "Ġcomprehens": 7686,
      "ĠEU": 7687,
      "Ġscheme": 7688,
      "Ġmovements": 7689,
      "Ġcandidates": 7690,
      "Ġles": 7691,
      "Ġmemories": 7692,
      "Ġfourth": 7693,
      "Ġelectron": 7694,
      "Ġvector": 7695,
      "Ġlit": 7696,
      "Ġfunctional": 7697,
      "Ġpropag": 7698,
      "Ġplanned": 7699,
      "parent": 7700,
      "oked": 7701,
      "Ġtongue": 7702,
      "Ġpapers": 7703,
      "ĠCounty": 7704,
      "ÂłÂłÂłÂłÂłÂłÂł": 7705,
      "Ġlunch": 7706,
      "ogether": 7707,
      "Ġregularly": 7708,
      "comes": 7709,
      "rant": 7710,
      "gel": 7711,
      "XXX": 7712,
      "icked": 7713,
      "Ġvoid": 7714,
      "emic": 7715,
      "Ġinspir": 7716,
      "Ġschedule": 7717,
      "ĠPsych": 7718,
      "Ġsli": 7719,
      "Ġtrend": 7720,
      "izz": 7721,
      "Although": 7722,
      "Thursday": 7723,
      "open": 7724,
      "Ġjack": 7725,
      "olars": 7726,
      "ali": 7727,
      "Phone": 7728,
      "quad": 7729,
      "Ġheavily": 7730,
      "Ġstored": 7731,
      "uz": 7732,
      "cho": 7733,
      "Ġrecognized": 7734,
      "Ġburning": 7735,
      "ĠReal": 7736,
      "ĠNO": 7737,
      "ults": 7738,
      "athan": 7739,
      "gments": 7740,
      "RC": 7741,
      "Ġrelief": 7742,
      "Ġpoliticians": 7743,
      "Ġmarked": 7744,
      "ushing": 7745,
      "Ġbacteria": 7746,
      "Ġrisks": 7747,
      "Ġmand": 7748,
      "ĠVict": 7749,
      "à¤¾": 7750,
      "Ġcorrectly": 7751,
      "Ġvotes": 7752,
      "Ġradiation": 7753,
      "Ġcontribute": 7754,
      "993": 7755,
      "Ġvert": 7756,
      "Ġinfrast": 7757,
      "992": 7758,
      "oured": 7759,
      "ĠChristians": 7760,
      "Ġdish": 7761,
      "ĠWord": 7762,
      "Ġcryst": 7763,
      "Ġ×": 7764,
      "chi": 7765,
      "ĠDam": 7766,
      "Ġfur": 7767,
      "Ġemergency": 7768,
      "etary": 7769,
      "Ġrefers": 7770,
      "Ġpenal": 7771,
      "umes": 7772,
      "Ġinject": 7773,
      "Ġarbit": 7774,
      "vi": 7775,
      "ports": 7776,
      "Ġ*/": 7777,
      "Ġrising": 7778,
      "Ġconsumers": 7779,
      "CD": 7780,
      "91": 7781,
      "Ġbehaviour": 7782,
      "ĠHenry": 7783,
      "ĠSpace": 7784,
      "Ġspaces": 7785,
      "ulating": 7786,
      "Ġtea": 7787,
      "sole": 7788,
      "awn": 7789,
      "Ġmurd": 7790,
      "onents": 7791,
      "ĠHT": 7792,
      "Ġdil": 7793,
      "ĠMinister": 7794,
      "Ġwarning": 7795,
      "ĠPerson": 7796,
      "Ġ$(": 7797,
      "ĠJun": 7798,
      "itative": 7799,
      "Ġbrill": 7800,
      "Ġsuperior": 7801,
      "Ġdynamic": 7802,
      "ĠCarol": 7803,
      "Ġshel": 7804,
      "cond": 7805,
      ".~\\": 7806,
      "TR": 7807,
      "bd": 7808,
      "Ġviolent": 7809,
      "Ġbeer": 7810,
      "ĠHas": 7811,
      "Ġresponses": 7812,
      "ĠWay": 7813,
      "Ġdivided": 7814,
      "earing": 7815,
      "agement": 7816,
      "BN": 7817,
      "normal": 7818,
      "Ġpersons": 7819,
      "Ġguilty": 7820,
      "Ġpit": 7821,
      "Ġupdated": 7822,
      "ĠDC": 7823,
      "viously": 7824,
      "Ġestimate": 7825,
      "Ġpermission": 7826,
      "ĠDisc": 7827,
      "Ġeggs": 7828,
      "ĠMount": 7829,
      "Ġhonor": 7830,
      "Ġshout": 7831,
      "fall": 7832,
      "None": 7833,
      "Ġproved": 7834,
      "ĠEmpire": 7835,
      "rior": 7836,
      "Ġexhaust": 7837,
      "Ġsilence": 7838,
      "Ġhal": 7839,
      "Trans": 7840,
      "Ġinev": 7841,
      "uilding": 7842,
      "ĠPolit": 7843,
      "osa": 7844,
      "Ġreduction": 7845,
      "Ġnic": 7846,
      "ersion": 7847,
      "ĠPut": 7848,
      "Ġresc": 7849,
      "itionally": 7850,
      "lled": 7851,
      "Ġcha": 7852,
      "Ġcriter": 7853,
      "Ġfriendly": 7854,
      "Ġtranslation": 7855,
      "Ġtonight": 7856,
      "Ñĥ": 7857,
      "agan": 7858,
      "ĠFil": 7859,
      "langle": 7860,
      "unning": 7861,
      "erver": 7862,
      "Ġwestern": 7863,
      "Ġparad": 7864,
      "Delta": 7865,
      "Ġsuccessfully": 7866,
      "ĠFederal": 7867,
      "Ġordinary": 7868,
      "ima": 7869,
      "Ġdonations": 7870,
      "âĢĻ,": 7871,
      "Ġrepair": 7872,
      "93": 7873,
      "ĠDown": 7874,
      "---": 7875,
      "Ġedition": 7876,
      "Ġradical": 7877,
      "Ġvessel": 7878,
      "ĠRetrieved": 7879,
      "ĠLo": 7880,
      "hus": 7881,
      "Ġdifficulty": 7882,
      "ĠNY": 7883,
      "Ġelectricity": 7884,
      "****************": 7885,
      "Ġvehicles": 7886,
      "ocolate": 7887,
      "ĠGroup": 7888,
      "Ġzone": 7889,
      "itis": 7890,
      "Ġrecovery": 7891,
      "ĠSaturday": 7892,
      "Ġlun": 7893,
      "Ġhousehold": 7894,
      "ĠChapter": 7895,
      "Ġpub": 7896,
      "Ġcapture": 7897,
      "Ġcomplain": 7898,
      "Ġparallel": 7899,
      "user": 7900,
      "Ġgang": 7901,
      "weight": 7902,
      "ĠPlay": 7903,
      "nergy": 7904,
      "Ġconfirm": 7905,
      "Ġsignals": 7906,
      "Ġvictory": 7907,
      "American": 7908,
      "ĠShould": 7909,
      "Ġdoors": 7910,
      "kind": 7911,
      "mann": 7912,
      "cerning": 7913,
      "ĠLouis": 7914,
      "Ġunderlying": 7915,
      "Ġclinical": 7916,
      "Ġprotected": 7917,
      "Ġnodded": 7918,
      "Ġinterpretation": 7919,
      "Ġlocations": 7920,
      "Ġought": 7921,
      "Ġinhib": 7922,
      "76": 7923,
      "oty": 7924,
      "ĠMu": 7925,
      "Ġdepos": 7926,
      "ĠWithout": 7927,
      "Ġrapidly": 7928,
      "ĠSet": 7929,
      "ials": 7930,
      "ĠSupreme": 7931,
      "ifted": 7932,
      "ĠDar": 7933,
      "ĠAh": 7934,
      "Ġfiction": 7935,
      "ĠJones": 7936,
      "jpg": 7937,
      "cline": 7938,
      "esis": 7939,
      "ĠRon": 7940,
      "Ġoperate": 7941,
      "ira": 7942,
      "Ġorient": 7943,
      "Ġwanting": 7944,
      "astern": 7945,
      "FL": 7946,
      "Ġsteel": 7947,
      "Ġpanel": 7948,
      "Ġincredibly": 7949,
      "Ġannual": 7950,
      "Ġneighborhood": 7951,
      "Ġwidth": 7952,
      "Ġsettings": 7953,
      "icy": 7954,
      "Ġengineering": 7955,
      "Ġrevenue": 7956,
      "Ġtalks": 7957,
      "Ġspir": 7958,
      "%.": 7959,
      "Ġnearby": 7960,
      "ourse": 7961,
      "lie": 7962,
      "Ġsubjects": 7963,
      "991": 7964,
      "Ġbranch": 7965,
      "ĠTable": 7966,
      "rated": 7967,
      "Ġinstructions": 7968,
      "Ġcontrols": 7969,
      "ĠÂ£": 7970,
      "Ġmagnetic": 7971,
      "Ġcontrovers": 7972,
      "Ġexpansion": 7973,
      "Ġlucky": 7974,
      "ĠLatin": 7975,
      "81": 7976,
      "prise": 7977,
      "Ġwid": 7978,
      "Ġcurious": 7979,
      "Ġyours": 7980,
      "Ġbottle": 7981,
      "Ġparticles": 7982,
      "ĠMur": 7983,
      "Ġdescribes": 7984,
      "Ġmenu": 7985,
      "emporary": 7986,
      "Ġrepresented": 7987,
      "Ġnarrative": 7988,
      "ĠPot": 7989,
      "ĠIsland": 7990,
      "ĠAssociation": 7991,
      "Ġtheoret": 7992,
      "Ġcarrier": 7993,
      "Ġconnections": 7994,
      "hfil": 7995,
      "ĠKim": 7996,
      "Ġpushing": 7997,
      "\",\"": 7998,
      "Ġfluid": 7999,
      "vo": 8000,
      "OK": 8001,
      "gressive": 8002,
      "string": 8003,
      "Ġlaun": 8004,
      "his": 8005,
      "ĠFed": 8006,
      "Ġlesson": 8007,
      "Ġchicken": 8008,
      "AY": 8009,
      "iah": 8010,
      "Ġmit": 8011,
      "Ġcontinuous": 8012,
      "Ġalter": 8013,
      "Ġoccas": 8014,
      "gage": 8015,
      "sem": 8016,
      "Ġpipe": 8017,
      "Ġthorough": 8018,
      "Ġinstant": 8019,
      "Ġhappiness": 8020,
      "Ġcuts": 8021,
      "Ġoxygen": 8022,
      "Ġclock": 8023,
      "Ġurban": 8024,
      "Ġsword": 8025,
      "yles": 8026,
      "Ġelected": 8027,
      "Ġfrustr": 8028,
      "Ġloop": 8029,
      "Ġdiscipl": 8030,
      "Ġproven": 8031,
      "ront": 8032,
      "yal": 8033,
      "ĠPop": 8034,
      "ĠEp": 8035,
      "anes": 8036,
      "Ġhence": 8037,
      "Ġauthorities": 8038,
      "erman": 8039,
      "urse": 8040,
      "PL": 8041,
      "Ġreceiving": 8042,
      "Ġorganized": 8043,
      "estyle": 8044,
      "Ġdrawing": 8045,
      "Ġgre": 8046,
      "Ġgreatly": 8047,
      "organ": 8048,
      "Ġpayments": 8049,
      "ĠStand": 8050,
      "Ġpul": 8051,
      "Big": 8052,
      "Ġappeal": 8053,
      "Che": 8054,
      "elly": 8055,
      "Ġchamp": 8056,
      "Ġfees": 8057,
      "Ġawareness": 8058,
      "ĠMic": 8059,
      "boy": 8060,
      "ĠExper": 8061,
      "Ġpron": 8062,
      "asts": 8063,
      "Ġhorm": 8064,
      "Ġreducing": 8065,
      "ĠTO": 8066,
      "82": 8067,
      "Ġassumed": 8068,
      "Ġestimated": 8069,
      "Ġutter": 8070,
      "Ġeast": 8071,
      "ĠMont": 8072,
      "83": 8073,
      "ĠSoviet": 8074,
      "gence": 8075,
      "inction": 8076,
      "index": 8077,
      "when": 8078,
      "Ġsurf": 8079,
      "ifer": 8080,
      "Ġhypothes": 8081,
      "Ġinstitution": 8082,
      "Ġanybody": 8083,
      "Ġdying": 8084,
      "ĠMuslims": 8085,
      "Ġenable": 8086,
      "Ġvoters": 8087,
      "Ġinfrastructure": 8088,
      "flow": 8089,
      "Ġprev": 8090,
      "Ġtur": 8091,
      "ĠKh": 8092,
      "Ġhotel": 8093,
      "Ġretire": 8094,
      "Ġunex": 8095,
      "Ġconducted": 8096,
      "022": 8097,
      "iac": 8098,
      "Ġtech": 8099,
      "Ġtrading": 8100,
      "amber": 8101,
      "Ġadds": 8102,
      "UL": 8103,
      "eek": 8104,
      "ifier": 8105,
      "ĠRay": 8106,
      "ĠOx": 8107,
      "Ġextension": 8108,
      "Ġdedicated": 8109,
      "aka": 8110,
      "ĠOS": 8111,
      "Ġproteins": 8112,
      "Ġapps": 8113,
      "Ġminim": 8114,
      "Ġcurrency": 8115,
      "ĠVirgin": 8116,
      "Ġears": 8117,
      "ensus": 8118,
      "archy": 8119,
      "AB": 8120,
      "ĠLab": 8121,
      "rypt": 8122,
      "Ġinformed": 8123,
      "Ġdelivery": 8124,
      "Ġtopics": 8125,
      "Ġvital": 8126,
      "ĠLand": 8127,
      "including": 8128,
      "Ġtrigger": 8129,
      "pan": 8130,
      "don": 8131,
      "Three": 8132,
      "Def": 8133,
      "Figure": 8134,
      "CS": 8135,
      "uma": 8136,
      "fs": 8137,
      "pered": 8138,
      "Ġreferences": 8139,
      "Ġinspired": 8140,
      "Ġdoi": 8141,
      "Ġstatic": 8142,
      "Ġrely": 8143,
      "ĠDeath": 8144,
      "Ġdamn": 8145,
      "Ãł": 8146,
      "Îµ": 8147,
      "GB": 8148,
      "Time": 8149,
      "group": 8150,
      "ĠOR": 8151,
      "aus": 8152,
      "Ġcogn": 8153,
      "ĠHard": 8154,
      "Ġexciting": 8155,
      "brid": 8156,
      "only": 8157,
      "ĠNaz": 8158,
      "Ġdimension": 8159,
      "ĠPo": 8160,
      "Connect": 8161,
      "Ġham": 8162,
      "CT": 8163,
      "Ġinvolving": 8164,
      "?!": 8165,
      "Ġfemin": 8166,
      "Ġingredients": 8167,
      "max": 8168,
      "ernel": 8169,
      "Ġdont": 8170,
      "mond": 8171,
      "ultane": 8172,
      "Comm": 8173,
      "azz": 8174,
      "ocument": 8175,
      "Ġapartment": 8176,
      "Ġconcentration": 8177,
      "Ġuniversal": 8178,
      "Ġobservations": 8179,
      "^\\": 8180,
      "ĠTem": 8181,
      "through": 8182,
      "ĠPalest": 8183,
      "ĠEs": 8184,
      "HT": 8185,
      "cia": 8186,
      "return": 8187,
      "ĠAdam": 8188,
      "ĠJac": 8189,
      "ï¼Į": 8190,
      "such": 8191,
      "ĠNorm": 8192,
      "Ġfed": 8193,
      "ĠComment": 8194,
      "ĠDespite": 8195,
      "According": 8196,
      "ĠIslamic": 8197,
      "ĠCamp": 8198,
      "ĠLic": 8199,
      "aste": 8200,
      "utter": 8201,
      "Ġalgebra": 8202,
      "Ġinstalled": 8203,
      "Ġcompens": 8204,
      "ĠHim": 8205,
      "Ġnervous": 8206,
      "Ġbreaks": 8207,
      "ĠCanadian": 8208,
      "Ġfo": 8209,
      "Ġrepeat": 8210,
      "Ġorganic": 8211,
      "Ġmixt": 8212,
      "ĠBeing": 8213,
      "Ġmusical": 8214,
      ".\\": 8215,
      "960": 8216,
      "rick": 8217,
      "ĠItalian": 8218,
      "ĠThree": 8219,
      "ĠPen": 8220,
      "Ġassistance": 8221,
      "omed": 8222,
      "ĠChange": 8223,
      "plicity": 8224,
      "ultural": 8225,
      "Ġassault": 8226,
      "}[": 8227,
      "Ġnode": 8228,
      "Ġshr": 8229,
      "sue": 8230,
      "ĠHon": 8231,
      "Ġloyal": 8232,
      "Ġrefused": 8233,
      "has": 8234,
      "Ġpassage": 8235,
      "ĠSenate": 8236,
      "Ġacademic": 8237,
      "FF": 8238,
      "ĠPan": 8239,
      "Ġnull": 8240,
      "theless": 8241,
      "Ġships": 8242,
      "Ġderived": 8243,
      "Ġbiological": 8244,
      "ĠGM": 8245,
      "eqref": 8246,
      "Ġá": 8247,
      "Ġwisdom": 8248,
      "vs": 8249,
      "bbed": 8250,
      "anwhile": 8251,
      "ĠDig": 8252,
      "Ġinsert": 8253,
      "Ġopinions": 8254,
      "Ġpursu": 8255,
      "Ġprotocol": 8256,
      "Ġdesired": 8257,
      "arrass": 8258,
      "ĠVis": 8259,
      "ĠON": 8260,
      "ĠDemocratic": 8261,
      "agues": 8262,
      "ailed": 8263,
      "Ġgeomet": 8264,
      "ĠVan": 8265,
      "ĠHope": 8266,
      "ALL": 8267,
      "Ġthy": 8268,
      "Ġjoke": 8269,
      "UD": 8270,
      "ĠMR": 8271,
      "Ġlists": 8272,
      "ione": 8273,
      "ĠPS": 8274,
      "Ġtwe": 8275,
      "Ġhits": 8276,
      "Ġultimate": 8277,
      "Ġusage": 8278,
      "}(\\": 8279,
      "zil": 8280,
      "ÐµÐ": 8281,
      "ugs": 8282,
      "Ġbreathing": 8283,
      "Ġlets": 8284,
      "DR": 8285,
      "ĠPers": 8286,
      "Ġsurely": 8287,
      "ati": 8288,
      "Ġsorts": 8289,
      "Ġantib": 8290,
      "abil": 8291,
      "Ġrhy": 8292,
      "ĠZh": 8293,
      "ĠRand": 8294,
      "Ġox": 8295,
      "rets": 8296,
      "utch": 8297,
      "ĠArchive": 8298,
      "Ġsenior": 8299,
      "cap": 8300,
      "ĠĠĠĠĠĠĠĠĠĠĠĠĠĠ": 8301,
      "CL": 8302,
      "star": 8303,
      "obby": 8304,
      "ĠOrgan": 8305,
      "Ġconsists": 8306,
      "ĠGar": 8307,
      "Ġinitially": 8308,
      "Ġcig": 8309,
      "ĠComput": 8310,
      "Ġscrew": 8311,
      "istical": 8312,
      "Pre": 8313,
      "Ġdear": 8314,
      "Eng": 8315,
      "sell": 8316,
      "Ġparticipants": 8317,
      "Ġeveryday": 8318,
      "Ġpuzz": 8319,
      "Ġhousing": 8320,
      "PR": 8321,
      "ĠEduc": 8322,
      "Ġadj": 8323,
      "Ġsupports": 8324,
      "Ġestate": 8325,
      "ollywood": 8326,
      "Par": 8327,
      "Ġ``": 8328,
      "Ġarr": 8329,
      "ĠFour": 8330,
      "ĠName": 8331,
      "Ġsaving": 8332,
      "Ġpermanent": 8333,
      "issions": 8334,
      "Ġpharm": 8335,
      "ĠeBook": 8336,
      "ĠFar": 8337,
      "Ġproducing": 8338,
      "ðŁ": 8339,
      "ograp": 8340,
      "Ġdefect": 8341,
      "Ġelsewhere": 8342,
      "Ġroles": 8343,
      "Ġads": 8344,
      "ĠHun": 8345,
      "cs": 8346,
      "ĠMess": 8347,
      "ĠCast": 8348,
      "ĠUk": 8349,
      "ĠItaly": 8350,
      "Ġcrack": 8351,
      "Ġho": 8352,
      "iy": 8353,
      "Ġadopted": 8354,
      "Ġcommunicate": 8355,
      "plex": 8356,
      "Ġfaced": 8357,
      "grad": 8358,
      "ĠTal": 8359,
      "Ġdifferently": 8360,
      "ĠConst": 8361,
      "Ġclassical": 8362,
      "Ġconfirmed": 8363,
      "Ġconfiguration": 8364,
      "Ġshame": 8365,
      "Dis": 8366,
      "itarian": 8367,
      "Hey": 8368,
      "enger": 8369,
      "Ġbug": 8370,
      "Ġrail": 8371,
      "Ġretail": 8372,
      "Ġbub": 8373,
      "Ġsleeping": 8374,
      "Text": 8375,
      "Ġsed": 8376,
      "People": 8377,
      "~~": 8378,
      "Ġprotest": 8379,
      "Ġpod": 8380,
      "etric": 8381,
      "Ġdeclared": 8382,
      "orous": 8383,
      "Ġstruck": 8384,
      "Ġcollected": 8385,
      "eqn": 8386,
      "Ġalien": 8387,
      "ĠKeep": 8388,
      "Ġpresentation": 8389,
      "Ġcolour": 8390,
      "ÏĦ": 8391,
      "citep": 8392,
      "Ġmistakes": 8393,
      "rons": 8394,
      "version": 8395,
      "Ġ..": 8396,
      "Ġancest": 8397,
      "aret": 8398,
      "VD": 8399,
      "Ġburd": 8400,
      "Ġgate": 8401,
      "Ġchances": 8402,
      "Ġimprovement": 8403,
      "110": 8404,
      "ĠAuthor": 8405,
      "Ġpeak": 8406,
      "Ġcooking": 8407,
      "File": 8408,
      "Ġroots": 8409,
      "ĠOffice": 8410,
      "Ġiniti": 8411,
      "Ġreaching": 8412,
      "Ġpounds": 8413,
      "ĠEqu": 8414,
      "ĠFood": 8415,
      "ĠFather": 8416,
      "Before": 8417,
      "Ġcontained": 8418,
      "ĠEngine": 8419,
      "ĠExpl": 8420,
      "ĠColl": 8421,
      "Ġdesert": 8422,
      "atell": 8423,
      "Ġsilent": 8424,
      "lers": 8425,
      "Ġsmoking": 8426,
      "ester": 8427,
      "Ġfought": 8428,
      "Ġshopping": 8429,
      "ĠMot": 8430,
      "Ġintroduction": 8431,
      "Ġdirected": 8432,
      "Ġloves": 8433,
      "Ġimmigr": 8434,
      "ĠNight": 8435,
      "ni": 8436,
      "ibl": 8437,
      "ĠJohnson": 8438,
      "Ġmaintenance": 8439,
      "Ġfewer": 8440,
      "aron": 8441,
      "ustration": 8442,
      "Ġmere": 8443,
      "Plus": 8444,
      "Ġtub": 8445,
      "Next": 8446,
      "ĠTry": 8447,
      "Ġloans": 8448,
      "ĠBell": 8449,
      "Ġdating": 8450,
      "Set": 8451,
      ")$.": 8452,
      "Ġupset": 8453,
      "HA": 8454,
      "hips": 8455,
      "stone": 8456,
      "Ġintelligent": 8457,
      "orses": 8458,
      "Ġgig": 8459,
      "esides": 8460,
      "Ġsched": 8461,
      "Ge": 8462,
      "ĠCell": 8463,
      "ĠTuesday": 8464,
      "Ġinvestors": 8465,
      "Ġpulling": 8466,
      "Ġdepart": 8467,
      "seless": 8468,
      "Ġbeach": 8469,
      "uf": 8470,
      "clusions": 8471,
      "Ġdivide": 8472,
      "Er": 8473,
      "aved": 8474,
      "Ġprivile": 8475,
      "ĠSS": 8476,
      "ĠViet": 8477,
      "Ġsuitable": 8478,
      "Ġbene": 8479,
      "Ġhorror": 8480,
      "Ġaccuracy": 8481,
      "Ġalarm": 8482,
      "Ġburst": 8483,
      "Ġcrimes": 8484,
      "Ġenorm": 8485,
      "Ġcenturies": 8486,
      "Ġdisorder": 8487,
      "Ġdevelopers": 8488,
      "Ġauthent": 8489,
      "Ġunlikely": 8490,
      "Ġprecisely": 8491,
      "Ġwars": 8492,
      "ĠCheck": 8493,
      "tilde": 8494,
      "ĠSoft": 8495,
      "Ġchannels": 8496,
      "Ġcheese": 8497,
      "Ġuncle": 8498,
      "Ġdrivers": 8499,
      "ĠWomen": 8500,
      "ĠRome": 8501,
      "ptic": 8502,
      "Ġdemonstrate": 8503,
      "ĠBlue": 8504,
      "Ġelections": 8505,
      "Ste": 8506,
      "Ġdelivered": 8507,
      "Ġinsight": 8508,
      "Ġrenew": 8509,
      "ashes": 8510,
      "111": 8511,
      "angler": 8512,
      "Ġbits": 8513,
      "Ġspark": 8514,
      "Ġdismiss": 8515,
      "ĠMedic": 8516,
      "thur": 8517,
      "rowing": 8518,
      "Ġconvinced": 8519,
      "ifting": 8520,
      "Ġequations": 8521,
      "CO": 8522,
      "ĠPubMed": 8523,
      "Ġperiods": 8524,
      "obile": 8525,
      "Ġreveal": 8526,
      "Ġdarkness": 8527,
      "ĠAT": 8528,
      "Ġthrown": 8529,
      "Ġfinite": 8530,
      "Ġhealing": 8531,
      "una": 8532,
      "Ġdisk": 8533,
      "ologists": 8534,
      "input": 8535,
      "Ġlaughed": 8536,
      "Ġsegment": 8537,
      "opher": 8538,
      "Ġconsideration": 8539,
      "Ġagric": 8540,
      "Ġsake": 8541,
      "Ġsymp": 8542,
      "Ùİ": 8543,
      "Ġroof": 8544,
      "ĠSP": 8545,
      "ĠMoreover": 8546,
      "Ġprofessor": 8547,
      "good": 8548,
      "ĠWars": 8549,
      "verty": 8550,
      "Ġdetection": 8551,
      "Ġseed": 8552,
      "Ġfurn": 8553,
      "Today": 8554,
      "Ġreprodu": 8555,
      "ĠYoung": 8556,
      "Ġfraction": 8557,
      "NS": 8558,
      "ĠJoseph": 8559,
      "Did": 8560,
      "Ġrum": 8561,
      "Ġcopies": 8562,
      "ĠTurn": 8563,
      "Ġabsence": 8564,
      "Ġthroat": 8565,
      "Ġclothing": 8566,
      "scale": 8567,
      "rics": 8568,
      "Ġbatt": 8569,
      "Ġmyster": 8570,
      "Ġnurs": 8571,
      "dy": 8572,
      "Ġpoverty": 8573,
      "Sunday": 8574,
      "Ġcontrad": 8575,
      "Ġexceed": 8576,
      "Ġcategories": 8577,
      "Ġconcerning": 8578,
      "Ġstayed": 8579,
      "ĠEth": 8580,
      "ÙĨ": 8581,
      "989": 8582,
      "Ġfoundation": 8583,
      "Ġfindings": 8584,
      "ĠYear": 8585,
      "ĠCreat": 8586,
      "Ġserving": 8587,
      "cules": 8588,
      "Ġages": 8589,
      "Psi": 8590,
      "ĠRam": 8591,
      "ifice": 8592,
      "bow": 8593,
      "Ġmechanisms": 8594,
      "Ġspat": 8595,
      "uing": 8596,
      "UM": 8597,
      "Ġbinary": 8598,
      "Ġintr": 8599,
      "Ġdemonstrated": 8600,
      "eling": 8601,
      "Ġoperator": 8602,
      "Ġperforming": 8603,
      "Ġversus": 8604,
      "Ġlogical": 8605,
      "Ġfake": 8606,
      "Ġgalaxy": 8607,
      "ureau": 8608,
      "Ġunusual": 8609,
      "Ġowned": 8610,
      "color": 8611,
      "Ġtracks": 8612,
      "Ġincredible": 8613,
      "ĠCommission": 8614,
      "ĠHi": 8615,
      "ader": 8616,
      "ĠCompany": 8617,
      "Ġconfront": 8618,
      "idelines": 8619,
      "Su": 8620,
      "live": 8621,
      "301": 8622,
      "Related": 8623,
      "dimensional": 8624,
      "Ġaccompan": 8625,
      "Ġcats": 8626,
      "num": 8627,
      "ĠDO": 8628,
      "Ġindicates": 8629,
      "Ġobservation": 8630,
      "!!!!": 8631,
      "ĠThink": 8632,
      "Ġcovers": 8633,
      "will": 8634,
      "Ġdelight": 8635,
      "Inst": 8636,
      "ĠCare": 8637,
      "Cons": 8638,
      "ĠFurthermore": 8639,
      "Ġscholars": 8640,
      "ĠCaptain": 8641,
      "Ġmirror": 8642,
      "ĠTrue": 8643,
      ")=": 8644,
      "Ġarmed": 8645,
      "mers": 8646,
      "Ġprohib": 8647,
      "ĠFred": 8648,
      "rug": 8649,
      "Ġshadow": 8650,
      "ĠDaniel": 8651,
      "Ġcomprom": 8652,
      "Ġguitar": 8653,
      "Ġfet": 8654,
      "Ġinflation": 8655,
      "Ġdemands": 8656,
      "Ġreliable": 8657,
      "Ġcrash": 8658,
      "iser": 8659,
      "Ġassessment": 8660,
      "Ġcreatures": 8661,
      "effect": 8662,
      "Ġbirthday": 8663,
      "otype": 8664,
      "Ġmemor": 8665,
      "Ġfraud": 8666,
      "endment": 8667,
      "Ġscan": 8668,
      "Ġbrothers": 8669,
      "Ġadministr": 8670,
      "Ġmild": 8671,
      "Ġadmitted": 8672,
      "Ġgods": 8673,
      "Ġchecked": 8674,
      "Ġrecover": 8675,
      "Ġvoting": 8676,
      "atively": 8677,
      "Ġgranted": 8678,
      "oston": 8679,
      "ĠAR": 8680,
      "cut": 8681,
      "Ġhes": 8682,
      "Ġchallenging": 8683,
      "Image": 8684,
      "Ġsubstance": 8685,
      "Ġdependent": 8686,
      "Ġchildhood": 8687,
      "Ġphysically": 8688,
      "ĠBusiness": 8689,
      "Ġpoison": 8690,
      "Ġdeliber": 8691,
      "Ġsearching": 8692,
      "rition": 8693,
      "Ġconce": 8694,
      "ĠMom": 8695,
      "Ġcurve": 8696,
      "Finally": 8697,
      "Ġscar": 8698,
      "Ġsimultane": 8699,
      "throp": 8700,
      "tab": 8701,
      "got": 8702,
      "oded": 8703,
      "Ġcontribution": 8704,
      "Ġgenerations": 8705,
      "Ġheaded": 8706,
      "const": 8707,
      "Ġforgotten": 8708,
      "Ġmodule": 8709,
      "ĠVery": 8710,
      "ictionary": 8711,
      "Ġtemperatures": 8712,
      "TION": 8713,
      "Tube": 8714,
      "Ġexpectations": 8715,
      "ĠNothing": 8716,
      "ĠCorpor": 8717,
      "Ġspecified": 8718,
      "ĠCA": 8719,
      "Ġstability": 8720,
      "ĠiPhone": 8721,
      "âĢ¦âĢ¦": 8722,
      "Ġaccum": 8723,
      "lected": 8724,
      "Ġengaged": 8725,
      "Ġcounsel": 8726,
      "Take": 8727,
      "Ġquery": 8728,
      "Ġchart": 8729,
      "Ġstreaming": 8730,
      "Ġembarrass": 8731,
      "Gu": 8732,
      "Act": 8733,
      "gly": 8734,
      "180": 8735,
      "Ġhint": 8736,
      "Ġfallen": 8737,
      "ĠMach": 8738,
      "Ġpregnant": 8739,
      "Ġgrid": 8740,
      "ĠSign": 8741,
      "ĠRemember": 8742,
      "ĠKn": 8743,
      "Two": 8744,
      "Inter": 8745,
      "Ġwing": 8746,
      "onder": 8747,
      "lli": 8748,
      "Ke": 8749,
      "Ġcollapse": 8750,
      "Ġanticip": 8751,
      "ĠSea": 8752,
      "MC": 8753,
      "Ġsecondary": 8754,
      "Ġ::": 8755,
      "Ġ''": 8756,
      "aping": 8757,
      "ragon": 8758,
      "Ġaircraft": 8759,
      "Ġtack": 8760,
      "Ġarbitr": 8761,
      "orce": 8762,
      "ĠCivil": 8763,
      "Ġimplemented": 8764,
      "ĠAcadem": 8765,
      "osc": 8766,
      "ĠIndeed": 8767,
      "978": 8768,
      "may": 8769,
      "goals": 8770,
      "wed": 8771,
      "aylor": 8772,
      "Ġhanging": 8773,
      "ĠEveryone": 8774,
      "Ġtrem": 8775,
      "ĠLinux": 8776,
      "arg": 8777,
      "angleright": 8778,
      "Ġlawyer": 8779,
      "triangleright": 8780,
      "ĠWH": 8781,
      "ouble": 8782,
      "Ġassumption": 8783,
      "ĠShow": 8784,
      "ĠKen": 8785,
      "Ġjudgment": 8786,
      "ĠReport": 8787,
      "Ġsections": 8788,
      "Ø±": 8789,
      "Ġlegislation": 8790,
      "ĠÂłĠ": 8791,
      "Ġadvertising": 8792,
      "Ġconcrete": 8793,
      "Ġgained": 8794,
      "Ġbeneath": 8795,
      "erior": 8796,
      "ĠLittle": 8797,
      "Ġdiabetes": 8798,
      "ĠHand": 8799,
      "Have": 8800,
      "Ġ($": 8801,
      "param": 8802,
      "ĠPac": 8803,
      "father": 8804,
      "Ġdivision": 8805,
      "making": 8806,
      "ĠFA": 8807,
      "occ": 8808,
      "ĠSep": 8809,
      "isp": 8810,
      "Ġquit": 8811,
      "ĠNE": 8812,
      "ĠThursday": 8813,
      "Ġinnocent": 8814,
      "ĠSyria": 8815,
      "Ġlessons": 8816,
      "Ġpregnancy": 8817,
      "igan": 8818,
      "ĠThrough": 8819,
      "Ġstudying": 8820,
      "\";": 8821,
      "link": 8822,
      "ĠHaving": 8823,
      "Ġroughly": 8824,
      "ĠEss": 8825,
      "Ġdrunk": 8826,
      "ĠCall": 8827,
      "Ġabstract": 8828,
      "oga": 8829,
      "ĠDevelopment": 8830,
      "Ġfigured": 8831,
      "olicy": 8832,
      "Ġdiagram": 8833,
      "Ġdeaths": 8834,
      "ĠForce": 8835,
      "Ġshots": 8836,
      "ĠAst": 8837,
      "Ġspoken": 8838,
      "ĠKingdom": 8839,
      "ĠMusic": 8840,
      "çļ": 8841,
      "Omega": 8842,
      "plus": 8843,
      "Ġbike": 8844,
      "eren": 8845,
      "Ġovercome": 8846,
      "essions": 8847,
      "ĠWalk": 8848,
      "Ġemployment": 8849,
      "Ġencounter": 8850,
      "ocy": 8851,
      "pop": 8852,
      "ften": 8853,
      "Ġterritory": 8854,
      "Ġdecrease": 8855,
      "ĠPakistan": 8856,
      "Ġconventional": 8857,
      "Ġmanifest": 8858,
      "Ġflour": 8859,
      "ĠMatt": 8860,
      "Ġdisagree": 8861,
      "Ġfert": 8862,
      "Ġstages": 8863,
      "jo": 8864,
      "ĠJustice": 8865,
      "Ġalleged": 8866,
      "Ġcried": 8867,
      "irk": 8868,
      "Ġstatistics": 8869,
      ".}": 8870,
      "Ġinqu": 8871,
      "Ġagencies": 8872,
      "depend": 8873,
      "Ġlegisl": 8874,
      "Step": 8875,
      "Ġsau": 8876,
      "ĠAL": 8877,
      "Reg": 8878,
      "egr": 8879,
      "Ġmeasurements": 8880,
      "bably": 8881,
      "Does": 8882,
      "Ġprivacy": 8883,
      "Ġroyal": 8884,
      "Ġassociation": 8885,
      "Christ": 8886,
      "fol": 8887,
      "itudes": 8888,
      "partial": 8889,
      "Ġdecline": 8890,
      "tion": 8891,
      "ĠMult": 8892,
      "afe": 8893,
      "Ġimmun": 8894,
      "Ġtargets": 8895,
      "Ġsurve": 8896,
      "çļĦ": 8897,
      "Ġfired": 8898,
      "Ġgrant": 8899,
      "Ġdies": 8900,
      "Ġcalculated": 8901,
      "ĠCould": 8902,
      "Ġabilities": 8903,
      "iture": 8904,
      "ĠNon": 8905,
      "Ġtied": 8906,
      "Ġphenomenon": 8907,
      "awa": 8908,
      "ĠQueen": 8909,
      "Ġinterf": 8910,
      "ĠDesign": 8911,
      "Ġsuffered": 8912,
      "Ġrecording": 8913,
      "ĠMA": 8914,
      "pc": 8915,
      "Ġ>>": 8916,
      "Ġcaptured": 8917,
      "ieve": 8918,
      "ĠNat": 8919,
      "Net": 8920,
      "dec": 8921,
      ")^": 8922,
      "scill": 8923,
      "Ġobst": 8924,
      "Ġfru": 8925,
      "ĠAndrew": 8926,
      "Ġmetaph": 8927,
      "Ġpocket": 8928,
      "Ġenthus": 8929,
      "Ġreporting": 8930,
      "God": 8931,
      "moves": 8932,
      "yers": 8933,
      "Ġwedding": 8934,
      "Ġreplacement": 8935,
      "pload": 8936,
      "String": 8937,
      "Ġignored": 8938,
      "Ġadventure": 8939,
      "Ġethnic": 8940,
      "Ġcoc": 8941,
      "Ġsuspic": 8942,
      "ĠAge": 8943,
      "Ġrice": 8944,
      "ĠStart": 8945,
      "Ġstops": 8946,
      "\"\"": 8947,
      "Ġimpression": 8948,
      "Ġholes": 8949,
      "Ġren": 8950,
      "Ġminimal": 8951,
      "aki": 8952,
      "about": 8953,
      "itty": 8954,
      "inging": 8955,
      "Ġpitch": 8956,
      "ĠColor": 8957,
      "CP": 8958,
      "ĠCub": 8959,
      "ĠRevolution": 8960,
      "ĠFact": 8961,
      "Ġghost": 8962,
      "Ġinher": 8963,
      "ĠCross": 8964,
      "Ġfabric": 8965,
      "Ġdescend": 8966,
      "Ġadequ": 8967,
      "ouch": 8968,
      "bin": 8969,
      "Ġconfusion": 8970,
      "Ġminister": 8971,
      "}}\\": 8972,
      "prot": 8973,
      "Ġdynamics": 8974,
      "Ġentit": 8975,
      "Ġshower": 8976,
      "Ġremembered": 8977,
      "Ġpace": 8978,
      "ĠST": 8979,
      "988": 8980,
      "Ġknock": 8981,
      "encing": 8982,
      "Ġsubsequent": 8983,
      "ĠAfghanistan": 8984,
      "Ġdisaster": 8985,
      "iana": 8986,
      "away": 8987,
      "Ġimplies": 8988,
      "coin": 8989,
      "Ġintroduce": 8990,
      "Ġshares": 8991,
      "eras": 8992,
      "words": 8993,
      "Ġperception": 8994,
      "bet": 8995,
      "mem": 8996,
      "ilst": 8997,
      "Ġkeys": 8998,
      "Ġridiculous": 8999,
      "Ġgrin": 9000,
      "Which": 9001,
      "fire": 9002,
      "riers": 9003,
      "////": 9004,
      "ĠBern": 9005,
      "west": 9006,
      "natural": 9007,
      "olving": 9008,
      "ĠWednesday": 9009,
      "Ġpsychological": 9010,
      "cycl": 9011,
      "Ġsought": 9012,
      "ĠView": 9013,
      "assion": 9014,
      "omatic": 9015,
      "ĠControl": 9016,
      "Ġderiv": 9017,
      "itivity": 9018,
      "Ġsheet": 9019,
      "700": 9020,
      "Ġexcuse": 9021,
      "Ġtalent": 9022,
      "bled": 9023,
      "init": 9024,
      "ui": 9025,
      "sqrt": 9026,
      "Ġexperimental": 9027,
      "Ġtoxic": 9028,
      "Ġcycl": 9029,
      "Ġwebsites": 9030,
      "]:": 9031,
      "Ġsettled": 9032,
      "Ġlapt": 9033,
      "Ġworship": 9034,
      "Ġcontributions": 9035,
      "Ġsymm": 9036,
      "Ġcompetitive": 9037,
      "oval": 9038,
      "worth": 9039,
      "Ġneutral": 9040,
      "Ġmystery": 9041,
      "ethe": 9042,
      "|\\": 9043,
      "ĠBad": 9044,
      "itual": 9045,
      "ĠSon": 9046,
      "redit": 9047,
      "Ġactors": 9048,
      "ĠScot": 9049,
      "Ġhttps": 9050,
      "Ġextensive": 9051,
      "athered": 9052,
      "ĠâĪĴ": 9053,
      "Ġbrowser": 9054,
      "abeth": 9055,
      "ĠLead": 9056,
      "Ġlocked": 9057,
      "ements": 9058,
      "lyn": 9059,
      "raine": 9060,
      "Ġsupplement": 9061,
      "acles": 9062,
      "Ġje": 9063,
      "mind": 9064,
      "Ġbeside": 9065,
      "Ġreplic": 9066,
      "Ġprocedures": 9067,
      "di": 9068,
      ",,": 9069,
      "Ġloving": 9070,
      "Ġpreced": 9071,
      "Ġgear": 9072,
      "FT": 9073,
      "Ġstk": 9074,
      "Ġcommittee": 9075,
      "geon": 9076,
      "ĠSqu": 9077,
      "ĠNature": 9078,
      "Ġshoulders": 9079,
      "ESS": 9080,
      "Ġmanual": 9081,
      "olves": 9082,
      "ĠType": 9083,
      "because": 9084,
      "being": 9085,
      "Tra": 9086,
      "omer": 9087,
      "Mon": 9088,
      "Her": 9089,
      "ĠGiven": 9090,
      "Ġgravity": 9091,
      "ĠEnter": 9092,
      "Ġconqu": 9093,
      "ĠLy": 9094,
      "Ġcultures": 9095,
      "Ġdefeat": 9096,
      "Ġraising": 9097,
      "%,": 9098,
      "Ġemployed": 9099,
      "Ġguarantee": 9100,
      "Ġflesh": 9101,
      "Ġbin": 9102,
      "ĠNob": 9103,
      "Ġcum": 9104,
      "ĠKat": 9105,
      "Ġlifestyle": 9106,
      "Ġscal": 9107,
      "ĠConf": 9108,
      "Ġchocolate": 9109,
      "Ġacknowled": 9110,
      "count": 9111,
      "Ġaffects": 9112,
      "Ġgrate": 9113,
      "emph": 9114,
      "necess": 9115,
      "Ġphones": 9116,
      "wa": 9117,
      "Ġcreature": 9118,
      "Ġregister": 9119,
      "ĠRights": 9120,
      "osexual": 9121,
      "cip": 9122,
      "thew": 9123,
      "aire": 9124,
      "Ġcable": 9125,
      "Ġissued": 9126,
      "umbled": 9127,
      "Ġaccused": 9128,
      "Ret": 9129,
      "Ġarrested": 9130,
      "ĠTri": 9131,
      "Ġfib": 9132,
      "Ġmodified": 9133,
      "Ġmouse": 9134,
      "ĠHoly": 9135,
      "ĠRod": 9136,
      "elve": 9137,
      "900": 9138,
      "Ġentr": 9139,
      "Ġcriteria": 9140,
      "Ġ${\\": 9141,
      "Ġtab": 9142,
      "._": 9143,
      "Ġfacilit": 9144,
      "ĠCra": 9145,
      "Ġparticipate": 9146,
      "osph": 9147,
      "Ġchronic": 9148,
      "Saturday": 9149,
      "ĠHit": 9150,
      "Ġgolden": 9151,
      "Facebook": 9152,
      "achel": 9153,
      "Ġshield": 9154,
      "Ġbills": 9155,
      "Ġtape": 9156,
      "Ġbones": 9157,
      "ĠCur": 9158,
      "hal": 9159,
      "Ġattacked": 9160,
      "Ġcompe": 9161,
      "ĠIre": 9162,
      "Ġapproved": 9163,
      "Ġpainting": 9164,
      "Ag": 9165,
      "Ġstimul": 9166,
      "acks": 9167,
      "Ġhorrible": 9168,
      "ĠMah": 9169,
      "Ġunemploy": 9170,
      "Ġchecking": 9171,
      "bell": 9172,
      "Ġcorrupt": 9173,
      "Ġsemi": 9174,
      "Ġfate": 9175,
      "ĠStory": 9176,
      "Ġsne": 9177,
      "HP": 9178,
      "Ġdrives": 9179,
      "ĠLos": 9180,
      "ibrary": 9181,
      "quo": 9182,
      "Ġannounce": 9183,
      "--------------------------------": 9184,
      "ĠMP": 9185,
      "ĠProfessor": 9186,
      "ĠAri": 9187,
      "Ġhopes": 9188,
      "amps": 9189,
      "hesis": 9190,
      "Ġreputation": 9191,
      "Ġaddressed": 9192,
      "Ġcleaning": 9193,
      "ĠChem": 9194,
      "Ġscope": 9195,
      "Ġsubgoals": 9196,
      "Ġalign": 9197,
      "elle": 9198,
      "imer": 9199,
      "Ġoccasionally": 9200,
      "tic": 9201,
      "ĠTony": 9202,
      "wind": 9203,
      ".:": 9204,
      "Ġmagazine": 9205,
      "Ġsrc": 9206,
      "Ġprospect": 9207,
      "Ġarrive": 9208,
      "ÏĤ": 9209,
      "ndrome": 9210,
      "Ġrefuge": 9211,
      "pie": 9212,
      "Ġlect": 9213,
      "oz": 9214,
      "]]": 9215,
      "VID": 9216,
      "Ġthrew": 9217,
      "ilton": 9218,
      "Ġcoach": 9219,
      "subset": 9220,
      "FI": 9221,
      "Ġsir": 9222,
      "script": 9223,
      "FC": 9224,
      "à¥į": 9225,
      "ĠSpecial": 9226,
      "Ġpromised": 9227,
      "Ġelectrical": 9228,
      "ĠSpirit": 9229,
      "png": 9230,
      "core": 9231,
      "imm": 9232,
      "pos": 9233,
      "Ġbasket": 9234,
      "evin": 9235,
      "Ġoutcomes": 9236,
      "ĠOper": 9237,
      "Ġys": 9238,
      "Ġwondered": 9239,
      "ĠRoyal": 9240,
      "ĠVictor": 9241,
      "Ġregulation": 9242,
      "Ġpointing": 9243,
      "erk": 9244,
      "Ġbrilliant": 9245,
      "ĠSher": 9246,
      "Ġdeserve": 9247,
      "ĠCommittee": 9248,
      "Ġease": 9249,
      "reshold": 9250,
      "FA": 9251,
      "acher": 9252,
      "âĦ": 9253,
      "Ġconvert": 9254,
      "Ġdisturb": 9255,
      "Fl": 9256,
      "ĠMoon": 9257,
      "Ġirre": 9258,
      "Ġwarming": 9259,
      "Ġtension": 9260,
      "Ġbot": 9261,
      "Ġscared": 9262,
      "your": 9263,
      "orne": 9264,
      "ĠAnswer": 9265,
      "Ġshook": 9266,
      "ervation": 9267,
      "last": 9268,
      "hot": 9269,
      "Ġnorthern": 9270,
      "Ġsouthern": 9271,
      "imation": 9272,
      "Ġrooms": 9273,
      "Ġrecipe": 9274,
      "Ġmixture": 9275,
      "fold": 9276,
      "Ġargued": 9277,
      "Ġnewspaper": 9278,
      "Ġhoney": 9279,
      "ĠKorean": 9280,
      "Ðº": 9281,
      "Ġprofits": 9282,
      "Ġflowers": 9283,
      "ername": 9284,
      "main": 9285,
      "Ġlovely": 9286,
      "Ġentity": 9287,
      "Ġaccomplish": 9288,
      "ori": 9289,
      "ĠIV": 9290,
      "Log": 9291,
      "ĠMars": 9292,
      "Ġfir": 9293,
      "Ġproposal": 9294,
      "Ġsuicide": 9295,
      "Ġdirectory": 9296,
      "Ġweakness": 9297,
      "ĠMedia": 9298,
      "ĠčĊ": 9299,
      "lymp": 9300,
      "Ġcircuit": 9301,
      "Ġbabies": 9302,
      "Ġblast": 9303,
      "isy": 9304,
      "Ġindicated": 9305,
      "ucky": 9306,
      "Ġabund": 9307,
      "eqnarray": 9308,
      "Gl": 9309,
      "Art": 9310,
      "Ġproduces": 9311,
      "HS": 9312,
      "Ġpainful": 9313,
      "Ġforum": 9314,
      "ĠAsh": 9315,
      "Ġfest": 9316,
      "Ġfails": 9317,
      "Ġaccessible": 9318,
      "omorph": 9319,
      "Ġsinging": 9320,
      "Ġconvenient": 9321,
      "Ġchoosing": 9322,
      "ĠMember": 9323,
      "Ġshirt": 9324,
      "ĠRog": 9325,
      "atching": 9326,
      "ĠNetwork": 9327,
      "Ġpour": 9328,
      "ĠDoctor": 9329,
      "ugin": 9330,
      "Ġlift": 9331,
      "Ġadvantages": 9332,
      "}&": 9333,
      "Ġsod": 9334,
      "uum": 9335,
      "140": 9336,
      "El": 9337,
      "ĠMir": 9338,
      "ĠEffect": 9339,
      "Ġsummary": 9340,
      "ĠEst": 9341,
      "Ġreverse": 9342,
      "ĠBrazil": 9343,
[...]
