{
  "version": "1.0",
  "truncation": null,
  "padding": null,
  "added_tokens": [
    {
      "id": 50000,
      "content": "|||IP_ADDRESS|||",
      "single_word": false,
      "lstrip": false,
      "rstrip": false,
      "normalized": true,
      "special": false
    },
    {
      "id": 50001,
      "content": "<|padding|>",
      "single_word": false,
      "lstrip": false,
      "rstrip": false,
      "normalized": false,
      "special": true
    },
    {
      "id": 50002,
      "content": "|||EMAIL_ADDRESS|||",
      "single_word": false,
      "lstrip": false,
      "rstrip": false,
      "normalized": true,
      "special": false
    },
    {
      "id": 50003,
      "content": "|||PHONE_NUMBER|||",
      "single_word": false,
      "lstrip": false,
      "rstrip": false,
      "normalized": true,
      "special": false
    },
    {
      "id": 50004,
      "content": "<|endoftext|>",
      "single_word": false,
      "lstrip": false,
      "rstrip": false,
      "normalized": false,
      "special": true
    }
  ],
  "normalizer": null,
  "pre_tokenizer": {
    "type": "Sequence",
    "pretokenizers": [
      {
        "type": "Digits",
        "individual_digits": false
      },
      {
        "type": "Split",
        "pattern": {
          "Regex": "(?=(\\d{3})+(?!\\d))| ?\\p{L}+| ?[^\\s\\p{L}\\p{N}]+|\\s+(?!\\S)|\\s+"
        },
        "behavior": "Isolated",
        "invert": false
      },
      {
        "type": "ByteLevel",
        "add_prefix_space": false,
        "trim_offsets": true,
        "use_regex": false
      }
    ]
  },
  "post_processor": null,
  "decoder": null,
  "model": {
    "type": "BPE",
    "dropout": null,
    "unk_token": null,
    "continuing_subword_prefix": null,
    "end_of_word_suffix": null,
    "fuse_unk": false,
    "byte_fallback": false,
    "ignore_merges": false,
    "vocab": {
      "!": 0,
      "\"": 1,
      "#": 2,
      "$": 3,
      "%": 4,
      "&": 5,
      "'": 6,
      "(": 7,
      ")": 8,
      "*": 9,
      "+": 10,
      ",": 11,
      "-": 12,
      ".": 13,
      "/": 14,
      "0": 15,
      "1": 16,
      "2": 17,
      "3": 18,
      "4": 19,
      "5": 20,
      "6": 21,
      "7": 22,
      "8": 23,
      "9": 24,
      ":": 25,
      ";": 26,
      "<": 27,
      "=": 28,
      ">": 29,
      "?": 30,
      "@": 31,
      "A": 32,
      "B": 33,
      "C": 34,
      "D": 35,
      "E": 36,
      "F": 37,
      "G": 38,
      "H": 39,
      "I": 40,
      "J": 41,
      "K": 42,
      "L": 43,
      "M": 44,
      "N": 45,
      "O": 46,
      "P": 47,
      "Q": 48,
      "R": 49,
      "S": 50,
      "T": 51,
      "U": 52,
      "V": 53,
      "W": 54,
      "X": 55,
      "Y": 56,
      "Z": 57,
      "[": 58,
      "\\": 59,
      "]": 60,
      "^": 61,
      "_": 62,
      "`": 63,
      "a": 64,
      "b": 65,
      "c": 66,
      "d": 67,
      "e": 68,
      "f": 69,
      "g": 70,
      "h": 71,
      "i": 72,
      "j": 73,
      "k": 74,
      "l": 75,
      "m": 76,
      "n": 77,
      "o": 78,
      "p": 79,
      "q": 80,
      "r": 81,
      "s": 82,
      "t": 83,
      "u": 84,
      "v": 85,
      "w": 86,
      "x": 87,
      "y": 88,
      "z": 89,
      "{": 90,
      "|": 91,
      "}": 92,
      "~": 93,
      "\u00a1": 94,
      "\u00a2": 95,
      "\u00a3": 96,
      "\u00a4": 97,
      "\u00a5": 98,
      "\u00a6": 99,
      "\u00a7": 100,
      "\u00a8": 101,
      "\u00a9": 102,
      "\u00aa": 103,
      "\u00ab": 104,
      "\u00ac": 105,
      "\u00ae": 106,
      "\u00af": 107,
      "\u00b0": 108,
      "\u00b1": 109,
      "\u00b2": 110,
      "\u00b3": 111,
      "\u00b4": 112,
      "\u00b5": 113,
      "\u00b6": 114,
      "\u00b7": 115,
      "\u00b8": 116,
      "\u00b9": 117,
      "\u00ba": 118,
      "\u00bb": 119,
      "\u00bc": 120,
      "\u00bd": 121,
      "\u00be": 122,
      "\u00bf": 123,
      "\u00c2": 124,
      "\u00c3": 125,
      "\u00c4": 126,
      "\u00c5": 127,
      "\u00c6": 128,
      "\u00c7": 129,
      "\u00c8": 130,
      "\u00c9": 131,
      "\u00ca": 132,
      "\u00cb": 133,
      "\u00cc": 134,
      "\u00cd": 135,
      "\u00ce": 136,
      "\u00cf": 137,
      "\u00d0": 138,
      "\u00d1": 139,
      "\u00d2": 140,
      "\u00d3": 141,
      "\u00d4": 142,
      "\u00d5": 143,
      "\u00d6": 144,
      "\u00d7": 145,
      "\u00d8": 146,
      "\u00d9": 147,
      "\u00da": 148,
      "\u00db": 149,
      "\u00dc": 150,
      "\u00dd": 151,
      "\u00de": 152,
      "\u00df": 153,
      "\u00e0": 154,
      "\u00e1": 155,
      "\u00e2": 156,
      "\u00e3": 157,
      "\u00e4": 158,
      "\u00e5": 159,
      "\u00e6": 160,
      "\u00e7": 161,
      "\u00e8": 162,
      "\u00e9": 163,
      "\u00ea": 164,
      "\u00eb": 165,
      "\u00ec": 166,
      "\u00ed": 167,
      "\u00ee": 168,
      "\u00ef": 169,
      "\u00f0": 170,
      "\u00f2": 171,
      "\u00f3": 172,
      "\u00f4": 173,
      "\u0100": 174,
      "\u0101": 175,
      "\u0102": 176,
      "\u0103": 177,
      "\u0104": 178,
      "\u0105": 179,
      "\u0106": 180,
      "\u0107": 181,
      "\u0108": 182,
      "\u0109": 183,
      "\u010a": 184,
      "\u010b": 185,
      "\u010c": 186,
      "\u010d": 187,
      "\u010e": 188,
      "\u010f": 189,
      "\u0110": 190,
      "\u0111": 191,
      "\u0112": 192,
      "\u0113": 193,
      "\u0114": 194,
      "\u0115": 195,
      "\u0116": 196,
      "\u0117": 197,
      "\u0118": 198,
      "\u0119": 199,
      "\u011a": 200,
      "\u011b": 201,
      "\u011c": 202,
      "\u011d": 203,
      "\u011e": 204,
      "\u011f": 205,
      "\u0120": 206,
      "\u0121": 207,
      "\u0122": 208,
      "\u0123": 209,
      "\u0124": 210,
      "\u0125": 211,
      "\u0126": 212,
      "\u0127": 213,
      "\u0128": 214,
      "\u0129": 215,
      "\u012a": 216,
      "\u012b": 217,
      "\u012c": 218,
      "\u012d": 219,
      "\u012e": 220,
      "\u012f": 221,
      "\u0130": 222,
      "\u0131": 223,
      "\u0132": 224,
      "\u0133": 225,
      "\u0134": 226,
      "\u0135": 227,
      "\u0136": 228,
      "\u0137": 229,
      "\u0138": 230,
      "\u0139": 231,
      "\u013a": 232,
      "\u013b": 233,
      "\u013c": 234,
      "\u013d": 235,
      "\u013e": 236,
      "\u013f": 237,
      "\u0140": 238,
      "\u0141": 239,
      "\u0142": 240,
      "\u0143": 241,
      "\u0120t": 242,
      "\u0120a": 243,
      "he": 244,
      "in": 245,
      "re": 246,
      "\u0120the": 247,
      "on": 248,
      "\u0120s": 249,
      "er": 250,
      "\u0120w": 251,
      "at": 252,
      "\u0120o": 253,
      "nd": 254,
      "\u0120c": 255,
      "is": 256,
      "it": 257,
      "\u0120b": 258,
      "ou": 259,
      "en": 260,
      "es": 261,
      "ing": 262,
      "or": 263,
      "\u0120f": 264,
      "\u0120p": 265,
      "\u0120m": 266,
      "an": 267,
      "ed": 268,
      "al": 269,
      "\u0120to": 270,
      "\u0120\u0120": 271,
      "ar": 272,
      "\u0120of": 273,
      "\u0120d": 274,
      "\u0120in": 275,
      "\u0120h": 276,
      "\u0120th": 277,
      "\u0120and": 278,
      "le": 279,
      "ic": 280,
      "as": 281,
      "om": 282,
      "ion": 283,
      "\u0120l": 284,
      "\u0120n": 285,
      "ll": 286,
      "\u0120e": 287,
      "\u0120I": 288,
      "ve": 289,
      "st": 290,
      "ly": 291,
      "\u0120g": 292,
      "ot": 293,
      "ent": 294,
      "\u0120re": 295,
      "\u0120be": 296,
      "ct": 297,
      "ut": 298,
      "ro": 299,
      "\u0120y": 300,
      "\u0120is": 301,
      "et": 302,
      "\u00e2\u0122": 303,
      "\u0120that": 304,
      "ow": 305,
      "se": 306,
      "\u0120T": 307,
      "im": 308,
      "id": 309,
      "\u0120you": 310,
      "\u0120on": 311,
      "ig": 312,
      "ay": 313,
      "ad": 314,
      "\u0120u": 315,
      "ce": 316,
      "\u0120it": 317,
      "\u0120for": 318,
      "ver": 319,
      "\u0120S": 320,
      "ld": 321,
      "am": 322,
      "\u0120A": 323,
      "\u0120he": 324,
      "ur": 325,
      "\u0120st": 326,
      "ch": 327,
      "\u0120\u0120\u0120\u0120": 328,
      "\u0120wh": 329,
      "ation": 330,
      "ith": 331,
      "ir": 332,
      "\u0120as": 333,
      "il": 334,
      "\u00c2\u0142": 335,
      "\u0120an": 336,
      "\u0120we": 337,
      "ra": 338,
      "\u0120C": 339,
      "\u0120with": 340,
      "ol": 341,
      "if": 342,
      "\u0120ha": 343,
      "ke": 344,
      "\u0120(": 345,
      "ter": 346,
      "\u0120M": 347,
      "od": 348,
      "\u0120are": 349,
      "her": 350,
      "ill": 351,
      "ul": 352,
      "\u0120con": 353,
      "\u0120was": 354,
      "\u0120B": 355,
      "ht": 356,
      "ge": 357,
      "\u0120The": 358,
      "pe": 359,
      "\u0120P": 360,
      "\u0120se": 361,
      "\u0120or": 362,
      "ck": 363,
      "\u0120de": 364,
      "ri": 365,
      "ore": 366,
      "ate": 367,
      "\u0120H": 368,
      "us": 369,
      "\u0120W": 370,
      "ers": 371,
      "\u0120not": 372,
      "um": 373,
      "op": 374,
      "\u00e2\u0122\u013b": 375,
      "ess": 376,
      "th": 377,
      "\u0120com": 378,
      "ist": 379,
      "\u0120pro": 380,
      "\u0120at": 381,
      "\u0120ex": 382,
      "\u0120r": 383,
      "ab": 384,
      "ould": 385,
      "\u0120have": 386,
      "em": 387,
      "qu": 388,
      "est": 389,
      "rom": 390,
      "\u0120this": 391,
      "ant": 392,
      "ight": 393,
      "\u0120ne": 394,
      "\u0120v": 395,
      "\u0120su": 396,
      "\u0120D": 397,
      "pp": 398,
      "ain": 399,
      "\u0120do": 400,
      "un": 401,
      "os": 402,
      "\u0120sh": 403,
      "res": 404,
      "ive": 405,
      "el": 406,
      "\u0120R": 407,
      "and": 408,
      "ally": 409,
      "ust": 410,
      "\u0120al": 411,
      "ment": 412,
      "\u0120can": 413,
      "\u0120by": 414,
      "nt": 415,
      "\u0120F": 416,
      "ity": 417,
      "\u0120k": 418,
      "\u0120from": 419,
      "ome": 420,
      "\u0120ab": 421,
      "\u0120ch": 422,
      "art": 423,
      "\u0120G": 424,
      "out": 425,
      "\u0120le": 426,
      "\u0120E": 427,
      "\u0120N": 428,
      "\u0120\u00e2\u0122": 429,
      "iv": 430,
      "\u0120L": 431,
      "ies": 432,
      "\u0120they": 433,
      "ie": 434,
      "ort": 435,
      "\u0120go": 436,
      "\u0120but": 437,
      "\u0120me": 438,
      "\u0120so": 439,
      "\u0120wor": 440,
      "\u0120j": 441,
      "red": 442,
      "\u0120\"": 443,
      "all": 444,
      "\u0120all": 445,
      "..": 446,
      "\u0120whe": 447,
      "\u0120\u0120\u0120": 448,
      "pt": 449,
      "ost": 450,
      "ard": 451,
      "oug": 452,
      "ak": 453,
      "\u0120your": 454,
      "ect": 455,
      "\u0120his": 456,
      "oo": 457,
      "ure": 458,
      "\u0120int": 459,
      "\u0120O": 460,
      "00": 461,
      "ci": 462,
      "one": 463,
      "ag": 464,
      "\u0120J": 465,
      "\u0120li": 466,
      "pl": 467,
      "ast": 468,
      "ide": 469,
      "ud": 470,
      "our": 471,
      "ich": 472,
      "\u0120\u0120\u0120\u0120\u0120\u0120\u0120\u0120": 473,
      "ack": 474,
      "ine": 475,
      "ind": 476,
      "ther": 477,
      "\u0120out": 478,
      "\u0120pl": 479,
      "\u0120will": 480,
      "\u0120us": 481,
      "ous": 482,
      "ong": 483,
      "\u0120my": 484,
      "The": 485,
      "ound": 486,
      "\u0120\\": 487,
      "ame": 488,
      "\u0120tr": 489,
      "per": 490,
      "\u0120their": 491,
      "og": 492,
      "\u0120up": 493,
      "ions": 494,
      "\u0120one": 495,
      "very": 496,
      "ff": 497,
      "act": 498,
      "ac": 499,
      "\u0120has": 500,
      "\u0120about": 501,
      "au": 502,
      "age": 503,
      "ime": 504,
      "ake": 505,
      "ans": 506,
      "\u0120more": 507,
      "\u0120ar": 508,
      "\u0120Th": 509,
      "\u0120who": 510,
      "iz": 511,
      "ough": 512,
      "\u0120like": 513,
      "\u0120en": 514,
      "ook": 515,
      "\u0120im": 516,
      "ere": 517,
      "ap": 518,
      "\u0120would": 519,
      "ated": 520,
      "are": 521,
      "\u0120there": 522,
      "\u0120some": 523,
      "\u0120had": 524,
      "\u0120her": 525,
      "ite": 526,
      "\u0120kn": 527,
      "\u0120if": 528,
      "\u0120cl": 529,
      "\u0120which": 530,
      "\u0120them": 531,
      "so": 532,
      "\u0120comp": 533,
      "\u0120what": 534,
      "ub": 535,
      "\u0120ad": 536,
      "ice": 537,
      "ear": 538,
      "ue": 539,
      "\u0120-": 540,
      "\u0120other": 541,
      "\u0120man": 542,
      "\u0120pe": 543,
      "\u0120te": 544,
      "ber": 545,
      "able": 546,
      "ical": 547,
      "\u0120were": 548,
      "\u0120U": 549,
      "ink": 550,
      "ven": 551,
      "\u0120any": 552,
      "\u0120un": 553,
      "\u0120cont": 554,
      "ep": 555,
      "\u0120fe": 556,
      "\u00c2\u0142\u00c2\u0142": 557,
      "\u0120Y": 558,
      "\u0120qu": 559,
      "cc": 560,
      "\u00e2\u0122\u013f": 561,
      "ble": 562,
      "\u0120get": 563,
      "ult": 564,
      "\u0120sa": 565,
      "orm": 566,
      "\u0120It": 567,
      "\u0120when": 568,
      "ry": 569,
      "ass": 570,
      "\u0120bec": 571,
      "ose": 572,
      "ople": 573,
      "\u0120just": 574,
      "ence": 575,
      "ace": 576,
      "ays": 577,
      "\u0120time": 578,
      "oc": 579,
      "ile": 580,
      "ip": 581,
      "\u0120know": 582,
      "ance": 583,
      "\u0120res": 584,
      "ary": 585,
      "\u0120In": 586,
      "\u0120K": 587,
      "\u0120ag": 588,
      "\u0120dis": 589,
      "\u0120no": 590,
      "ations": 591,
      "ction": 592,
      "ach": 593,
      "int": 594,
      "\u0120$": 595,
      "\u0120work": 596,
      "ire": 597,
      "\u0120people": 598,
      "ase": 599,
      "cl": 600,
      "ia": 601,
      "\u0120been": 602,
      "ress": 603,
      "\u0120than": 604,
      "ause": 605,
      "reat": 606,
      "ings": 607,
      "ru": 608,
      "ang": 609,
      "ign": 610,
      "end": 611,
      "\u0120she": 612,
      "\u0120into": 613,
      "\u0120sp": 614,
      "av": 615,
      "ond": 616,
      "\u0120per": 617,
      "\u0120how": 618,
      "hing": 619,
      "01": 620,
      "\u0120\u00e2\u0122\u013e": 621,
      "ick": 622,
      "\u0120over": 623,
      "ens": 624,
      "\u0120part": 625,
      "du": 626,
      "ree": 627,
      "ory": 628,
      "vel": 629,
      "ial": 630,
      "\u0120pr": 631,
      "\u0120him": 632,
      "row": 633,
      "ove": 634,
      "\u0120also": 635,
      "\u0120spe": 636,
      "ord": 637,
      "ft": 638,
      "ount": 639,
      "\u0120off": 640,
      "\u0120St": 641,
      "\u0120pre": 642,
      "own": 643,
      "ell": 644,
      "iff": 645,
      "\u0120our": 646,
      "ition": 647,
      "\u0120po": 648,
      "\u0120bl": 649,
      "nder": 650,
      "itt": 651,
      "\u0120only": 652,
      ").": 653,
      "\u0120am": 654,
      "ood": 655,
      "\u0120could": 656,
      "\u0120imp": 657,
      "\u0120V": 658,
      "\u0120\u010a": 659,
      "sel": 660,
      "ath": 661,
      "--": 662,
      "\u0120sc": 663,
      "\u0120year": 664,
      "ail": 665,
      "\u0120bet": 666,
      "\u0120He": 667,
      "ark": 668,
      "ov": 669,
      "form": 670,
      "\u0120Ch": 671,
      "\u0120tw": 672,
      "\u0120need": 673,
      "\u0120think": 674,
      "ors": 675,
      "ph": 676,
      "ild": 677,
      "\u0120then": 678,
      "\u0120act": 679,
      "\u0120app": 680,
      "ents": 681,
      "\u0120=": 682,
      "\u0120don": 683,
      "\u0120ro": 684,
      "urn": 685,
      "irst": 686,
      "ob": 687,
      "ne": 688,
      "\u0120did": 689,
      "\u0120because": 690,
      "ish": 691,
      "fter": 692,
      "\u0120want": 693,
      "xt": 694,
      "\u0120co": 695,
      "hat": 696,
      "ons": 697,
      "\u0120new": 698,
      "ict": 699,
      "ces": 700,
      "\u0120diff": 701,
      "\u0120see": 702,
      "\u0120back": 703,
      "uch": 704,
      "ious": 705,
      "we": 706,
      "ade": 707,
      "\u0120said": 708,
      "ian": 709,
      "ple": 710,
      "mer": 711,
      "\u0120gr": 712,
      "...": 713,
      "ater": 714,
      "te": 715,
      "\u0120may": 716,
      "\u0120every": 717,
      "ual": 718,
      "\u0120its": 719,
      "hed": 720,
      "\u0120even": 721,
      "\u0120these": 722,
      "\u0120way": 723,
      "\u0120rec": 724,
      "10": 725,
      "ull": 726,
      "\u0120most": 727,
      "\u0120under": 728,
      "\u0120look": 729,
      "\u0120make": 730,
      "\u0120This": 731,
      ".\"": 732,
      "\u0120should": 733,
      "omet": 734,
      "\u0120fl": 735,
      "ates": 736,
      "\u0120des": 737,
      "wn": 738,
      "\u0120sy": 739,
      "fore": 740,
      "oy": 741,
      "\u0120where": 742,
      "other": 743,
      "vers": 744,
      "\u0120does": 745,
      "\u0120very": 746,
      "\u0120cons": 747,
      "ject": 748,
      "\u0120\u00e2\u0122\u00a2": 749,
      "\u0120rel": 750,
      "\u0120use": 751,
      "\u0120first": 752,
      "\u0120much": 753,
      "erv": 754,
      "\u0120two": 755,
      "\u0120ind": 756,
      "\u0120acc": 757,
      "ib": 758,
      "\u0120\\<": 759,
      "hen": 760,
      "ise": 761,
      "\u0120now": 762,
      "\u0120wr": 763,
      "\u0120[": 764,
      "rough": 765,
      "\u0120comm": 766,
      "\u0120good": 767,
      "\u0120And": 768,
      "be": 769,
      "),": 770,
      "igh": 771,
      "ife": 772,
      "ks": 773,
      "\u0120att": 774,
      "\u0120sm": 775,
      "\u0120too": 776,
      "oss": 777,
      "ew": 778,
      "\u0120ph": 779,
      "ning": 780,
      "ys": 781,
      "erm": 782,
      "\u0120ra": 783,
      "ific": 784,
      "ually": 785,
      "ating": 786,
      "\u0120many": 787,
      "\u0120being": 788,
      "\u0120inter": 789,
      "\u0120gen": 790,
      "lic": 791,
      "iss": 792,
      "\u0120We": 793,
      "\u0120through": 794,
      "\u0120em": 795,
      "\u0120differe": 796,
      "ics": 797,
      "\u0120right": 798,
      "\u0120again": 799,
      "oll": 800,
      "li": 801,
      "\u0120You": 802,
      "les": 803,
      "self": 804,
      "lect": 805,
      "ty": 806,
      "\u0120well": 807,
      "ily": 808,
      "ower": 809,
      "ting": 810,
      "\u0120rem": 811,
      "\u0120tra": 812,
      "\u0120after": 813,
      "\u0120down": 814,
      "aw": 815,
      "\u0120bu": 816,
      "\u0120ob": 817,
      "ful": 818,
      "gr": 819,
      "ert": 820,
      "\\<": 821,
      "oth": 822,
      "cess": 823,
      "pect": 824,
      "\u0120such": 825,
      "olog": 826,
      "cial": 827,
      "\u0120say": 828,
      "\u0120ev": 829,
      "ible": 830,
      "\u0120long": 831,
      "ced": 832,
      "ular": 833,
      "\u0120inc": 834,
      "\u0120ke": 835,
      "\u0120somet": 836,
      "\u0120those": 837,
      "ments": 838,
      "get": 839,
      "\u0120pers": 840,
      "ange": 841,
      "old": 842,
      "\u0120But": 843,
      "\u0120br": 844,
      "ock": 845,
      "aking": 846,
      "ative": 847,
      "\u0120rep": 848,
      "\u0120sub": 849,
      "\u0120&": 850,
      "lp": 851,
      "ec": 852,
      "the": 853,
      "ng": 854,
      "\u0120If": 855,
      "\u0120sim": 856,
      "iew": 857,
      "12": 858,
      "\u0120'": 859,
      "\u0120add": 860,
      "stem": 861,
      "\u0120\u0120\u0120\u0120\u0120\u0120\u0120\u0120\u0120\u0120\u0120\u0120\u0120\u0120\u0120\u0120": 862,
      "\u0120inv": 863,
      "\u0120own": 864,
      "\u0120help": 865,
      "\u0120gu": 866,
      "\u0120really": 867,
      "\u0120mod": 868,
      "\u0120years": 869,
      "ont": 870,
      "\u0120eff": 871,
      "\u0120bel": 872,
      "ave": 873,
      "ought": 874,
      "\u0120point": 875,
      "\u0120def": 876,
      "\u0120same": 877,
      "alk": 878,
      "\u0120before": 879,
      "cept": 880,
      "\u0120supp": 881,
      "\u0120call": 882,
      "\u0120going": 883,
      "ars": 884,
      "\u0120end": 885,
      "\u0120read": 886,
      "ism": 887,
      "\u0120dec": 888,
      "als": 889,
      "\u0120reg": 890,
      "ility": 891,
      "clud": 892,
      "Th": 893,
      "\u0120start": 894,
      "\u0120here": 895,
      "ied": 896,
      "\u0120still": 897,
      "imes": 898,
      "its": 899,
      "\u0120hand": 900,
      "\u0120ac": 901,
      "In": 902,
      "ution": 903,
      "ef": 904,
      "\u0120inst": 905,
      "\u0120aw": 906,
      "hes": 907,
      "\u0120real": 908,
      "ax": 909,
      "\u0120sec": 910,
      "\u0120used": 911,
      "rib": 912,
      "20": 913,
      "\u0120set": 914,
      "ever": 915,
      "ps": 916,
      "\u0120take": 917,
      "ities": 918,
      "ident": 919,
      "\u0120world": 920,
      "der": 921,
      "\u0120They": 922,
      "ather": 923,
      "\u0120play": 924,
      "\u0120find": 925,
      "\u0120ent": 926,
      "ased": 927,
      "day": 928,
      "\u0120pol": 929,
      "ween": 930,
      "\u0120things": 931,
      "\u0120As": 932,
      "cy": 933,
      "\u0120different": 934,
      "ren": 935,
      "\u0120produ": 936,
      "\u0120made": 937,
      "\u0120form": 938,
      "\u0120sur": 939,
      "\u0120num": 940,
      "\u0120fil": 941,
      "ote": 942,
      "ract": 943,
      "ah": 944,
      "\u0120system": 945,
      "\u0120sl": 946,
      "\u0120ass": 947,
      "ody": 948,
      "\u0120col": 949,
      "11": 950,
      "ness": 951,
      "\u0120person": 952,
      "\u0120show": 953,
      "\u0120something": 954,
      "\u0120happ": 955,
      "\u0120life": 956,
      "\u0120trans": 957,
      "\u0120So": 958,
      "read": 959,
      "ince": 960,
      "ward": 961,
      "\u0120fact": 962,
      "\u0120str": 963,
      "right": 964,
      "\u0120met": 965,
      "\u0120pres": 966,
      "\u0120between": 967,
      "\u00c2\u0142\u00c2\u0142\u00c2\u0142\u00c2\u0142": 968,
      "tern": 969,
      "ving": 970,
      "up": 971,
      "\u0120char": 972,
      "led": 973,
      "\u0120stud": 974,
      "{\\": 975,
      "\u0120great": 976,
      "\u0120cr": 977,
      "ures": 978,
      ",\"": 979,
      "\u0120ins": 980,
      "\u0120feel": 981,
      "\u0120|": 982,
      "thing": 983,
      "gg": 984,
      "\u0120An": 985,
      "ix": 986,
      "ize": 987,
      "ollow": 988,
      "\u0120while": 989,
      "\u0120prov": 990,
      "ex": 991,
      "ying": 992,
      "\u0120che": 993,
      "akes": 994,
      "\u0120\u0120\u0120\u0120\u0120\u0120\u0120": 995,
      "\u0120day": 996,
      "com": 997,
      "\u0120around": 998,
      "\u0120Un": 999,
      "ited": 1000,
      "\u0120exp": 1001,
      "gin": 1002,
      "ata": 1003,
      "ittle": 1004,
      "air": 1005,
      "\u0120car": 1006,
      "arch": 1007,
      "ank": 1008,
      "\u0120gener": 1009,
      "gu": 1010,
      "ros": 1011,
      "uring": 1012,
      "ically": 1013,
      "blem": 1014,
      "\u0120fin": 1015,
      "\u0120ext": 1016,
      "\u0120high": 1017,
      "ee": 1018,
      "\u0120each": 1019,
      "15": 1020,
      "\u0120exper": 1021,
      "\u0120Re": 1022,
      "\u0120ref": 1023,
      "\u0120i": 1024,
      "ational": 1025,
      "\u0120mat": 1026,
      "\u0120count": 1027,
      "\u0120min": 1028,
      "\u0120fun": 1029,
      "con": 1030,
      "ork": 1031,
      "ives": 1032,
      "ool": 1033,
      "\u0120cor": 1034,
      "gan": 1035,
      "99": 1036,
      "\u0120seem": 1037,
      "ists": 1038,
      "ues": 1039,
      "\u0120never": 1040,
      "\u0120Wh": 1041,
      "\u0120mon": 1042,
      "\u0120quest": 1043,
      "\u0120det": 1044,
      "\u0120op": 1045,
      "\u0120lot": 1046,
      "\u0120little": 1047,
      "\u0120There": 1048,
      "\u0120disc": 1049,
      "\u0120ret": 1050,
      "\u0120includ": 1051,
      "pr": 1052,
      "ari": 1053,
      "\u0120might": 1054,
      "und": 1055,
      "ways": 1056,
      "\u0120follow": 1057,
      "\u0120problem": 1058,
      "ves": 1059,
      "ille": 1060,
      "ason": 1061,
      "any": 1062,
      "ts": 1063,
      "ense": 1064,
      "\u0120both": 1065,
      "ved": 1066,
      "\u0120ap": 1067,
      "br": 1068,
      "\u0120inf": 1069,
      "\u0120ear": 1070,
      "\u0120How": 1071,
      "meric": 1072,
      "\u0120val": 1073,
      "\u0120cur": 1074,
      "\u0120cre": 1075,
      "\u0120ty": 1076,
      "nce": 1077,
      "ublic": 1078,
      "\u0120dist": 1079,
      "ale": 1080,
      "less": 1081,
      "uth": 1082,
      "\u0120few": 1083,
      "\u0120hum": 1084,
      "\u0120Al": 1085,
      "\u00c2\u0142\u010a": 1086,
      "velop": 1087,
      "ten": 1088,
      "ric": 1089,
      "ner": 1090,
      "\u0120got": 1091,
      "ines": 1092,
      "\u0120exam": 1093,
      "\u0120sign": 1094,
      "ins": 1095,
      "\u0120last": 1096,
      "\u0120found": 1097,
      "alth": 1098,
      "ger": 1099,
      "erest": 1100,
      "\u0120gl": 1101,
      "arm": 1102,
      "ages": 1103,
      "here": 1104,
      "ute": 1105,
      "sh": 1106,
      "\u0120med": 1107,
      "vern": 1108,
      "It": 1109,
      "of": 1110,
      "\u0120For": 1111,
      "\u0120art": 1112,
      "13": 1113,
      "\u0120child": 1114,
      "\u0120poss": 1115,
      "\u0120conf": 1116,
      "ention": 1117,
      "\u0120expl": 1118,
      "\u0120comple": 1119,
      "az": 1120,
      "\u0120<": 1121,
      "ized": 1122,
      "\u0120belie": 1123,
      "\u0120why": 1124,
      "uss": 1125,
      "\u0120el": 1126,
      "\u0120Ar": 1127,
      "\u0120another": 1128,
      "\u0120put": 1129,
      "\u0120fam": 1130,
      "\u0120ser": 1131,
      "\u0120cle": 1132,
      "\u0120let": 1133,
      "\u0120requ": 1134,
      "\u0120better": 1135,
      "\u0120using": 1136,
      "\u0120\u0120\u0120\u0120\u0120": 1137,
      "stand": 1138,
      "\u0120Americ": 1139,
      "\u0120run": 1140,
      "\u0120without": 1141,
      "\u0120That": 1142,
      "\u0120come": 1143,
      ".\u00e2\u0122\u013f": 1144,
      "\u0120ask": 1145,
      "\u0120x": 1146,
      "\u0120cour": 1147,
      "ern": 1148,
      "\u0120import": 1149,
      "ices": 1150,
      "\u0120ide": 1151,
      "\u0120.": 1152,
      "\u0120result": 1153,
      "\u0120She": 1154,
      "man": 1155,
      "\u0120power": 1156,
      "\u0120thing": 1157,
      "ined": 1158,
      "\u0120turn": 1159,
      "\u0120lar": 1160,
      "riend": 1161,
      "\u0120/": 1162,
      "\u0120state": 1163,
      "\u0120effect": 1164,
      "ouse": 1165,
      "**": 1166,
      "ature": 1167,
      "\u0120head": 1168,
      "ably": 1169,
      "ruct": 1170,
      "14": 1171,
      "\u0120fr": 1172,
      "line": 1173,
      "ox": 1174,
      "\u0120always": 1175,
      "uck": 1176,
      "\u0120word": 1177,
      "iness": 1178,
      "\u0120Pro": 1179,
      "\u0120loc": 1180,
      "gy": 1181,
      "\u0120hard": 1182,
      "\u0120must": 1183,
      "000": 1184,
      "\u0120wom": 1185,
      "pro": 1186,
      "formation": 1187,
      "\u0120thought": 1188,
      "pend": 1189,
      "to": 1190,
      "\u0120mov": 1191,
      "16": 1192,
      "atch": 1193,
      "\u0120lead": 1194,
      "ient": 1195,
      "uc": 1196,
      "\u010d\u010a": 1197,
      "ered": 1198,
      "ared": 1199,
      "\u0120Sh": 1200,
      "\u0120old": 1201,
      "\u0120develop": 1202,
      "oh": 1203,
      "\u0120keep": 1204,
      "ash": 1205,
      "\u0120interest": 1206,
      "\u0120best": 1207,
      "ertain": 1208,
      "ead": 1209,
      "\u0120Is": 1210,
      "oney": 1211,
      "\u0120post": 1212,
      "ode": 1213,
      "\u0120process": 1214,
      "ret": 1215,
      "\u0120mean": 1216,
      "\u0120mem": 1217,
      "ield": 1218,
      "\u0120small": 1219,
      "\u0120What": 1220,
      "\u0120Com": 1221,
      "\u0120ed": 1222,
      "ug": 1223,
      "ters": 1224,
      "\u00e2\u0122\u0136": 1225,
      "\u0120sk": 1226,
      "chn": 1227,
      "iting": 1228,
      "\u0120class": 1229,
      "io": 1230,
      "irect": 1231,
      "mot": 1232,
      "\u0120less": 1233,
      "18": 1234,
      "\u0120ca": 1235,
      "\u0120place": 1236,
      "bs": 1237,
      "err": 1238,
      "\u0120sol": 1239,
      "\u0120book": 1240,
      "ets": 1241,
      "\u0120partic": 1242,
      "\u0120big": 1243,
      "ross": 1244,
      "\u0120didn": 1245,
      "\u0120number": 1246,
      "\u0120eas": 1247,
      "30": 1248,
      "\u0120tri": 1249,
      "\u0120against": 1250,
      "ption": 1251,
      "\u0120tell": 1252,
      "\u0120spec": 1253,
      "This": 1254,
      "me": 1255,
      "ider": 1256,
      "__": 1257,
      "ology": 1258,
      "\u0120bus": 1259,
      "\u0120mark": 1260,
      "\u0120since": 1261,
      "arn": 1262,
      "\u0120*": 1263,
      "osed": 1264,
      "\u0120di": 1265,
      "17": 1266,
      "amp": 1267,
      "\u0120data": 1268,
      "\u00e2\u0122\u00a6": 1269,
      "ames": 1270,
      "\u0120case": 1271,
      "ier": 1272,
      "\u0120govern": 1273,
      "ately": 1274,
      "\u0120giv": 1275,
      "\u0120gra": 1276,
      "\u0120pass": 1277,
      "\u0120serv": 1278,
      "\u0120grou": 1279,
      "\u0120appro": 1280,
      "\u0120resp": 1281,
      "illemot": 1282,
      "guillemot": 1283,
      "\u0120three": 1284,
      "oot": 1285,
      "not": 1286,
      "\u0120av": 1287,
      "\u0120away": 1288,
      "hip": 1289,
      "\u0120adv": 1290,
      "25": 1291,
      "\u0120care": 1292,
      "\u0120understand": 1293,
      "ural": 1294,
      "\u0120sure": 1295,
      "\u0120allow": 1296,
      "\u0120beh": 1297,
      "\u0120\u00e2\u0122\u0135": 1298,
      "\u0120const": 1299,
      "23": 1300,
      "\u0120stand": 1301,
      "\u0120rest": 1302,
      "\u0120{": 1303,
      "view": 1304,
      "\u0120says": 1305,
      "\u0120plan": 1306,
      "\u0120kind": 1307,
      "\u0120enough": 1308,
      "\u0120main": 1309,
      "land": 1310,
      "aug": 1311,
      "\u0120home": 1312,
      "rol": 1313,
      "\u0120actually": 1314,
      "ired": 1315,
      "----": 1316,
      "chool": 1317,
      "_{": 1318,
      "ants": 1319,
      "sw": 1320,
      "rent": 1321,
      "\u0120wee": 1322,
      "\u0120New": 1323,
      "\u0120Q": 1324,
      "19": 1325,
      "\u0120equ": 1326,
      "\u0120talk": 1327,
      "You": 1328,
      ");": 1329,
      "\u0120pat": 1330,
      "And": 1331,
      "cri": 1332,
      "\u0120friend": 1333,
      "ety": 1334,
      "aj": 1335,
      "ience": 1336,
      "\u0120open": 1337,
      "\u0120iss": 1338,
      "orn": 1339,
      "\u0120water": 1340,
      "\u0120cou": 1341,
      "\u0120De": 1342,
      "\u0120Z": 1343,
      "\u0120important": 1344,
      "\u0120$\\": 1345,
      "\u0120give": 1346,
      "\u0120though": 1347,
      "\u0120level": 1348,
      "\u0120law": 1349,
      "\u0120support": 1350,
      "\u0120cent": 1351,
      "\u0120unt": 1352,
      "ases": 1353,
      "We": 1354,
      "\u0120money": 1355,
      "eng": 1356,
      "ron": 1357,
      "ma": 1358,
      "\u0120contin": 1359,
      "\u0120list": 1360,
      "\u0120doesn": 1361,
      "\u0120love": 1362,
      "\u0120+": 1363,
      "\u0120second": 1364,
      "gram": 1365,
      "ling": 1366,
      "\u0120incre": 1367,
      "\u0120dem": 1368,
      "ik": 1369,
      "ope": 1370,
      ".,": 1371,
      "ision": 1372,
      "\u0120charact": 1373,
      "ither": 1374,
      "dd": 1375,
      "\u0120--": 1376,
      "\u0120during": 1377,
      "\u0120ey": 1378,
      "TE": 1379,
      "\u0120term": 1380,
      "\u0120next": 1381,
      "\u0120pay": 1382,
      "22": 1383,
      "ality": 1384,
      "\u0120information": 1385,
      "\u0120test": 1386,
      "\u0120left": 1387,
      "\u0120et": 1388,
      "ok": 1389,
      "\u00e2\u0122\u013e": 1390,
      "\u0120pur": 1391,
      "50": 1392,
      "\u0120full": 1393,
      "\u0120able": 1394,
      "sub": 1395,
      "\u0120par": 1396,
      "\u0120happen": 1397,
      "\u0120body": 1398,
      "\u0120name": 1399,
      "\u0120example": 1400,
      "\u0120techn": 1401,
      "\u0120human": 1402,
      "\u0120often": 1403,
      "\u0120pop": 1404,
      "\u0120free": 1405,
      "\u0120pos": 1406,
      "ital": 1407,
      "ream": 1408,
      "\u0120question": 1409,
      "\u0120called": 1410,
      "\u0120appe": 1411,
      "\u0120bre": 1412,
      "ator": 1413,
      "\u0120mus": 1414,
      "\u0120es": 1415,
      "ished": 1416,
      "\u0120top": 1417,
      "\u0120game": 1418,
      "What": 1419,
      "\u0120When": 1420,
      "\u0120sw": 1421,
      "lf": 1422,
      "\u0120grow": 1423,
      "\u0120far": 1424,
      "left": 1425,
      "\u0120opp": 1426,
      "ides": 1427,
      "vious": 1428,
      "ted": 1429,
      "\u0120prob": 1430,
      "\u0120mind": 1431,
      "ann": 1432,
      "\u0120light": 1433,
      "\u0120prot": 1434,
      "\u0120change": 1435,
      "icle": 1436,
      "ently": 1437,
      "inal": 1438,
      "go": 1439,
      "els": 1440,
      "\u0120ever": 1441,
      "bers": 1442,
      "\u0120doing": 1443,
      "St": 1444,
      "\u0120reason": 1445,
      "\u0120:": 1446,
      "\u0120order": 1447,
      "\u0120sit": 1448,
      "\u0120bas": 1449,
      "\u0120direct": 1450,
      "cent": 1451,
      "med": 1452,
      "\u0120commun": 1453,
      "\u0120public": 1454,
      "ats": 1455,
      "rist": 1456,
      "ering": 1457,
      "ains": 1458,
      "att": 1459,
      "\u0120bra": 1460,
      "ization": 1461,
      "\u0120certain": 1462,
      "\u0120done": 1463,
      "\u0120chang": 1464,
      "ided": 1465,
      "arent": 1466,
      "\u0120dri": 1467,
      "app": 1468,
      "ember": 1469,
      "\u0120government": 1470,
      "\u0120bit": 1471,
      "by": 1472,
      "\u0120health": 1473,
      "iter": 1474,
      "put": 1475,
      "aps": 1476,
      "nect": 1477,
      "\u0120pri": 1478,
      "\u0120having": 1479,
      "\u0120hist": 1480,
      "\u0120men": 1481,
      "\u00e2\u0122\u0135": 1482,
      "\u0120large": 1483,
      "port": 1484,
      "\u0120Cl": 1485,
      "\u0120means": 1486,
      "\u0120build": 1487,
      "\u0120until": 1488,
      "math": 1489,
      "\u0120prof": 1490,
      "\\<^": 1491,
      "uff": 1492,
      "ton": 1493,
      "\u0120least": 1494,
      "\u0120story": 1495,
      "\u0120leg": 1496,
      "24": 1497,
      "\u0120move": 1498,
      "par": 1499,
      "\u0120dr": 1500,
      "\u0120elect": 1501,
      "\u0120someone": 1502,
      "\u0120times": 1503,
      "atic": 1504,
      "ready": 1505,
      "hy": 1506,
      "\u0120course": 1507,
      "\u0120war": 1508,
      "ised": 1509,
      "\u0120school": 1510,
      "\u0120business": 1511,
      "\u0120line": 1512,
      "ining": 1513,
      "//": 1514,
      "most": 1515,
      "\u0120return": 1516,
      "\u0120z": 1517,
      "ump": 1518,
      "\u0120making": 1519,
      "hod": 1520,
      "conom": 1521,
      "\u0120polit": 1522,
      "\u0120anything": 1523,
      "ency": 1524,
      "\u0120side": 1525,
      "ird": 1526,
      "ral": 1527,
      "21": 1528,
      "\u0120aff": 1529,
      "ms": 1530,
      "work": 1531,
      "?\"": 1532,
      "\u0120#": 1533,
      "\u0120program": 1534,
      "ivers": 1535,
      "reen": 1536,
      "If": 1537,
      "\u0120US": 1538,
      "ulation": 1539,
      "\u0120came": 1540,
      "\u0120makes": 1541,
      "\u0120God": 1542,
      "\u0120Be": 1543,
      "\u0120\u00e2\u0122\u013a": 1544,
      "\u0120files": 1545,
      "\u0120sing": 1546,
      "ane": 1547,
      "\u0120pa": 1548,
      "\u0120non": 1549,
      "\u0120already": 1550,
      "\u0120Tr": 1551,
      "\u0120At": 1552,
      "\u0120month": 1553,
      "cing": 1554,
      "\u0120vis": 1555,
      "oad": 1556,
      "for": 1557,
      "\u0120days": 1558,
      "\u0120occ": 1559,
      "\u0120sound": 1560,
      "ids": 1561,
      "\u0120stop": 1562,
      "\u0120No": 1563,
      "\u0120Br": 1564,
      "\u0120others": 1565,
      "elt": 1566,
      "\u0120Bl": 1567,
      "\u0120mom": 1568,
      "lease": 1569,
      "ories": 1570,
      "\u0120est": 1571,
      "over": 1572,
      "ony": 1573,
      "ots": 1574,
      "\u0120family": 1575,
      "\u0120product": 1576,
      "\u0120bad": 1577,
      "\u0120cap": 1578,
      "itive": 1579,
      "\u0120given": 1580,
      "\u0120job": 1581,
      "\u0120answ": 1582,
      "\u0120else": 1583,
      "\u0120ele": 1584,
      "iqu": 1585,
      "\u0120cost": 1586,
      "ified": 1587,
      "\u0120become": 1588,
      "ional": 1589,
      "\u0120once": 1590,
      "\u0120possible": 1591,
      "used": 1592,
      "aim": 1593,
      "\u0120clear": 1594,
      "\u0120ve": 1595,
      "98": 1596,
      "\u0120current": 1597,
      "\u0120perform": 1598,
      "\u0120within": 1599,
      "As": 1600,
      "):": 1601,
      "ivid": 1602,
      "ained": 1603,
      "ploy": 1604,
      "\u0120Ind": 1605,
      "\u0120design": 1606,
      "raph": 1607,
      "\u0120food": 1608,
      "\u0120To": 1609,
      "\u0120X": 1610,
      "\u0120proper": 1611,
      "ument": 1612,
      "An": 1613,
      "cite": 1614,
      "RO": 1615,
      "\u0120organ": 1616,
      "ged": 1617,
      "\u0120view": 1618,
      "idd": 1619,
      "\u0120went": 1620,
      "\u0120dra": 1621,
      "\u0120All": 1622,
      "\u0120believe": 1623,
      "\u0120control": 1624,
      "ured": 1625,
      "\u0120getting": 1626,
      "sp": 1627,
      "ability": 1628,
      "ians": 1629,
      "sc": 1630,
      "\u0120rese": 1631,
      "ior": 1632,
      "ived": 1633,
      "ccess": 1634,
      "ina": 1635,
      "\u0120country": 1636,
      "\u0120kill": 1637,
      "\u0120present": 1638,
      "ards": 1639,
      "\u0120past": 1640,
      "\u0120group": 1641,
      "\u0120night": 1642,
      "ER": 1643,
      "itions": 1644,
      "\u0120Le": 1645,
      "\u0120cond": 1646,
      "\u0120fore": 1647,
      "\u0120anal": 1648,
      "ential": 1649,
      "\u0120air": 1650,
      "....": 1651,
      "\u0120try": 1652,
      "\u0120children": 1653,
      "arrow": 1654,
      "outh": 1655,
      "\u0120Se": 1656,
      "way": 1657,
      "mb": 1658,
      "\u0120sci": 1659,
      "aring": 1660,
      "\u0120idea": 1661,
      "\u0120particular": 1662,
      "iving": 1663,
      "\u0120ben": 1664,
      "\u0120nothing": 1665,
      "oice": 1666,
      "\u0120hour": 1667,
      "ref": 1668,
      "\u0120lim": 1669,
      "ajor": 1670,
      "ott": 1671,
      "\u0120report": 1672,
      "\u0120face": 1673,
      "\u0120invest": 1674,
      "oint": 1675,
      "ilar": 1676,
      "}\\": 1677,
      "ries": 1678,
      "ination": 1679,
      "\u0120Do": 1680,
      "\u0120short": 1681,
      "\u0120Or": 1682,
      "\u0120cell": 1683,
      "So": 1684,
      "\u0120whole": 1685,
      "\u0120learn": 1686,
      "\u0120\u00c2\u0142": 1687,
      "\u0120probably": 1688,
      "\u0120Con": 1689,
      "selves": 1690,
      "\u0120econom": 1691,
      "ury": 1692,
      "alf": 1693,
      "\u0120mult": 1694,
      "iron": 1695,
      "\u0120My": 1696,
      "\u0120expect": 1697,
      "\u0120mil": 1698,
      "\u0120women": 1699,
      "He": 1700,
      "\u0120pret": 1701,
      "cer": 1702,
      "\u0120seen": 1703,
      "\u0120self": 1704,
      "rop": 1705,
      "\u0120yet": 1706,
      "uthor": 1707,
      "\u0120mar": 1708,
      "ched": 1709,
      "\u0120complete": 1710,
      "cle": 1711,
      "\u0120bo": 1712,
      "\u0120rather": 1713,
      "\u0120prom": 1714,
      "}$": 1715,
      "ush": 1716,
      "\u0120oper": 1717,
      "How": 1718,
      "\u0120tem": 1719,
      "\u0120ener": 1720,
      "aster": 1721,
      "\u0120Ph": 1722,
      "\u0120However": 1723,
      "vent": 1724,
      "\u0120based": 1725,
      "ole": 1726,
      "side": 1727,
      "\u0120either": 1728,
      "\u0120near": 1729,
      "\u0120trying": 1730,
      "\u0120toget": 1731,
      "angu": 1732,
      "\u0120function": 1733,
      "\u0120consider": 1734,
      "\u0120together": 1735,
      "\u0120today": 1736,
      "40": 1737,
      "ource": 1738,
      "\u0120dev": 1739,
      "But": 1740,
      "\u0120Fr": 1741,
      "\u0120dep": 1742,
      "\u0120pot": 1743,
      "\u0120On": 1744,
      "\u0120method": 1745,
      "\u0120Sp": 1746,
      "\u00e0\u00a4": 1747,
      "ohn": 1748,
      "\u0120team": 1749,
      "\u0120low": 1750,
      "\u0120pract": 1751,
      "olution": 1752,
      "\u0120orig": 1753,
      "cially": 1754,
      "ividual": 1755,
      "min": 1756,
      "\u0120took": 1757,
      "\u0120typ": 1758,
      "\u0120begin": 1759,
      "\u0120hold": 1760,
      "oid": 1761,
      "aken": 1762,
      "gle": 1763,
      "\u0120sever": 1764,
      "\u0120later": 1765,
      "\u0120house": 1766,
      "\u0120Ex": 1767,
      "illion": 1768,
      "\u0120market": 1769,
      "\u0120character": 1770,
      "\u0120wa": 1771,
      "\u0120matter": 1772,
      "',": 1773,
      "\u0120fre": 1774,
      "yn": 1775,
      "ler": 1776,
      "wh": 1777,
      "\u0120common": 1778,
      "\u0120Christ": 1779,
      "</": 1780,
      "ike": 1781,
      "\u0120room": 1782,
      "ium": 1783,
      "\u0120true": 1784,
      "\u0120looking": 1785,
      "\u0120phys": 1786,
      "ply": 1787,
      "\u0120creat": 1788,
      "\u0120words": 1789,
      "irl": 1790,
      "\u0120aut": 1791,
      "\u0120isn": 1792,
      "\u0120pain": 1793,
      "\u0120known": 1794,
      "\u0120seems": 1795,
      "let": 1796,
      "ien": 1797,
      "\u0120social": 1798,
      "\u0120cal": 1799,
      "ration": 1800,
      "ext": 1801,
      "\u0120American": 1802,
      "There": 1803,
      "^{": 1804,
      "ortun": 1805,
      "my": 1806,
      "IN": 1807,
      "\u0120experience": 1808,
      "\u0120eng": 1809,
      "\u0120young": 1810,
      "\u0120working": 1811,
      "\u0120ris": 1812,
      "ances": 1813,
      "\u0120told": 1814,
      "\u0120miss": 1815,
      "\u0120Pl": 1816,
      "de": 1817,
      "\u0120major": 1818,
      "26": 1819,
      ",\u00e2\u0122\u013f": 1820,
      "\u0120mor": 1821,
      "por": 1822,
      "ustom": 1823,
      "\u0120almost": 1824,
      "uture": 1825,
      "arr": 1826,
      "ression": 1827,
      "sy": 1828,
      "\u0120live": 1829,
      "\u0120several": 1830,
      "27": 1831,
      "\u0120hy": 1832,
      "urther": 1833,
      "97": 1834,
      "\u0120vari": 1835,
      "\u0120ident": 1836,
      "\u0120everything": 1837,
      "\u0120individual": 1838,
      "28": 1839,
      "\u0120invol": 1840,
      "\u0120following": 1841,
      "\u0120ant": 1842,
      "ery": 1843,
      "idence": 1844,
      "\u0120exist": 1845,
      "ully": 1846,
      "eral": 1847,
      "val": 1848,
      "\u0120strong": 1849,
      "\u0120four": 1850,
      "ape": 1851,
      "\u0120quite": 1852,
      "\u0120field": 1853,
      "\u0120along": 1854,
      "use": 1855,
      "\u0120land": 1856,
      "uro": 1857,
      "\u0120tre": 1858,
      "\u0120One": 1859,
      "\u0120connect": 1860,
      "\u0120bro": 1861,
      "\u0120comput": 1862,
      "lish": 1863,
      "\u0120cult": 1864,
      "ggest": 1865,
      "\u0120eyes": 1866,
      "\u0120vers": 1867,
      "\u0120comes": 1868,
      "where": 1869,
      "\u0120value": 1870,
      "fe": 1871,
      "\u0120activ": 1872,
      "\u0120deal": 1873,
      "\u0120company": 1874,
      "\u0120specific": 1875,
      "\u0120won": 1876,
      "\u0120type": 1877,
      "\u0120,": 1878,
      "\u0120ago": 1879,
      "str": 1880,
      "\u0120above": 1881,
      "\u0120Not": 1882,
      "ify": 1883,
      "ows": 1884,
      "\u0120Eng": 1885,
      "60": 1886,
      "\u0120check": 1887,
      "\u0120energy": 1888,
      "\u0120sense": 1889,
      "utes": 1890,
      "\u0120tax": 1891,
      ".)": 1892,
      "\u0120including": 1893,
      "\u0120object": 1894,
      "ison": 1895,
      "\u0120rece": 1896,
      "\u0120\u0120\u0120\u0120\u0120\u0120\u0120\u0120\u0120\u0120\u0120": 1897,
      "\u0120heart": 1898,
      "fra": 1899,
      "\u0120var": 1900,
      "\u0120project": 1901,
      "\u0120whether": 1902,
      "\u0120prop": 1903,
      "\u0120Pr": 1904,
      "\u0120started": 1905,
      "\u0120success": 1906,
      "\u0120redu": 1907,
      "ples": 1908,
      "ama": 1909,
      "ene": 1910,
      "\u0120Can": 1911,
      "igure": 1912,
      "rodu": 1913,
      "gs": 1914,
      "\u0120space": 1915,
      "\u0120intern": 1916,
      "\u0120close": 1917,
      "aces": 1918,
      "\u0120discuss": 1919,
      "\u0120toward": 1920,
      "though": 1921,
      "pped": 1922,
      "\u0120quick": 1923,
      "\u0120suggest": 1924,
      "\u0120conc": 1925,
      "orth": 1926,
      "\u0120mag": 1927,
      "ording": 1928,
      "\u0120sex": 1929,
      "\u0120hig": 1930,
      "\u0120fall": 1931,
      "\u0120net": 1932,
      "ware": 1933,
      "\u0120answer": 1934,
      "\u0120account": 1935,
      "TA": 1936,
      "\u0120Rep": 1937,
      "bra": 1938,
      "ones": 1939,
      "\u0120week": 1940,
      "\u0120pretty": 1941,
      "\u0120works": 1942,
      "\u0120model": 1943,
      "\u0120May": 1944,
      "100": 1945,
      "\u0120press": 1946,
      "\u0120Mar": 1947,
      "Ch": 1948,
      "!!": 1949,
      "},": 1950,
      "aut": 1951,
      "resent": 1952,
      "\u0120death": 1953,
      "itional": 1954,
      "ried": 1955,
      "\u0120fail": 1956,
      "\u0120stre": 1957,
      "\u0120treat": 1958,
      "\",": 1959,
      "oun": 1960,
      "\u0120opt": 1961,
      "\u0120cra": 1962,
      "==": 1963,
      "\u0120asked": 1964,
      "co": 1965,
      "lu": 1966,
      "\u0120attack": 1967,
      "plic": 1968,
      "ON": 1969,
      "soci": 1970,
      "pecially": 1971,
      "\u0120abs": 1972,
      "\u0120meas": 1973,
      "\u0120future": 1974,
      "\u0120amount": 1975,
      "\u0120Sc": 1976,
      "\u0120With": 1977,
      "rew": 1978,
      "icult": 1979,
      "\u0120cannot": 1980,
      "=\"": 1981,
      "iol": 1982,
      "rect": 1983,
      "\u0120step": 1984,
      "ection": 1985,
      "\u0120everyone": 1986,
      "bl": 1987,
      "ume": 1988,
      "\u0120These": 1989,
      "\u0120enc": 1990,
      "\u0120history": 1991,
      "\u0120entire": 1992,
      "\u0120impro": 1993,
      "istic": 1994,
      "ches": 1995,
      "uation": 1996,
      "\u0120claim": 1997,
      "verse": 1998,
      "urs": 1999,
      "\u0120wond": 2000,
      "\u0120mess": 2001,
      "\u0120trad": 2002,
      "ailable": 2003,
      "\u0120walk": 2004,
      "viron": 2005,
      "\u0120single": 2006,
      "ley": 2007,
      "\u0120needs": 2008,
      "\u0120black": 2009,
      "ively": 2010,
      "set": 2011,
      "\u0120langu": 2012,
      "))": 2013,
      "\u0120wind": 2014,
      "\u0120similar": 2015,
      "\u0120\u0120\u0120\u0120\u0120\u0120\u0120\u0120\u0120\u0120\u0120\u0120\u0120\u0120\u0120\u0120\u0120\u0120\u0120\u0120\u0120\u0120\u0120\u0120\u0120\u0120\u0120\u0120\u0120\u0120\u0120\u0120": 2016,
      "son": 2017,
      "\u0120cir": 2018,
      "iod": 2019,
      "\u0120Ad": 2020,
      "\u0120wanted": 2021,
      "\u0120likely": 2022,
      "\u0120sent": 2023,
      "ising": 2024,
      "\u0120foc": 2025,
      "\u0120win": 2026,
      "\u0120mass": 2027,
      "ctor": 2028,
      "\u0120sal": 2029,
      "ored": 2030,
      "\u0120wrong": 2031,
      "\u0120norm": 2032,
      "ask": 2033,
      "\u0120super": 2034,
      "\u0120meet": 2035,
      "ney": 2036,
      "\u0120simply": 2037,
      "anks": 2038,
      "now": 2039,
      "aterial": 2040,
      "ental": 2041,
      "\u0120la": 2042,
      "\u0120half": 2043,
      "\u0120cut": 2044,
      "\u0120upon": 2045,
      "\u0120John": 2046,
      "For": 2047,
      "\u0120provide": 2048,
      "\u0120watch": 2049,
      "lam": 2050,
      "\u0120due": 2051,
      "\u0120nat": 2052,
      "\u0120hope": 2053,
      "\u0120event": 2054,
      "\u0120access": 2055,
      "\u0120obs": 2056,
      "fully": 2057,
      "\u0120general": 2058,
      "\".": 2059,
      "enn": 2060,
      "ills": 2061,
      "\u0120comb": 2062,
      "29": 2063,
      "oon": 2064,
      "\u0120Some": 2065,
      "\u0120struct": 2066,
      "empt": 2067,
      "oud": 2068,
      "\u0120relations": 2069,
      "\u0120themselves": 2070,
      "\u0120himself": 2071,
      "\u0120area": 2072,
      "\u0120local": 2073,
      "\u0120tot": 2074,
      "imate": 2075,
      "ift": 2076,
      "guillemotright": 2077,
      "ai": 2078,
      "ially": 2079,
      "\u0120deb": 2080,
      "ands": 2081,
      "\u0120phot": 2082,
      "\u0120benef": 2083,
      "fer": 2084,
      "guillemotleft": 2085,
      "\u0120blood": 2086,
      "\u0120mot": 2087,
      "ogn": 2088,
      "\u0120moment": 2089,
      "acy": 2090,
      "\u0120music": 2091,
      "\u0120custom": 2092,
      "\u0120rad": 2093,
      "\u0120break": 2094,
      "\u0120necess": 2095,
      "ude": 2096,
      "body": 2097,
      "\u0120create": 2098,
      "\u0120results": 2099,
      "\u0120vol": 2100,
      "\u0120study": 2101,
      "}}": 2102,
      "like": 2103,
      "\u0120pict": 2104,
      "\u0120cop": 2105,
      "\u0120early": 2106,
      "\u0120employ": 2107,
      "\u0120research": 2108,
      "\u0120record": 2109,
      "\u0120author": 2110,
      "\u0120applic": 2111,
      "AN": 2112,
      "aining": 2113,
      "equ": 2114,
      "\u0120saw": 2115,
      "che": 2116,
      "yle": 2117,
      "une": 2118,
      "OF": 2119,
      "\u0120offic": 2120,
      "ges": 2121,
      "iversity": 2122,
      "ule": 2123,
      "\u0120taking": 2124,
      "\u0120anyone": 2125,
      "\u0120key": 2126,
      "\u0120lab": 2127,
      "\u0120vide": 2128,
      "\u0120instead": 2129,
      "\u0120etc": 2130,
      "ength": 2131,
      "ledge": 2132,
      "\u0120difficult": 2133,
      "\u0120sum": 2134,
      "ological": 2135,
      "\u0120itself": 2136,
      "arget": 2137,
      "\u0120behind": 2138,
      "\u0120soft": 2139,
      "cul": 2140,
      "\u0120link": 2141,
      "\u0120however": 2142,
      "\u0120across": 2143,
      "AR": 2144,
      "\u0120among": 2145,
      "lement": 2146,
      "ubl": 2147,
      "\u0120anim": 2148,
      "\u0109\u0109": 2149,
      "\u0120exact": 2150,
      "\u00c2\u0142\u00c2\u0142\u00c2\u0142\u00c2\u0142\u00c2\u0142\u00c2\u0142\u00c2\u0142\u00c2\u0142": 2151,
      "leep": 2152,
      "\u0120age": 2153,
      "\u0120text": 2154,
      "\u0120accept": 2155,
      "\u0120available": 2156,
      "\u0120problems": 2157,
      "\u0120depend": 2158,
      "augh": 2159,
      "\u0120buy": 2160,
      "\u0120article": 2161,
      "ister": 2162,
      "erence": 2163,
      "\u0120dest": 2164,
      "\u0120dam": 2165,
      "oogle": 2166,
      "\u0120fight": 2167,
      "\u0120girl": 2168,
      "oke": 2169,
      "\u0120His": 2170,
      "haps": 2171,
      "\u0120Mr": 2172,
      "mm": 2173,
      "\u0120fund": 2174,
      "\u0120wasn": 2175,
      "\u0120repl": 2176,
      "\u0120determ": 2177,
      "\u0120sort": 2178,
      "ended": 2179,
      "omm": 2180,
      "\u0120points": 2181,
      "ients": 2182,
      "ources": 2183,
      "\u0120political": 2184,
      "ips": 2185,
      "\u0120United": 2186,
      "\u0120usually": 2187,
      "rap": 2188,
      "\u0120simple": 2189,
      "vironment": 2190,
      "\u0120red": 2191,
      "ites": 2192,
      "\u0120dou": 2193,
      "gen": 2194,
      "\u0120taken": 2195,
      "roll": 2196,
      "When": 2197,
      "ging": 2198,
      "PRO": 2199,
      "urity": 2200,
      "\u0120arg": 2201,
      "fect": 2202,
      "orld": 2203,
      "iet": 2204,
      "joy": 2205,
      "\u0120issue": 2206,
      "\u0120dom": 2207,
      "eb": 2208,
      "\u0120signific": 2209,
      "cal": 2210,
      "\u0120/>": 2211,
      "\u0120bring": 2212,
      "error": 2213,
      "ES": 2214,
      "\u0120woman": 2215,
      "\u0120material": 2216,
      "\u0120looked": 2217,
      "\u0120cause": 2218,
      "\u0120suff": 2219,
      "\u0120pie": 2220,
      "irt": 2221,
      "\u0120especially": 2222,
      "\u0120period": 2223,
      "35": 2224,
      "ibility": 2225,
      "\u0120Then": 2226,
      "://": 2227,
      "\u0120saying": 2228,
      "\u0120friends": 2229,
      "ique": 2230,
      "\u0120ways": 2231,
      "itten": 2232,
      "\u0120parent": 2233,
      "\u0120log": 2234,
      "\u00c3\u00a9": 2235,
      "ires": 2236,
      "oose": 2237,
      "No": 2238,
      "face": 2239,
      "\u0120easy": 2240,
      "text": 2241,
      "\u0120questions": 2242,
      "urope": 2243,
      "Wh": 2244,
      "ateg": 2245,
      "na": 2246,
      "90": 2247,
      "\u0120soci": 2248,
      "\u0120Res": 2249,
      "bb": 2250,
      "\u0120special": 2251,
      "45": 2252,
      "light": 2253,
      "miss": 2254,
      "\u0120further": 2255,
      "\u0120Now": 2256,
      "head": 2257,
      "iction": 2258,
      "\u0120white": 2259,
      "\u0120neg": 2260,
      "EN": 2261,
      "\u0120stay": 2262,
      "\u0120fav": 2263,
      "tt": 2264,
      "ault": 2265,
      "eed": 2266,
      "\u0120knew": 2267,
      "\u0120city": 2268,
      "rel": 2269,
      "\u0120hours": 2270,
      "asing": 2271,
      "\u0120colle": 2272,
      "\u0120detail": 2273,
      "\u0120priv": 2274,
      "ograph": 2275,
      "\u0120lay": 2276,
      "\u0120Am": 2277,
      "\u0120respect": 2278,
      "itor": 2279,
      "\u0120Te": 2280,
      "\u0120@": 2281,
      "aced": 2282,
      "\u0120defin": 2283,
      "PROOF": 2284,
      "\u0120ess": 2285,
      "\u0120film": 2286,
      "ung": 2287,
      "itting": 2288,
      "\u0120front": 2289,
      "\u0120stra": 2290,
      "80": 2291,
      "ators": 2292,
      "\u0120hands": 2293,
      "\u0120longer": 2294,
      "\u0120relig": 2295,
      "reme": 2296,
      "uses": 2297,
      "verage": 2298,
      "!\"": 2299,
      "\u0120sat": 2300,
      "ww": 2301,
      "\u0120coming": 2302,
      "\u0120represent": 2303,
      "\u0120lo": 2304,
      "\u0120pick": 2305,
      "\u0120comment": 2306,
      "utions": 2307,
      "\u0120personal": 2308,
      "uly": 2309,
      "\u0120stat": 2310,
      "\u0120\u00e2\u0122\u0136": 2311,
      "back": 2312,
      "\u0120ann": 2313,
      "\u0120terms": 2314,
      "\u0120goes": 2315,
      "\u0120Man": 2316,
      "umb": 2317,
      "rown": 2318,
      "action": 2319,
      "\u0120felt": 2320,
      "\u0120higher": 2321,
      "eter": 2322,
      "\u0120needed": 2323,
      "itch": 2324,
      "96": 2325,
      "--------": 2326,
      "\u0120heard": 2327,
      "(\\": 2328,
      "\u0120States": 2329,
      "omes": 2330,
      "\u0120fire": 2331,
      "\u0120polic": 2332,
      "ressed": 2333,
      "\u0120Sy": 2334,
      "\u0120takes": 2335,
      "\u0120Col": 2336,
      "ster": 2337,
      "\u0120After": 2338,
      "\u0120bar": 2339,
      "33": 2340,
      "\u0120imm": 2341,
      "\u0120respons": 2342,
      "\u0120conv": 2343,
      "\u0120months": 2344,
      "\u0120ground": 2345,
      "ysis": 2346,
      "\u0120paper": 2347,
      "\u0120rele": 2348,
      ")$": 2349,
      "ilt": 2350,
      "\u0120remember": 2351,
      "vert": 2352,
      "\u0120pred": 2353,
      "\u0120subject": 2354,
      "\u0120living": 2355,
      "\u0120enjoy": 2356,
      "\u0120indust": 2357,
      "\u0120language": 2358,
      "\u0120deep": 2359,
      "\u0120mention": 2360,
      "\u0120position": 2361,
      "unch": 2362,
      "eth": 2363,
      "ray": 2364,
      "atter": 2365,
      "\u0120dark": 2366,
      "\u0120cred": 2367,
      "\u0120mother": 2368,
      "mber": 2369,
      "\u0120relationship": 2370,
      "usion": 2371,
      "osp": 2372,
      "\u0120require": 2373,
      "\u0120code": 2374,
      "\u0120crit": 2375,
      "ourn": 2376,
      "Re": 2377,
      "\u0120spend": 2378,
      "\u0120bi": 2379,
      "mp": 2380,
      "\u0120sens": 2381,
      "crib": 2382,
      "}.": 2383,
      "Al": 2384,
      "play": 2385,
      "\u0120thinking": 2386,
      "\u0120soon": 2387,
      "antly": 2388,
      "\u0120leave": 2389,
      "\u0120rul": 2390,
      "\u0120various": 2391,
      "\u0120gets": 2392,
      "OR": 2393,
      "\u0120Europe": 2394,
      "\u0120hor": 2395,
      "using": 2396,
      "AS": 2397,
      "\u0120Sch": 2398,
      "book": 2399,
      "\u0120Why": 2400,
      "\u0120ill": 2401,
      "\u0120By": 2402,
      "\u0120ste": 2403,
      "reg": 2404,
      "ued": 2405,
      "To": 2406,
      "\u0120file": 2407,
      "\u0120outside": 2408,
      "\u0120behav": 2409,
      "iding": 2410,
      "\u0120search": 2411,
      "\u0120div": 2412,
      "\u0120}": 2413,
      "\u0120yourself": 2414,
      "oved": 2415,
      "ification": 2416,
      "\u0120doc": 2417,
      "\u0120Me": 2418,
      "mon": 2419,
      "\u0120port": 2420,
      "\u0120compan": 2421,
      "chie": 2422,
      "ctions": 2423,
      "iddle": 2424,
      "af": 2425,
      "\u0120development": 2426,
      "\u0120pull": 2427,
      "That": 2428,
      "\u0120five": 2429,
      "begin": 2430,
      "95": 2431,
      "\u0120issues": 2432,
      "\u0120Just": 2433,
      "\u0120target": 2434,
      "\u0120worth": 2435,
      "lt": 2436,
      "\u0120stuff": 2437,
      "\u0120Ob": 2438,
      "ement": 2439,
      "ring": 2440,
      "\u0120Pe": 2441,
      "uge": 2442,
      "\u0120environment": 2443,
      "\u0120service": 2444,
      "hem": 2445,
      "gress": 2446,
      "\u0120students": 2447,
      "sec": 2448,
      "****": 2449,
      "\u0120boy": 2450,
      "\u0120risk": 2451,
      "\u0120\u00c2": 2452,
      "IS": 2453,
      "itary": 2454,
      "\u0120include": 2455,
      "32": 2456,
      "aged": 2457,
      "\u0120cy": 2458,
      "ze": 2459,
      "\u0120educ": 2460,
      "\u0120size": 2461,
      "\u0120init": 2462,
      "''": 2463,
      "012": 2464,
      "hers": 2465,
      "\u0120speak": 2466,
      "\u0120protect": 2467,
      "\u0120interesting": 2468,
      "\u0120Su": 2469,
      "\u0120turned": 2470,
      "ables": 2471,
      "\u0120inside": 2472,
      "medi": 2473,
      "\u0120America": 2474,
      "\u0120rate": 2475,
      "____": 2476,
      "\u0120shows": 2477,
      "\u0120media": 2478,
      "\u0120associ": 2479,
      "aving": 2480,
      "\u0120ones": 2481,
      "\u0120attempt": 2482,
      "\u0120Car": 2483,
      "\u0120previous": 2484,
      "etic": 2485,
      "\u0120ep": 2486,
      "\u0120lost": 2487,
      "\u0120action": 2488,
      "erc": 2489,
      "\u0120minutes": 2490,
      "\u0120slow": 2491,
      "\u0120blog": 2492,
      "oor": 2493,
      "\u0120hear": 2494,
      "\u0120myself": 2495,
      "\u0120Your": 2496,
      "apt": 2497,
      "ili": 2498,
      "\u0120sn": 2499,
      "\u0120changes": 2500,
      "\u0120page": 2501,
      "\u0120Qu": 2502,
      "\u0120maybe": 2503,
      "\u0120Gr": 2504,
      "ped": 2505,
      "ober": 2506,
      "unk": 2507,
      "onse": 2508,
      "\u0120approach": 2509,
      "\u0120path": 2510,
      "\u0120War": 2511,
      "36": 2512,
      "\u0120online": 2513,
      "fl": 2514,
      "ences": 2515,
      "\u0120camp": 2516,
      "\u0120write": 2517,
      "ocr": 2518,
      "\u0120members": 2519,
      "\u0120party": 2520,
      "ero": 2521,
      "\u0120distrib": 2522,
      "\u0120systems": 2523,
      "\u0120content": 2524,
      "\u0120correct": 2525,
      "\u0120writing": 2526,
      "osing": 2527,
      "ming": 2528,
      "\u0120chall": 2529,
      "\u0120mach": 2530,
      "bo": 2531,
      "\u0120complex": 2532,
      "\u0120effort": 2533,
      "\u0120Gu": 2534,
      "\u0120imag": 2535,
      "Sh": 2536,
      "\u0120movie": 2537,
      "}{": 2538,
      "\u0120viol": 2539,
      "\u0120evidence": 2540,
      "010": 2541,
      "\u0120exc": 2542,
      "\u0120aud": 2543,
      "aves": 2544,
      "\u0120\u0120\u0120\u0120\u0120\u0120": 2545,
      "itted": 2546,
      "\u0120profess": 2547,
      "\u0120million": 2548,
      "\u0120tool": 2549,
      "\u0120talking": 2550,
      "70": 2551,
      "\u0120dead": 2552,
      "atures": 2553,
      "\u0120prim": 2554,
      "\u0120En": 2555,
      "\u0120natural": 2556,
      "rightarrow": 2557,
      "overed": 2558,
      "oph": 2559,
      "berg": 2560,
      "oe": 2561,
      "\u0120review": 2562,
      "011": 2563,
      "icient": 2564,
      "icro": 2565,
      "\u0120video": 2566,
      "\u0120father": 2567,
      "\u0120became": 2568,
      "013": 2569,
      "anger": 2570,
      "\u0120role": 2571,
      "ev": 2572,
      "\u0120?": 2573,
      "\u0120door": 2574,
      "\u0120running": 2575,
      "ensive": 2576,
      "cript": 2577,
      "urch": 2578,
      "cious": 2579,
      "\u0120weight": 2580,
      "ached": 2581,
      "\u0120news": 2582,
      "\u0120began": 2583,
      "time": 2584,
      "\u0120squ": 2585,
      "48": 2586,
      "\u0120purp": 2587,
      "\u0120serious": 2588,
      "stit": 2589,
      "\u0120reading": 2590,
      "\u0120affect": 2591,
      "\u0120sell": 2592,
      "\u0120happened": 2593,
      "\u0120perfect": 2594,
      "AT": 2595,
      "\u0120sometimes": 2596,
      "ilities": 2597,
      "\u0120sleep": 2598,
      "izing": 2599,
      "\u0120Ed": 2600,
      "\u0120series": 2601,
      "aff": 2602,
      "\u0120knowledge": 2603,
      "\u0120Gen": 2604,
      "\u0120block": 2605,
      "\u0120concern": 2606,
      "\u0120mis": 2607,
      "arning": 2608,
      "add": 2609,
      "\u0120lower": 2610,
      "oms": 2611,
      "\u0120version": 2612,
      "off": 2613,
      "amed": 2614,
      "\u0120compet": 2615,
      "::": 2616,
      "\u0120completely": 2617,
      "\u0120states": 2618,
      "ises": 2619,
      "\u0120App": 2620,
      "].": 2621,
      "\u0120University": 2622,
      "obal": 2623,
      "lim": 2624,
      "deriv": 2625,
      "\u0120cases": 2626,
      "38": 2627,
      "ese": 2628,
      "\u0120difference": 2629,
      "\u0120created": 2630,
      "\u0120York": 2631,
      "37": 2632,
      "31": 2633,
      "ram": 2634,
      "\u0120pack": 2635,
      "ha": 2636,
      "goal": 2637,
      "\u0120fix": 2638,
      "ening": 2639,
      "\u0120site": 2640,
      "lex": 2641,
      "\u0120indic": 2642,
      "\u0120Af": 2643,
      "\u0120source": 2644,
      "idered": 2645,
      "\u0120send": 2646,
      "My": 2647,
      "\u0120Per": 2648,
      "\u0120written": 2649,
      "\u0120original": 2650,
      "\u0120dru": 2651,
      "\u0120recogn": 2652,
      "rm": 2653,
      "bit": 2654,
      "\u0120gave": 2655,
      "frac": 2656,
      "008": 2657,
      "atever": 2658,
      "\u0120situation": 2659,
      "\u0120separ": 2660,
      "ny": 2661,
      "chan": 2662,
      "\u0120song": 2663,
      "\u0120potential": 2664,
      "come": 2665,
      "\u0120observ": 2666,
      "\u0120Well": 2667,
      "\u0120Sec": 2668,
      "\u0120hot": 2669,
      "\u0120except": 2670,
      "AL": 2671,
      "\u0120regard": 2672,
      "\u0120dig": 2673,
      "unt": 2674,
      "\u0120image": 2675,
      "\u0120exactly": 2676,
      "\u0120couple": 2677,
      "\u0120community": 2678,
      "\u0120concept": 2679,
      "inci": 2680,
      "\u0120share": 2681,
      "ival": 2682,
      "\u0120kids": 2683,
      "\u0120fair": 2684,
      "\u0120tried": 2685,
      "sych": 2686,
      "wise": 2687,
      "\u0120Don": 2688,
      "\u0120nature": 2689,
      "\u0120force": 2690,
      "\u0120lives": 2691,
      "\u0120ut": 2692,
      "\u0120achie": 2693,
      "tr": 2694,
      "ID": 2695,
      "era": 2696,
      "\u0120hon": 2697,
      "\u0120brain": 2698,
      "ivil": 2699,
      "\u0120Fl": 2700,
      "het": 2701,
      "\u0120sil": 2702,
      "\u0120below": 2703,
      "34": 2704,
      "\u0120quickly": 2705,
      "\u0120coun": 2706,
      "ecause": 2707,
      "\u0120bed": 2708,
      "\u0120surpr": 2709,
      "\u0120extra": 2710,
      "\u0120Mc": 2711,
      "\u0120table": 2712,
      "\u0120companies": 2713,
      "\u0120coll": 2714,
      "\u0120considered": 2715,
      "attle": 2716,
      "\u0120appear": 2717,
      "\u0120increase": 2718,
      "\u0120picture": 2719,
      "ana": 2720,
      "\u0120towards": 2721,
      "\u0120building": 2722,
      "\u0120wonder": 2723,
      "sequ": 2724,
      "009": 2725,
      "\u0120Pres": 2726,
      "\u0120normal": 2727,
      "\u0120price": 2728,
      "\u0120tend": 2729,
      "\u0120yes": 2730,
      "\u0120circ": 2731,
      "\u0120influ": 2732,
      "\u0120Brit": 2733,
      "\u0120den": 2734,
      "\u0120jud": 2735,
      "irit": 2736,
      "ran": 2737,
      "ades": 2738,
      "\u0120Will": 2739,
      "\u0120games": 2740,
      "ishing": 2741,
      "\u0120World": 2742,
      "\u0120relative": 2743,
      "_{\\": 2744,
      "\u0120fear": 2745,
      "\u0120beaut": 2746,
      "\u0120\u00d0": 2747,
      "\u0120oil": 2748,
      "\u0120cross": 2749,
      "\u0120Ge": 2750,
      "\u0120Germ": 2751,
      "asons": 2752,
      "mit": 2753,
      "\u0120address": 2754,
      "\u0120rev": 2755,
      "\u0120store": 2756,
      "ruction": 2757,
      "\u0120dise": 2758,
      "\u0120countries": 2759,
      "oul": 2760,
      "\u0120manage": 2761,
      "\u0120describ": 2762,
      "\u0120track": 2763,
      "\u0120impact": 2764,
      "\u0120looks": 2765,
      "ops": 2766,
      "007": 2767,
      "\u0120forward": 2768,
      "\u0120contrib": 2769,
      "\u0120physical": 2770,
      "\u0120clean": 2771,
      "ened": 2772,
      "\u0120attention": 2773,
      "erson": 2774,
      "\u0120theory": 2775,
      "\u0120consum": 2776,
      "aught": 2777,
      "pping": 2778,
      "ga": 2779,
      "\u0120ri": 2780,
      "lying": 2781,
      "~\\": 2782,
      "\u0120loss": 2783,
      "isc": 2784,
      "\u0120technology": 2785,
      "arily": 2786,
      "more": 2787,
      "\u0120truth": 2788,
      "\u0120network": 2789,
      "\u0120lack": 2790,
      "inary": 2791,
      "zy": 2792,
      "\u0120percent": 2793,
      "\u0120Go": 2794,
      "\u0120eat": 2795,
      "\u0120obvious": 2796,
      "\u0120^": 2797,
      "\u0120opportun": 2798,
      "\u0120society": 2799,
      "016": 2800,
      "\u0120nice": 2801,
      "\u0120wouldn": 2802,
      "\u0120learning": 2803,
      "\u0120scient": 2804,
      "eah": 2805,
      "\u0120stri": 2806,
      "\u0120agre": 2807,
      "illed": 2808,
      "\u0120sun": 2809,
      "alls": 2810,
      "ceed": 2811,
      "44": 2812,
      "uk": 2813,
      "\u0120foot": 2814,
      "\u0120fast": 2815,
      "\u0120Tw": 2816,
      "ground": 2817,
      "tain": 2818,
      "\u0120\u00e2": 2819,
      "\u0120Har": 2820,
      "oring": 2821,
      "\u0120couldn": 2822,
      "\u0120fac": 2823,
      "\u0120ability": 2824,
      "\u0120effects": 2825,
      "\u0120guess": 2826,
      "ems": 2827,
      "\u0120hit": 2828,
      "nces": 2829,
      "\u0120meaning": 2830,
      "?\u00e2\u0122\u013f": 2831,
      "osition": 2832,
      "\u0120Part": 2833,
      "ension": 2834,
      "irth": 2835,
      "uted": 2836,
      "\u0120English": 2837,
      "atory": 2838,
      "\u0120cells": 2839,
      "\u0120Ab": 2840,
      "epend": 2841,
      "##": 2842,
      "\u0120swe": 2843,
      "\u0120length": 2844,
      "\u0120range": 2845,
      "\u0120Cent": 2846,
      "ino": 2847,
      "fort": 2848,
      "olar": 2849,
      "\u0120finan": 2850,
      "RE": 2851,
      "\u0120sus": 2852,
      "olic": 2853,
      "55": 2854,
      "\u0120analysis": 2855,
      "uel": 2856,
      "\u0120computer": 2857,
      "\u0120webs": 2858,
      "\u0120bott": 2859,
      "()": 2860,
      "urt": 2861,
      "\u0120Med": 2862,
      "On": 2863,
      "\u0120continue": 2864,
      "\u0120jo": 2865,
      "\u0120introdu": 2866,
      "\u0120guy": 2867,
      "\u0120Jan": 2868,
      "\u0120Im": 2869,
      "cription": 2870,
      "\u0120total": 2871,
      "\u0120sam": 2872,
      "NA": 2873,
      "astic": 2874,
      "\u0120tit": 2875,
      "\u0120card": 2876,
      "\u00c2\u0142\u00c2\u0142\u00c2\u0142": 2877,
      "\u0120poor": 2878,
      "\u0120popular": 2879,
      "\u0120late": 2880,
      "\u0120feeling": 2881,
      "\u0120collect": 2882,
      "\u0120Ne": 2883,
      "oes": 2884,
      "yond": 2885,
      "\u0120While": 2886,
      "load": 2887,
      "\u0120improve": 2888,
      "\u0120\u00c2\u0142\u0120\u00c2\u0142": 2889,
      "\u0120response": 2890,
      "\u0120engine": 2891,
      "ibly": 2892,
      "\u0120groups": 2893,
      "\u0120quality": 2894,
      "\u0120necessary": 2895,
      "39": 2896,
      "IC": 2897,
      "\u0120performance": 2898,
      "arth": 2899,
      "47": 2900,
      "ta": 2901,
      "\u0120Even": 2902,
      "duct": 2903,
      "\u0120experien": 2904,
      "su": 2905,
      "ief": 2906,
      "\u0120parents": 2907,
      "\u0120required": 2908,
      "anced": 2909,
      "\u0120Art": 2910,
      "\u0120hair": 2911,
      "\u0120deg": 2912,
      "gest": 2913,
      "\u0120liter": 2914,
      "Ex": 2915,
      "\u0120books": 2916,
      "\u0120alone": 2917,
      "\u0120happy": 2918,
      "II": 2919,
      "apan": 2920,
      "\u0120travel": 2921,
      "cell": 2922,
      "\u0120phone": 2923,
      "omb": 2924,
      "ivity": 2925,
      "Is": 2926,
      "\u0120voice": 2927,
      "\u0120bab": 2928,
      "ned": 2929,
      "Con": 2930,
      "\u0120multip": 2931,
      "\u0120recent": 2932,
      "abel": 2933,
      "\u0120estab": 2934,
      "46": 2935,
      "\u0120ver": 2936,
      "\u0120involved": 2937,
      "\u0120Cal": 2938,
      "\u0120shall": 2939,
      "\u0120son": 2940,
      "\u0120ign": 2941,
      "ucle": 2942,
      "\u0120parts": 2943,
      "They": 2944,
      "\u0120favor": 2945,
      "\u0120inte": 2946,
      "erve": 2947,
      "\u0120emot": 2948,
      "\u0120immedi": 2949,
      "just": 2950,
      "\u0120user": 2951,
      "\u0120frequ": 2952,
      "\u0120Russ": 2953,
      "\u0120communic": 2954,
      "agn": 2955,
      "\u0120offer": 2956,
      "ales": 2957,
      "\u0120skin": 2958,
      "omp": 2959,
      "014": 2960,
      "ournal": 2961,
      "\u0120decided": 2962,
      ">\\<": 2963,
      "\u0120agree": 2964,
      "pite": 2965,
      "\u0120Let": 2966,
      "proof": 2967,
      "rict": 2968,
      "\u0120easily": 2969,
      "\u0120levels": 2970,
      "\u0120sold": 2971,
      "\u0120cover": 2972,
      "\u0120TH": 2973,
      "\u0120...": 2974,
      "olute": 2975,
      "AC": 2976,
      "\u0120extreme": 2977,
      "\u0120safe": 2978,
      "\u0120science": 2979,
      "\u0120military": 2980,
      "One": 2981,
      "eq": 2982,
      "yl": 2983,
      "cient": 2984,
      "\u0120bal": 2985,
      "\u0120modern": 2986,
      "\u0120threat": 2987,
      "\u0120tou": 2988,
      "\u0120structure": 2989,
      "\u0120wants": 2990,
      "dom": 2991,
      "\u0120final": 2992,
      "\u0120\u00ce": 2993,
      "\u0120huge": 2994,
      "\u0120reach": 2995,
      "\u0120drink": 2996,
      "\u0120surv": 2997,
      "\u0120Of": 2998,
      "\u0120heav": 2999,
      "\u0120chance": 3000,
      "05": 3001,
      "\u0120stru": 3002,
      "\u0120Int": 3003,
      "\u0120types": 3004,
      "\u0120areas": 3005,
      "\u0120ple": 3006,
      "\u0120third": 3007,
      "\u0120perhaps": 3008,
      "hel": 3009,
      "\u0120road": 3010,
      "\u0120Cont": 3011,
      "\u0120aren": 3012,
      "\u0120ens": 3013,
      "\u0120temper": 3014,
      "\u0120speed": 3015,
      "iam": 3016,
      "irm": 3017,
      "\u0120morning": 3018,
      "\u0120standard": 3019,
      "oses": 3020,
      "\u0120occur": 3021,
      "\u0120numbers": 3022,
      "\u0120fem": 3023,
      "urd": 3024,
      "\u0120finally": 3025,
      "udd": 3026,
      "\u0120avoid": 3027,
      "\u0120security": 3028,
      "\u0120wide": 3029,
      "\u0120events": 3030,
      "inally": 3031,
      "uments": 3032,
      "ada": 3033,
      "\u0120police": 3034,
      "ball": 3035,
      "aling": 3036,
      "\u0120Comm": 3037,
      "\u0120services": 3038,
      "\u0120ce": 3039,
      "\u0120vot": 3040,
      "\u0120da": 3041,
      "\u0120focus": 3042,
      "artment": 3043,
      "\u0120held": 3044,
      "\u0120brought": 3045,
      "\u0120Here": 3046,
      "\u0120gives": 3047,
      "\u0120gun": 3048,
      "\u0120gas": 3049,
      "\u0120dro": 3050,
      "\u0120conditions": 3051,
      "rest": 3052,
      "\u0120experim": 3053,
      "\u0120Intern": 3054,
      "\u0120>": 3055,
      "aul": 3056,
      "Why": 3057,
      "\u0120Jew": 3058,
      "\u0120;": 3059,
      "\u0120rights": 3060,
      "\u0120cat": 3061,
      "\u0120economic": 3062,
      "\u0120products": 3063,
      "07": 3064,
      "\u0120added": 3065,
      "\u0120Yes": 3066,
      "ky": 3067,
      "\u0120decl": 3068,
      "\u0120regular": 3069,
      "\u0120fine": 3070,
      "itude": 3071,
      "\u0120Dr": 3072,
      "with": 3073,
      "imum": 3074,
      "ux": 3075,
      "ties": 3076,
      "iles": 3077,
      "hood": 3078,
      "She": 3079,
      "\u0120recomm": 3080,
      "icles": 3081,
      "\u0120publ": 3082,
      "king": 3083,
      "\u0120cool": 3084,
      "amb": 3085,
      "\u0120playing": 3086,
      "$,": 3087,
      "\u0120ord": 3088,
      "\u0120Mus": 3089,
      "\u0120population": 3090,
      "itation": 3091,
      "\u0120comments": 3092,
      "Ph": 3093,
      "\u0120shown": 3094,
      "\u0120training": 3095,
      "col": 3096,
      "\u0120host": 3097,
      "\u0120mechan": 3098,
      "hold": 3099,
      "\u0120choice": 3100,
      "\u0120draw": 3101,
      "\u0120gone": 3102,
      "\u0120box": 3103,
      "06": 3104,
      "\u0120characters": 3105,
      "\u0120ur": 3106,
      "\u0120vict": 3107,
      "\u0120related": 3108,
      "ees": 3109,
      "\u0120measure": 3110,
      "\u0120weeks": 3111,
      "\u0120breat": 3112,
      "\u0120flow": 3113,
      "\u0120town": 3114,
      "ounds": 3115,
      "\u0120whatever": 3116,
      "cies": 3117,
      "\u0120fa": 3118,
      "\u0120ir": 3119,
      "\u0120according": 3120,
      "\u0120princi": 3121,
      "\u0120dream": 3122,
      "IT": 3123,
      "idge": 3124,
      "\u0120production": 3125,
      "\u0120demon": 3126,
      "\u0120practice": 3127,
      "\u0120fell": 3128,
      "At": 3129,
      "\u0120prevent": 3130,
      "ously": 3131,
      "\u0120base": 3132,
      "lation": 3133,
      "\u0120solution": 3134,
      "\u0120Project": 3135,
      "\u0120cam": 3136,
      "\u0120rock": 3137,
      "\u0120convers": 3138,
      "\u0120bank": 3139,
      "that": 3140,
      "bed": 3141,
      "\u0120del": 3142,
      "but": 3143,
      "\u0120worked": 3144,
      "\u0120growth": 3145,
      "rs": 3146,
      "\u0120positive": 3147,
      "\u0120understanding": 3148,
      "],": 3149,
      "\u0120culture": 3150,
      "\u0120feed": 3151,
      "\u0120credit": 3152,
      "\u0120opin": 3153,
      "ager": 3154,
      "oura": 3155,
      "ament": 3156,
      "\u0120certainly": 3157,
      "lier": 3158,
      "\u0120doub": 3159,
      "\u0120Dem": 3160,
      "\u0120changed": 3161,
      "\u0120policy": 3162,
      "eff": 3163,
      "mission": 3164,
      "\u0120earth": 3165,
      "\u0120assum": 3166,
      "\u0120industry": 3167,
      "\u0120thous": 3168,
      "\u0120software": 3169,
      "ara": 3170,
      "\u0120national": 3171,
      "\u0120Co": 3172,
      "da": 3173,
      "fact": 3174,
      "ken": 3175,
      "\u0120fat": 3176,
      "\u0120color": 3177,
      "\u0120significant": 3178,
      "\u0120contact": 3179,
      "\u0120document": 3180,
      "uten": 3181,
      "aries": 3182,
      "\u0120ideas": 3183,
      "\u0120values": 3184,
      "AM": 3185,
      "\u0120President": 3186,
      "pre": 3187,
      "\u0120cry": 3188,
      "ii": 3189,
      "\u0120six": 3190,
      "\u0120decision": 3191,
      "hib": 3192,
      "08": 3193,
      "\u0120addition": 3194,
      "oly": 3195,
      "\u0120court": 3196,
      "\u0120sett": 3197,
      "\u0120arch": 3198,
      "\u0120giving": 3199,
      "Un": 3200,
      "\u0120reve": 3201,
      "US": 3202,
      "key": 3203,
      "Le": 3204,
      "\u0120piece": 3205,
      "\u0120figure": 3206,
      "\u0120Us": 3207,
      "49": 3208,
      "bf": 3209,
      "\u0120happens": 3210,
      "\u0120investig": 3211,
      "\u0120reasons": 3212,
      "\u0120deli": 3213,
      "aur": 3214,
      "rael": 3215,
      "Cl": 3216,
      "pha": 3217,
      "no": 3218,
      "\u0120middle": 3219,
      "rit": 3220,
      "\u0120seemed": 3221,
      "Med": 3222,
      "\u0120Min": 3223,
      "\u0120Her": 3224,
      "undred": 3225,
      "\u0120Japan": 3226,
      "\u0120thus": 3227,
      "\u0120teach": 3228,
      "\u0120pen": 3229,
      "\u0120exec": 3230,
      "atives": 3231,
      "\u0120choose": 3232,
      "\u0120office": 3233,
      "OS": 3234,
      "part": 3235,
      "ald": 3236,
      "\u0120private": 3237,
      "\u0120King": 3238,
      "oup": 3239,
      "\u0120Sm": 3240,
      "\u0120treatment": 3241,
      "\u0120streng": 3242,
      "\u0120autom": 3243,
      "urance": 3244,
      "pper": 3245,
      "\u0120wife": 3246,
      "ellig": 3247,
      "order": 3248,
      "ashing": 3249,
      "\u0120teac": 3250,
      "\u0120beyond": 3251,
      "Now": 3252,
      "\u0120Most": 3253,
      "\u0120average": 3254,
      "rows": 3255,
      "\u0120compl": 3256,
      "\u0120reality": 3257,
      "\u0120`": 3258,
      "\u0120multiple": 3259,
      "\u0120whose": 3260,
      "\">": 3261,
      "\u0120lif": 3262,
      "\u0120\u0120\u0120\u0120\u0120\u0120\u0120\u0120\u0120": 3263,
      "\u0120cand": 3264,
      "65": 3265,
      "09": 3266,
      "ris": 3267,
      "\u0120arri": 3268,
      "def": 3269,
      "Pro": 3270,
      "aughter": 3271,
      "ED": 3272,
      "\u0120contr": 3273,
      "\u0120although": 3274,
      "015": 3275,
      "org": 3276,
      "\u0120und": 3277,
      "pir": 3278,
      "\u0120Dav": 3279,
      "minist": 3280,
      "\u0120note": 3281,
      "iled": 3282,
      "006": 3283,
      "\u0120drive": 3284,
      "\u0120China": 3285,
      "\u0120El": 3286,
      "\u0120allowed": 3287,
      "\u0120inn": 3288,
      "\u0120ten": 3289,
      "\u0120directly": 3290,
      "imin": 3291,
      "$.": 3292,
      "\u0120trust": 3293,
      "resp": 3294,
      "\u0120pressure": 3295,
      "this": 3296,
      "TATE": 3297,
      "\u0120Every": 3298,
      "eta": 3299,
      "\u0120rules": 3300,
      "\u0120capt": 3301,
      "\u0120uses": 3302,
      "\u0120Ag": 3303,
      "\u0120pan": 3304,
      "which": 3305,
      "\u0120Act": 3306,
      "iful": 3307,
      "\u0120Also": 3308,
      "\u0120Aug": 3309,
      "\u0120spect": 3310,
      "\u0120capital": 3311,
      "ronic": 3312,
      "\u0120quant": 3313,
      "\u0120please": 3314,
      "\u0120anti": 3315,
      "enty": 3316,
      "\u0120civil": 3317,
      "\u0120ready": 3318,
      "\u0120implement": 3319,
      "\u0120Des": 3320,
      "\u0120fit": 3321,
      "\u0120\u0120\u0120\u0120\u0120\u0120\u0120\u0120\u0120\u0120\u0120\u0120\u0120\u0120\u0120": 3322,
      "\u0120generally": 3323,
      "rench": 3324,
      "\u0120arm": 3325,
      "\u0120weap": 3326,
      "\u0120web": 3327,
      "All": 3328,
      "\u0120legal": 3329,
      "Be": 3330,
      "itely": 3331,
      "\u0120financial": 3332,
      "\u0120Bar": 3333,
      "\u0120knows": 3334,
      "\u0120cold": 3335,
      "room": 3336,
      "rupt": 3337,
      "\u0120purpose": 3338,
      "\u0120moving": 3339,
      "\u0120feet": 3340,
      "\u0120roll": 3341,
      "\u0120consist": 3342,
      "aging": 3343,
      "onym": 3344,
      "\u0120star": 3345,
      "ping": 3346,
      "\u0120spirit": 3347,
      "\u0120Char": 3348,
      "\u0120Obama": 3349,
      "\u0120der": 3350,
      "ongrightarrow": 3351,
      "\u0120North": 3352,
      "irection": 3353,
      "\u0120aware": 3354,
      "\u0120gold": 3355,
      "\u0120More": 3356,
      "zz": 3357,
      "\u0120prep": 3358,
      "\u0120Aust": 3359,
      "\u0120Republic": 3360,
      "\u0120upd": 3361,
      "\u0120global": 3362,
      "\u0120vs": 3363,
      "ror": 3364,
      "\u0120Jes": 3365,
      "\u0120lines": 3366,
      "\u0120save": 3367,
      "\u0120message": 3368,
      "apter": 3369,
      "\u0120doll": 3370,
      "\u0120Cor": 3371,
      "OT": 3372,
      "aly": 3373,
      "ners": 3374,
      "By": 3375,
      "\u0120pc": 3376,
      "\u0120medical": 3377,
      "\u0120actual": 3378,
      "\u00d0\u00b0": 3379,
      "\u0120leaders": 3380,
      "\u0120slight": 3381,
      "\u00d0\u00b5": 3382,
      "iday": 3383,
      "ech": 3384,
      "\u0120copy": 3385,
      "iny": 3386,
      "\u0120warm": 3387,
      "\u0120option": 3388,
      "\u0120repe": 3389,
      "LL": 3390,
      "omen": 3391,
      "band": 3392,
      "75": 3393,
      "\u0120built": 3394,
      "ederal": 3395,
      "airs": 3396,
      "\u0120president": 3397,
      "\u0120select": 3398,
      "\u0120recently": 3399,
      "\u0120screen": 3400,
      "\u0120surface": 3401,
      "ham": 3402,
      "ests": 3403,
      "word": 3404,
      "\u0120brother": 3405,
      "\u0120dat": 3406,
      "\u0120psych": 3407,
      "alse": 3408,
      "label": 3409,
      "lection": 3410,
      "\u0120fra": 3411,
      "how": 3412,
      "\u0120mix": 3413,
      "\u0120season": 3414,
      "\u0120pattern": 3415,
      "what": 3416,
      "nes": 3417,
      "\u0120mist": 3418,
      "\u0120email": 3419,
      "\u0120sequ": 3420,
      "\u0120Because": 3421,
      "\u0120ball": 3422,
      "men": 3423,
      "\u0120style": 3424,
      "\u0120Afric": 3425,
      "\u0120guys": 3426,
      "\u0120therefore": 3427,
      "based": 3428,
      "pri": 3429,
      "oming": 3430,
      "\u0120Par": 3431,
      "\u0120emer": 3432,
      "\u00d0\u00be": 3433,
      "\u0120property": 3434,
      "\u0120command": 3435,
      "\u0120led": 3436,
      "arp": 3437,
      "\u0120effective": 3438,
      "\u0120absolute": 3439,
      "\u0120hundred": 3440,
      "\u0120becomes": 3441,
      "\u0120South": 3442,
      "03": 3443,
      "uary": 3444,
      "\u0120cook": 3445,
      "new": 3446,
      "ession": 3447,
      "vant": 3448,
      "\u0120basic": 3449,
      "\u0120birth": 3450,
      "\u0120website": 3451,
      "ius": 3452,
      "state": 3453,
      "\u0120behavior": 3454,
      "\u0120danger": 3455,
      "isions": 3456,
      "\u0120features": 3457,
      "\u0120beginning": 3458,
      "\u0120prote": 3459,
      "\u0120carry": 3460,
      "\u0120wrote": 3461,
      "\u0120Ke": 3462,
      "\u0120eye": 3463,
      "\u0120models": 3464,
      "\u0120Google": 3465,
      "04": 3466,
      "han": 3467,
      "64": 3468,
      "orrow": 3469,
      "\u0120official": 3470,
      "iced": 3471,
      "\u0120former": 3472,
      "\u0120particip": 3473,
      "005": 3474,
      "\u0120wait": 3475,
      "\u0120altern": 3476,
      "arc": 3477,
      "roy": 3478,
      "rely": 3479,
      "\u0120install": 3480,
      "iven": 3481,
      "\u0120condition": 3482,
      "aign": 3483,
      "see": 3484,
      "ights": 3485,
      "\u0120From": 3486,
      "200": 3487,
      "\u0120Gl": 3488,
      "hern": 3489,
      "\u0120context": 3490,
      "orks": 3491,
      "\u0120associated": 3492,
      "kk": 3493,
      "itiz": 3494,
      "\u0120explain": 3495,
      "\u0120places": 3496,
      "\u0120straight": 3497,
      "\u0120education": 3498,
      "\u0120useful": 3499,
      "\u0120movement": 3500,
      "\u0120particularly": 3501,
      "imal": 3502,
      "\u0120machine": 3503,
      "\u0120expected": 3504,
      "02": 3505,
      "\u0120disease": 3506,
      "\u0120independ": 3507,
      "\u0120stories": 3508,
      "\u0120Oct": 3509,
      "\u0120demand": 3510,
      "\u0120meant": 3511,
      "estern": 3512,
      "\u0120Sim": 3513,
      "\u0120ult": 3514,
      "\u0120provided": 3515,
      "\u0120Any": 3516,
      "ighb": 3517,
      "Not": 3518,
      "\u0120Spe": 3519,
      "ael": 3520,
      "itter": 3521,
      "imately": 3522,
      "\u0120shot": 3523,
      "cribe": 3524,
      "asc": 3525,
      "\u0120prior": 3526,
      "oles": 3527,
      "\u0120max": 3528,
      "mathcal": 3529,
      "\u0120bound": 3530,
      "\u0120clos": 3531,
      "\u0120allows": 3532,
      "\u0120)": 3533,
      "\u0120memory": 3534,
      "ilos": 3535,
      "kay": 3536,
      "ores": 3537,
      "\u0120_": 3538,
      "angle": 3539,
      "\u0120Israel": 3540,
      "\u0120date": 3541,
      "\u0120Apr": 3542,
      "\u0120State": 3543,
      "\u0120integr": 3544,
      "\u0120First": 3545,
      "\u0120band": 3546,
      "\u0120Rom": 3547,
      "\u0120broad": 3548,
      "rand": 3549,
      "\u0120section": 3550,
      "\u0120medic": 3551,
      "ani": 3552,
      "\u0120burn": 3553,
      "aches": 3554,
      "With": 3555,
      "\u0120via": 3556,
      "istance": 3557,
      "\u0120methods": 3558,
      "iation": 3559,
      "\u0120print": 3560,
      "\u0120histor": 3561,
      "\u0120wish": 3562,
      "rief": 3563,
      "\u0120harm": 3564,
      "\u0120nucle": 3565,
      "ils": 3566,
      "Ar": 3567,
      "\u0120rout": 3568,
      "dden": 3569,
      "\u0120paid": 3570,
      "\u0120century": 3571,
      "\u0120players": 3572,
      "\u0120load": 3573,
      "\u0120haven": 3574,
      "odes": 3575,
      "\u0120die": 3576,
      "entially": 3577,
      "\u0120liber": 3578,
      "\u0120Are": 3579,
      "500": 3580,
      "====": 3581,
      "earch": 3582,
      "\u0120unc": 3583,
      "ancy": 3584,
      "')": 3585,
      "\u0120grad": 3586,
      "\u0120IS": 3587,
      "\u0120Ste": 3588,
      "\u0120STE": 3589,
      "\u0120economy": 3590,
      "\u0120calcul": 3591,
      "\u0120goal": 3592,
      "\u0120purch": 3593,
      "orry": 3594,
      "\u0120wat": 3595,
      "\u0120vac": 3596,
      "\u0120visit": 3597,
      "htt": 3598,
      "fig": 3599,
      "ynam": 3600,
      "\u0120mouth": 3601,
      "\u0120activity": 3602,
      "\u0120played": 3603,
      "\u0120dog": 3604,
      "aled": 3605,
      "\u0120application": 3606,
      "\u0120kept": 3607,
      "ype": 3608,
      "\u0120unf": 3609,
      "\u0120green": 3610,
      "iant": 3611,
      "\u0120advant": 3612,
      "\u0120supposed": 3613,
      "inter": 3614,
      "\u0120sudden": 3615,
      "\u0120fing": 3616,
      "\u0120lat": 3617,
      "\u0120scen": 3618,
      "\u0120exerc": 3619,
      "rie": 3620,
      "\u0120costs": 3621,
      "\u0120Mon": 3622,
      "\u0120tele": 3623,
      "\u0120vote": 3624,
      "\u0120increasing": 3625,
      "\u0120damage": 3626,
      "\u0120ge": 3627,
      "\u0120laws": 3628,
      "nown": 3629,
      "aker": 3630,
      "017": 3631,
      "\u0120spent": 3632,
      "igma": 3633,
      "section": 3634,
      "ss": 3635,
      "isf": 3636,
      "\u0120secret": 3637,
      "gar": 3638,
      "cience": 3639,
      "comp": 3640,
      "\u0120larger": 3641,
      "\u0120chem": 3642,
      "\u0120Em": 3643,
      "\u0120killed": 3644,
      "umn": 3645,
      "year": 3646,
      "\u0120moved": 3647,
      "\u0120Earth": 3648,
      "ae": 3649,
      "\u0120cast": 3650,
      "\u0120trou": 3651,
      "\u0120developed": 3652,
      "\u0120strugg": 3653,
      "\u0120god": 3654,
      "\u0120hop": 3655,
      "iber": 3656,
      "\u0120clearly": 3657,
      "\u0120fuck": 3658,
      "\u0120bur": 3659,
      "\u0120produce": 3660,
      "\u0120studies": 3661,
      "\u0120sounds": 3662,
      "\u0120direction": 3663,
      "\u0120hom": 3664,
      "inct": 3665,
      "\u0120rule": 3666,
      "42": 3667,
      "iverse": 3668,
      "\u0120mentioned": 3669,
      "\u0120param": 3670,
      "41": 3671,
      "\u0120inj": 3672,
      "\u0120resources": 3673,
      "\u0120nearly": 3674,
      "\u0120seeing": 3675,
      "\u0120earlier": 3676,
      "la": 3677,
      "\u0120contract": 3678,
      "\u0120received": 3679,
      "\u0120TV": 3680,
      "mark": 3681,
      "\u0120plant": 3682,
      "onymous": 3683,
      "\u0120respond": 3684,
      "\u0120unique": 3685,
      "\u0120compon": 3686,
      "\u0120People": 3687,
      "well": 3688,
      "\u0120spread": 3689,
      "\u0120argument": 3690,
      "\u0120heat": 3691,
      "\u0120Inst": 3692,
      "pret": 3693,
      "\u0120STATE": 3694,
      "\u0120stock": 3695,
      "\u0120neighb": 3696,
      "\u0120patients": 3697,
      "\u0120enem": 3698,
      "\u0120pow": 3699,
      "\u0120users": 3700,
      "\u0120shoot": 3701,
      "ica": 3702,
      "gal": 3703,
      "\u0120powerful": 3704,
      "iling": 3705,
      "\u0120Christian": 3706,
      "\u0120Che": 3707,
      "\u0120options": 3708,
      "\u0120blue": 3709,
      "anc": 3710,
      "\u0120Add": 3711,
      "ube": 3712,
      "\u0120Jesus": 3713,
      "\u0120Sw": 3714,
      "\u0120learned": 3715,
      "resh": 3716,
      "\u0120greater": 3717,
      "\u0120species": 3718,
      "cast": 3719,
      "\u0120British": 3720,
      "urb": 3721,
      "\u0120aspect": 3722,
      "\u0120progress": 3723,
      "istics": 3724,
      "\u0120starting": 3725,
      "\u0120player": 3726,
      "Well": 3727,
      "\u0120htt": 3728,
      "88": 3729,
      "prove": 3730,
      "\u0120peace": 3731,
      "\u0120House": 3732,
      "\u0120provides": 3733,
      "LE": 3734,
      "\u0120negative": 3735,
      "\u0120limit": 3736,
      "56": 3737,
      "\u0120predict": 3738,
      "\u0120mer": 3739,
      "\u0120campaign": 3740,
      "\u0120individuals": 3741,
      "\u0120benefits": 3742,
      "\u0120Oh": 3743,
      "edom": 3744,
      "\u0120limited": 3745,
      "}(": 3746,
      "idth": 3747,
      "AP": 3748,
      "\u0120accur": 3749,
      "57": 3750,
      "box": 3751,
      "\u0120nation": 3752,
      "})": 3753,
      "lict": 3754,
      "\u0120STEP": 3755,
      "\u0120Mich": 3756,
      "\u0120mid": 3757,
      "\u0120immediately": 3758,
      "\u0120interested": 3759,
      "mar": 3760,
      "reci": 3761,
      "\u0120Comp": 3762,
      "\u0120id": 3763,
      "ls": 3764,
      "raw": 3765,
      "\u0120lose": 3766,
      "\u0120\u00c3": 3767,
      ",\\": 3768,
      "TS": 3769,
      "\u0120graph": 3770,
      "\u0120Sam": 3771,
      "\u0120Mark": 3772,
      "\u00e2\u0122\u013f.": 3773,
      "equation": 3774,
      "\u0120round": 3775,
      "OM": 3776,
      "\u0120followed": 3777,
      "\u0120factors": 3778,
      "\u0120caused": 3779,
      "\u0120analy": 3780,
      "\u0120easier": 3781,
      "\u0120touch": 3782,
      "004": 3783,
      "\u0120throughout": 3784,
      "RI": 3785,
      "\u0120names": 3786,
      "\u0120multi": 3787,
      "\u0120member": 3788,
      "nds": 3789,
      "\u0120Our": 3790,
      "Tr": 3791,
      "Here": 3792,
      "\u0120highly": 3793,
      "\u0120animals": 3794,
      "cont": 3795,
      "ubMed": 3796,
      "$\\": 3797,
      "azing": 3798,
      "001": 3799,
      "\u0120frame": 3800,
      "\u0120match": 3801,
      "\u0120esc": 3802,
      "\u0120flu": 3803,
      "43": 3804,
      "\u0120task": 3805,
      "\u0120stress": 3806,
      "\u0120contain": 3807,
      "\u0120comfort": 3808,
      "eration": 3809,
      "\u0120strength": 3810,
      "\u0120opportunity": 3811,
      "\u0120fully": 3812,
      "utenberg": 3813,
      "\u0120wood": 3814,
      "down": 3815,
      "><": 3816,
      "\u0120baby": 3817,
      "\u0120stick": 3818,
      "\u0120interview": 3819,
      "\u0120National": 3820,
      "you": 3821,
      "ague": 3822,
      "\u0120thoughts": 3823,
      "\u0120prec": 3824,
      "ulations": 3825,
      "ulate": 3826,
      "arian": 3827,
      "lin": 3828,
      "\u0120instance": 3829,
      "ked": 3830,
      "\u0120virt": 3831,
      "\u0120grand": 3832,
      "\u0120designed": 3833,
      "aven": 3834,
      "58": 3835,
      "\u0120Red": 3836,
      "\u0120expression": 3837,
      "enge": 3838,
      "\u0120Pol": 3839,
      "\u0120beautiful": 3840,
      "\u0120challeng": 3841,
      "\u0120nut": 3842,
      "\u0120passed": 3843,
      "\u0120religious": 3844,
      "cles": 3845,
      "\u0120onto": 3846,
      "\u0120wall": 3847,
      "atform": 3848,
      "\u0120See": 3849,
      "\u0120described": 3850,
      "\u0120mount": 3851,
      "\u0120magn": 3852,
      "\u0120belief": 3853,
      "\u0120Many": 3854,
      "\u0120additional": 3855,
      "orge": 3856,
      "\u0120Tra": 3857,
      "aint": 3858,
      "OU": 3859,
      "mpt": 3860,
      "\u0120stage": 3861,
      "\u0120compared": 3862,
      "\u0120Since": 3863,
      "lied": 3864,
      "\u0120scene": 3865,
      "\u0120West": 3866,
      "\u0120elements": 3867,
      "\u0120Dis": 3868,
      "alpha": 3869,
      "\u0120GO": 3870,
      "\u0120watching": 3871,
      "\u0120novel": 3872,
      "\u0120nor": 3873,
      "ags": 3874,
      "\u0120Cons": 3875,
      "abor": 3876,
      "ustr": 3877,
      "\u0120rand": 3878,
      "inese": 3879,
      "\u0120charge": 3880,
      "iers": 3881,
      "\u0120opinion": 3882,
      "\u0120cho": 3883,
      "\u0120Ser": 3884,
      "gn": 3885,
      "\u0120details": 3886,
      "\u0120died": 3887,
      "Pl": 3888,
      "kes": 3889,
      "aper": 3890,
      "rab": 3891,
      "\u0120hus": 3892,
      "\u0120fig": 3893,
      "actions": 3894,
      "\u0120forces": 3895,
      "\u0120Other": 3896,
      "Yes": 3897,
      "bon": 3898,
      "\u0120born": 3899,
      "ondon": 3900,
      "iver": 3901,
      "acter": 3902,
      "\u0120race": 3903,
      "round": 3904,
      "Do": 3905,
      "ett": 3906,
      "\u0120intellig": 3907,
      "izes": 3908,
      "mitted": 3909,
      "\u0120achieve": 3910,
      "rum": 3911,
      "\u0120trade": 3912,
      "\u0120cancer": 3913,
      "\u0120Like": 3914,
      "\u0120currently": 3915,
      "\u0120bill": 3916,
      "\u0120worse": 3917,
      "\u0120kid": 3918,
      "uman": 3919,
      "itable": 3920,
      "\u0120battle": 3921,
      "\u0120citiz": 3922,
      "\u0120remain": 3923,
      "wards": 3924,
      "\u0120demonstr": 3925,
      "\u0120title": 3926,
      "ortunately": 3927,
      "Longrightarrow": 3928,
      "\u0120subst": 3929,
      "cember": 3930,
      "ady": 3931,
      "ffic": 3932,
      "\u0120eventually": 3933,
      "ING": 3934,
      "orts": 3935,
      "\u0120dim": 3936,
      "EC": 3937,
      "\u0120statement": 3938,
      "gment": 3939,
      "othes": 3940,
      "\u0120wild": 3941,
      "\u0120recommend": 3942,
      "ternal": 3943,
      "\u0120floor": 3944,
      "\u0120vir": 3945,
      "Google": 3946,
      "opt": 3947,
      "\u0120increased": 3948,
      "oves": 3949,
      "mod": 3950,
      "brakk": 3951,
      "\u0120board": 3952,
      "\u0120region": 3953,
      "Oh": 3954,
      "\u0120management": 3955,
      "\u0120counter": 3956,
      "\u0120foreign": 3957,
      "\u0120enter": 3958,
      "\u0120helps": 3959,
      "\u0120willing": 3960,
      "\u0120release": 3961,
      "After": 3962,
      "\u0120Feb": 3963,
      "\u0120encoura": 3964,
      "\u0120random": 3965,
      "\u0120requires": 3966,
      "\u0120mut": 3967,
      "\u0120administ": 3968,
      "unction": 3969,
      "\u0120basis": 3970,
      "\u0120named": 3971,
      "\u0120ter": 3972,
      "inc": 3973,
      "\u0120truly": 3974,
      "respond": 3975,
      "\u0120hyp": 3976,
      "list": 3977,
      "\u0120notice": 3978,
      "\u0120display": 3979,
      "018": 3980,
      "\u0120tal": 3981,
      "\u0120Black": 3982,
      "\u0120French": 3983,
      "amma": 3984,
      "\u0120doubt": 3985,
      "\u0120mill": 3986,
      "\u0120mostly": 3987,
      "alt": 3988,
      "log": 3989,
      "\u0120degree": 3990,
      "\u0120tast": 3991,
      "\u0120conduct": 3992,
      "\u0120weak": 3993,
      "ategy": 3994,
      "\u0120August": 3995,
      "\u0120error": 3996,
      "\u0120actions": 3997,
      "\u0120pun": 3998,
      "\u0120appears": 3999,
      "ptember": 4000,
      "\u0120reported": 4001,
      "\u0120skills": 4002,
      "que": 4003,
      "002": 4004,
      "\u0120ang": 4005,
      "\u0120detect": 4006,
      "ulated": 4007,
      "\u0120insurance": 4008,
      "\u0120rob": 4009,
      "osis": 4010,
      "\u0120temperature": 4011,
      "\u0120rat": 4012,
      "\u0120growing": 4013,
      "tered": 4014,
      "\u0120reduce": 4015,
      "\u0120meeting": 4016,
      "change": 4017,
      "adem": 4018,
      "\u0120creating": 4019,
      "asion": 4020,
      "\u0120thank": 4021,
      "atur": 4022,
      "\u0120center": 4023,
      "\u0120input": 4024,
      "\u0120majority": 4025,
      "Let": 4026,
      "\u0120cru": 4027,
      "ET": 4028,
      "\u0120Paul": 4029,
      "riage": 4030,
      "clus": 4031,
      "\u0120college": 4032,
      "\u0120arms": 4033,
      "ifying": 4034,
      "\u0120reflect": 4035,
      "}_": 4036,
      "ufact": 4037,
      "spe": 4038,
      "pective": 4039,
      "\u0120continu": 4040,
      "\u00d0\u00b8": 4041,
      "\u0120express": 4042,
      "\u0120II": 4043,
      "\u0120AN": 4044,
      "\u0120drug": 4045,
      "\u0120included": 4046,
      "\u0120stream": 4047,
      "\u0120published": 4048,
      ".[": 4049,
      "ek": 4050,
      "\u0120apply": 4051,
      "\u0120functions": 4052,
      "\u0120Gutenberg": 4053,
      "force": 4054,
      "\u0120apparent": 4055,
      "\u0120January": 4056,
      "pes": 4057,
      "point": 4058,
      "\u0120photo": 4059,
      "anch": 4060,
      "\u0120leading": 4061,
      "\u0120June": 4062,
      "pen": 4063,
      "\u0120March": 4064,
      "XX": 4065,
      "\u0120forms": 4066,
      "}^": 4067,
      "gor": 4068,
      "itness": 4069,
      "ception": 4070,
      "do": 4071,
      "ovember": 4072,
      "\u0120Press": 4073,
      "78": 4074,
      "\u0120adult": 4075,
      "\u0120appropri": 4076,
      "AD": 4077,
      "vey": 4078,
      "\u0120factor": 4079,
      "\u0120veh": 4080,
      "\u0120output": 4081,
      "\u0120throw": 4082,
      "\u0120background": 4083,
      "\u0120tree": 4084,
      "ams": 4085,
      "rain": 4086,
      "\u0120/><": 4087,
      "lebr": 4088,
      "\u0120satisf": 4089,
      "\u0120valid": 4090,
      "\u0120shop": 4091,
      "uild": 4092,
      "\u0120eth": 4093,
      "\u0120hosp": 4094,
      "board": 4095,
      "\u0120closed": 4096,
      "\u0120Scholar": 4097,
      "Some": 4098,
      "\u0120spot": 4099,
      "TI": 4100,
      "\u0120refer": 4101,
      "\u0120steps": 4102,
      "\u0120student": 4103,
      "\u0120compar": 4104,
      "\u0120PM": 4105,
      "\u0120unless": 4106,
      "ship": 4107,
      "\u0120older": 4108,
      "66": 4109,
      "\u0120Val": 4110,
      "iring": 4111,
      "\u00e0\u00a5": 4112,
      "\u0120definitely": 4113,
      "urg": 4114,
      "\u0120faith": 4115,
      "reet": 4116,
      "\u0120images": 4117,
      "\u0120destroy": 4118,
      "\u0120April": 4119,
      "\u0120pus": 4120,
      "\u0120Americans": 4121,
      "\u0120soul": 4122,
      "can": 4123,
      "\u0120Cour": 4124,
      "rem": 4125,
      "\u0120fol": 4126,
      "\u0120rid": 4127,
      "Qu": 4128,
      "\u0120emb": 4129,
      "mbol": 4130,
      "\u0120tools": 4131,
      "\u0120farm": 4132,
      "\u0120successful": 4133,
      "ensity": 4134,
      "\u0120inform": 4135,
      "under": 4136,
      "ded": 4137,
      "\u0120candid": 4138,
      "inated": 4139,
      "\u0120discussion": 4140,
      "\u0120mob": 4141,
      "??": 4142,
      "rial": 4143,
      "ruit": 4144,
      "\u0120feature": 4145,
      "\u0120Lord": 4146,
      "\u0120David": 4147,
      "\u0120Pal": 4148,
      "raft": 4149,
      "itect": 4150,
      "\u0120India": 4151,
      "\u0120terror": 4152,
      "\u0120ensure": 4153,
      "\u0120distance": 4154,
      "\u0120Post": 4155,
      "ography": 4156,
      "\u0120window": 4157,
      "\u0120extremely": 4158,
      "atically": 4159,
      "ender": 4160,
      "\u0120Mod": 4161,
      "elta": 4162,
      "\u0120sexual": 4163,
      "\u0120Acc": 4164,
      "\u0120bottom": 4165,
      "->": 4166,
      "\u0120Cong": 4167,
      "\u0120healthy": 4168,
      "003": 4169,
      "clude": 4170,
      "ml": 4171,
      "\u0120categ": 4172,
      "asure": 4173,
      "\u0120traditional": 4174,
      "otic": 4175,
      "\u0120device": 4176,
      "\u0120heavy": 4177,
      "\u0120status": 4178,
      "\u0120prefer": 4179,
      "\u0120Great": 4180,
      "\u0120forg": 4181,
      "\u0120humans": 4182,
      "cp": 4183,
      "acebook": 4184,
      "\u0120herself": 4185,
      "ici": 4186,
      "\u0120consequ": 4187,
      "sum": 4188,
      "\u0120initial": 4189,
      "\u0120international": 4190,
      "\u0120Stud": 4191,
      "\u0120waiting": 4192,
      "illing": 4193,
      "\u0120vill": 4194,
      "known": 4195,
      "\u0120defined": 4196,
      "\u0120Trans": 4197,
      "raq": 4198,
      "019": 4199,
      "\u0120leaving": 4200,
      "\u0120City": 4201,
      "\u0120epis": 4202,
      "\u0120customers": 4203,
      "\u0120continued": 4204,
      "\u0120Maybe": 4205,
      "\u0120setting": 4206,
      "\u0120July": 4207,
      "ossible": 4208,
      "\u0120male": 4209,
      "\u0120honest": 4210,
      "\\\\": 4211,
      "\u0120ship": 4212,
      "ares": 4213,
      "\u0120smaller": 4214,
      "\u0120aim": 4215,
      "59": 4216,
      "CC": 4217,
      "\u0120er": 4218,
      "\u0120Who": 4219,
      "vision": 4220,
      "\u0120church": 4221,
      "ugg": 4222,
      "www": 4223,
      "\u0120saf": 4224,
      "\u0120Ac": 4225,
      "\u0120Good": 4226,
      "wr": 4227,
      "\u0120element": 4228,
      "ocked": 4229,
      "\u0120qual": 4230,
      "\u0120index": 4231,
      "\u0120programs": 4232,
      "\u0120platform": 4233,
      "\u0120Democr": 4234,
      "\u0120controll": 4235,
      "\u0120tells": 4236,
      "vere": 4237,
      "istory": 4238,
      "\u0120Islam": 4239,
      "ait": 4240,
      "\u0120Rec": 4241,
      "ste": 4242,
      "\u0120rates": 4243,
      "020": 4244,
      "\u0120patient": 4245,
      "\u0120rich": 4246,
      "\u0120constit": 4247,
      "\u0120includes": 4248,
      "\u0120whom": 4249,
      "ula": 4250,
      "\u0120Chinese": 4251,
      "\u0120influence": 4252,
      "ulf": 4253,
      "\u00e2\u0122\u00a2": 4254,
      "\u0120benefit": 4255,
      "\u0120luck": 4256,
      "\u0120evolution": 4257,
      "From": 4258,
      "\u0120distribution": 4259,
      "\u0120map": 4260,
      "\u0120remind": 4261,
      "ij": 4262,
      "\u0120asking": 4263,
      "\u0120jobs": 4264,
      "rier": 4265,
      "wood": 4266,
      "\u0120appreci": 4267,
      "\u0120Austral": 4268,
      "\u0120conflict": 4269,
      "var": 4270,
      "\u0120central": 4271,
      "AA": 4272,
      "\u0120Mor": 4273,
      "\u0120Gree": 4274,
      "\u0120Arch": 4275,
      "\u0120daily": 4276,
      "\u0120husband": 4277,
      "\u0120otherwise": 4278,
      "\u0120request": 4279,
      "PS": 4280,
      "\u0120glass": 4281,
      "\u0120sources": 4282,
      "ears": 4283,
      "\u0120connection": 4284,
      "\u0120income": 4285,
      "term": 4286,
      "\u0120Pat": 4287,
      "\u0120disp": 4288,
      "\u0120acqu": 4289,
      "\u0120produced": 4290,
      "\u0120primary": 4291,
      "ya": 4292,
      "\u0120numer": 4293,
      "cks": 4294,
      "odies": 4295,
      "ki": 4296,
      "xi": 4297,
      "\u0120establ": 4298,
      "\u0120spl": 4299,
      "\u0120micro": 4300,
      "\u0120despite": 4301,
      "bar": 4302,
      "\u0120king": 4303,
      "\u0120showed": 4304,
      "\u0120Jack": 4305,
      "\u0120speech": 4306,
      "Or": 4307,
      "Don": 4308,
      "uration": 4309,
      "\u0120estim": 4310,
      "\u0120philos": 4311,
      "\u0120presence": 4312,
      "\u0120items": 4313,
      "\u0120instit": 4314,
      "pid": 4315,
      "\u0120victim": 4316,
      "\u0120Ev": 4317,
      "\u0120scale": 4318,
      "\u0120determine": 4319,
      "\u0120slightly": 4320,
      "\u0120forget": 4321,
      "\u0120electric": 4322,
      "bum": 4323,
      "\u0120attract": 4324,
      "ford": 4325,
      "\u0120listen": 4326,
      "oving": 4327,
      "\u0120bud": 4328,
      "\u0120workers": 4329,
      "igr": 4330,
      "\u0120causes": 4331,
      "\u0120train": 4332,
      "opy": 4333,
      "\u0120hate": 4334,
      "\u0120letter": 4335,
      "clusion": 4336,
      "\u0120eating": 4337,
      "\u0120Dep": 4338,
      "ocol": 4339,
      "och": 4340,
      "top": 4341,
      "\u0120false": 4342,
      "ache": 4343,
      "works": 4344,
      "\u0120jump": 4345,
      "gorith": 4346,
      "rim": 4347,
      "\u0120Found": 4348,
      "\u0120diet": 4349,
      "\u0120London": 4350,
      "place": 4351,
      "\u0120eval": 4352,
      "\u0120corpor": 4353,
      "\u0120activities": 4354,
      "\u0120catch": 4355,
      "\u00d1\u0124": 4356,
      "\u0120Iraq": 4357,
      "\u0120chann": 4358,
      "\u0120girls": 4359,
      "izations": 4360,
      "\u0120religion": 4361,
      "\u0120calls": 4362,
      "umber": 4363,
      "\u0120doctor": 4364,
      "\u0120manufact": 4365,
      "\u0120bul": 4366,
      "77": 4367,
      "\u0120White": 4368,
      "\u0120applications": 4369,
      "\u0120transform": 4370,
      "ading": 4371,
      "field": 4372,
      "\u0120Once": 4373,
      "ym": 4374,
      "\u0120December": 4375,
      "\u0120strategy": 4376,
      "from": 4377,
      "\u0120Met": 4378,
      "\u0120hell": 4379,
      "\u0120dynam": 4380,
      "oted": 4381,
      "\u0120active": 4382,
      "\u0120concent": 4383,
      "sim": 4384,
      "\u0120remains": 4385,
      "\u0120released": 4386,
      "sigma": 4387,
      "\u0120receive": 4388,
      "rey": 4389,
      "\u0120correspond": 4390,
      "aid": 4391,
      "\u0120reached": 4392,
      "\u0120ice": 4393,
      "\u0120transfer": 4394,
      "iliar": 4395,
      "alle": 4396,
      "oday": 4397,
      "\u0120telling": 4398,
      "tained": 4399,
      "ript": 4400,
      "ours": 4401,
      "\u0120animal": 4402,
      "\u0120female": 4403,
      "\u0120Rem": 4404,
      "\u0120Ant": 4405,
      "\u0120internet": 4406,
      "\u0120freedom": 4407,
      "\u0120September": 4408,
      "\u0120shape": 4409,
      "ending": 4410,
      "\u0120eight": 4411,
      "\u0120worry": 4412,
      "\u0120UK": 4413,
      "\u0120indeed": 4414,
      "aked": 4415,
      "\u0120Def": 4416,
      "\u0120\\\\": 4417,
      "\u0120Law": 4418,
      "ashington": 4419,
      "\u0120ble": 4420,
      "\u0120lots": 4421,
      "\u0120!": 4422,
      "ander": 4423,
      "\u00d8\u00a7": 4424,
      "\u0120critical": 4425,
      "\u0120mental": 4426,
      "\u0120advantage": 4427,
      "\u0120nuclear": 4428,
      "ava": 4429,
      "osh": 4430,
      "\u0120Wind": 4431,
      "\u0120reb": 4432,
      "\u0120slowly": 4433,
      "BC": 4434,
      "ctors": 4435,
      "\u0120realize": 4436,
      "\u0120celebr": 4437,
      "ilies": 4438,
      "\u0120construct": 4439,
      "\u0120finding": 4440,
      "lo": 4441,
      "\u0120European": 4442,
      "idden": 4443,
      "\u0120thanks": 4444,
      "\u0120stopped": 4445,
      "icks": 4446,
      "\u0120favorite": 4447,
      "\u0120%": 4448,
      "********": 4449,
      "51": 4450,
      "inner": 4451,
      "New": 4452,
      "\u0120professional": 4453,
      "\u0120variety": 4454,
      ".'": 4455,
      "rible": 4456,
      "anging": 4457,
      "\u0120sitting": 4458,
      "ruary": 4459,
      "\u0120sche": 4460,
      "itz": 4461,
      "\u0120brief": 4462,
      "antic": 4463,
      "onday": 4464,
      "\u0120imagine": 4465,
      "\u0120sales": 4466,
      "\u0120hero": 4467,
      "\u0120Trump": 4468,
      "ST": 4469,
      "----------------": 4470,
      "ario": 4471,
      "\u0120double": 4472,
      "erences": 4473,
      "\u0120November": 4474,
      "\u0120Sen": 4475,
      "\u0120none": 4476,
      "\u0120anyway": 4477,
      "\u0120vel": 4478,
      "\u0120sea": 4479,
      "\u0120Bill": 4480,
      "\u0120sad": 4481,
      "\u0120staff": 4482,
      "\u0120Day": 4483,
      "\u0120hous": 4484,
      "mu": 4485,
      "\u0120handle": 4486,
      "igned": 4487,
      "\u0120balance": 4488,
      "\u0120libr": 4489,
      "\u0120forced": 4490,
      "\u0120lived": 4491,
      "\u0120debt": 4492,
      "fr": 4493,
      "OL": 4494,
      "\u0120equal": 4495,
      "\u0120gain": 4496,
      "\u0120thr": 4497,
      "\u0120turns": 4498,
      "iance": 4499,
      "\u0120customer": 4500,
      "\u0120daughter": 4501,
      "\u0120summer": 4502,
      "\u0120surround": 4503,
      "\u0120safety": 4504,
      "\u0120ahead": 4505,
      "\u0120Mac": 4506,
      "\u0120replace": 4507,
      "mathbb": 4508,
      "mat": 4509,
      "\u0120Up": 4510,
      "upid": 4511,
      "\u0120organization": 4512,
      "\u0120interpret": 4513,
      "\u0120audience": 4514,
      "mas": 4515,
      "\u0120Muslim": 4516,
      "\u0120location": 4517,
      "\u0120planet": 4518,
      "\u0120unit": 4519,
      "\u0120Reg": 4520,
      "\u0120October": 4521,
      "aming": 4522,
      "\u0120separate": 4523,
      "\u0120decide": 4524,
      "\u0120responsible": 4525,
      "\u0120THE": 4526,
      "name": 4527,
      "ipp": 4528,
      "\u0120lic": 4529,
      "\u0120follows": 4530,
      "\u0120federal": 4531,
      "hest": 4532,
      "asy": 4533,
      "\u0120Book": 4534,
      "\u0120circum": 4535,
      "unday": 4536,
      "\u0120rise": 4537,
      "68": 4538,
      "overy": 4539,
      "isms": 4540,
      "\u0120starts": 4541,
      "hens": 4542,
      "\u0120conserv": 4543,
      "ka": 4544,
      "'.": 4545,
      "\u0120mur": 4546,
      "\u0120script": 4547,
      "\u0120thousands": 4548,
      "\u0120park": 4549,
      "eds": 4550,
      "\u0120drop": 4551,
      "\u0120Although": 4552,
      "ingly": 4553,
      "\u0120(\\<": 4554,
      "\u0120amazing": 4555,
      "\u0120overall": 4556,
      "\u0120Thanks": 4557,
      "iforn": 4558,
      "While": 4559,
      "\u0120poly": 4560,
      "olf": 4561,
      "\u0120sac": 4562,
      "\u0120smart": 4563,
      "\u00e2\u0122\u013f,": 4564,
      "\u0120radio": 4565,
      "\u0120Net": 4566,
      "\u0120crow": 4567,
      "\u0120dry": 4568,
      "ban": 4569,
      "\u0120properties": 4570,
      "\u0120feels": 4571,
      "\u0120master": 4572,
      "\u0120\u00c2\u0142\u010a": 4573,
      "mercial": 4574,
      "\u0120examples": 4575,
      "eters": 4576,
      "\u0120James": 4577,
      "\u0120pure": 4578,
      "\u0120fan": 4579,
      "Your": 4580,
      "\u0120shut": 4581,
      "\u0120La": 4582,
      "][": 4583,
      "rian": 4584,
      "\u0120prison": 4585,
      "\u0120fresh": 4586,
      "\u0120career": 4587,
      "53": 4588,
      "\u0120possibly": 4589,
      "Ab": 4590,
      "\u0120poll": 4591,
      "rh": 4592,
      "\u0120loved": 4593,
      "iques": 4594,
      "\u0120helped": 4595,
      "TH": 4596,
      "\u0120Ret": 4597,
      "ails": 4598,
      "\u0120brand": 4599,
      "rix": 4600,
      "ometimes": 4601,
      "\u0120scientific": 4602,
      "Then": 4603,
      "Fr": 4604,
      "\u0120keeping": 4605,
      "\u0120essential": 4606,
      "(\"": 4607,
      "yr": 4608,
      "\u0120evil": 4609,
      "lig": 4610,
      "ico": 4611,
      "De": 4612,
      "\u0120sem": 4613,
      "\u0120Thank": 4614,
      "\u0120caught": 4615,
      "\u0120materials": 4616,
      "\u0120standing": 4617,
      "\u0120odd": 4618,
      "ipment": 4619,
      "\u0120Their": 4620,
      "cil": 4621,
      "\u0120coff": 4622,
      "\u0120ast": 4623,
      "\u0120putting": 4624,
      "\u0120Michael": 4625,
      "vis": 4626,
      "osite": 4627,
      "OC": 4628,
      "\u0120stars": 4629,
      "\u0120pet": 4630,
      "\u0120reference": 4631,
      "\u0120ded": 4632,
      "\u0120terr": 4633,
      "\u0120beat": 4634,
      "\u0120generation": 4635,
      "\u0120AM": 4636,
      "\u0120proced": 4637,
      "\u0120becoming": 4638,
      "iable": 4639,
      "appe": 4640,
      "\u0120challenge": 4641,
      "\u0120conversation": 4642,
      "\u0120billion": 4643,
      "inate": 4644,
      "\u0120\u0120\u0120\u0120\u0120\u0120\u0120\u0120\u0120\u0120\u0120\u0120\u0120\u0120\u0120\u0120\u0120\u0120\u0120\u0120\u0120\u0120\u0120\u0120\u0120\u0120\u0120\u0120\u0120\u0120\u0120\u0120\u0120\u0120\u0120\u0120\u0120\u0120\u0120\u0120\u0120\u0120\u0120\u0120\u0120\u0120\u0120\u0120\u0120\u0120\u0120\u0120\u0120\u0120\u0120\u0120\u0120\u0120\u0120\u0120\u0120\u0120\u0120\u0120": 4645,
      "\u0120tim": 4646,
      "ios": 4647,
      "\u0120tour": 4648,
      "\u0120absolutely": 4649,
      "\u0120claims": 4650,
      "Us": 4651,
      "\u0120sweet": 4652,
      "\u0120basically": 4653,
      "\u0120quiet": 4654,
      "\u0120offers": 4655,
      "\u0120yell": 4656,
      "ibr": 4657,
      "Im": 4658,
      "ey": 4659,
      "52": 4660,
      "ifornia": 4661,
      "\u0120proof": 4662,
      "rag": 4663,
      "\u0120chemical": 4664,
      "xy": 4665,
      "\u0120wealth": 4666,
      "inn": 4667,
      "gers": 4668,
      "\u0120exercise": 4669,
      "\u0120totally": 4670,
      "\u0120placed": 4671,
      "\u0120http": 4672,
      "ocal": 4673,
      "\u0120entirely": 4674,
      "\u0120phen": 4675,
      "\u0120protein": 4676,
      "\u0120leaves": 4677,
      "agon": 4678,
      "coh": 4679,
      "\u0120street": 4680,
      "\u0120plans": 4681,
      "\u0120assess": 4682,
      "54": 4683,
      "\u0120//": 4684,
      "\u0120Tom": 4685,
      "\u0120IN": 4686,
      "ayer": 4687,
      "sm": 4688,
      "\u0120prices": 4689,
      "acity": 4690,
      "CH": 4691,
      "uations": 4692,
      "ooth": 4693,
      "\u0120core": 4694,
      "\u0120ran": 4695,
      "\u0120Kore": 4696,
      "\u0120stood": 4697,
      "anted": 4698,
      "\u0120transport": 4699,
      ".;": 4700,
      "\u0120alle": 4701,
      "\u0120minor": 4702,
      "type": 4703,
      "\u0120contains": 4704,
      "\u0120German": 4705,
      "\u0120fish": 4706,
      "dro": 4707,
      "\u0120labor": 4708,
      "\u0120leader": 4709,
      "vest": 4710,
      "Int": 4711,
      "ida": 4712,
      "range": 4713,
      "\u0120Thus": 4714,
      "\u0120appropriate": 4715,
      "\u0120existence": 4716,
      "\u0120showing": 4717,
      "\u0120sympt": 4718,
      "\u0120Washington": 4719,
      "\u0120\u0120\u0120\u0120\u0120\u0120\u0120\u0120\u0120\u0120": 4720,
      "itc": 4721,
      "\u0120removed": 4722,
      "\u0120topic": 4723,
      "\u0120Sun": 4724,
      "encies": 4725,
      "\":": 4726,
      "\u0120weapons": 4727,
      "View": 4728,
      "\u0120Rich": 4729,
      "soft": 4730,
      "\u0120East": 4731,
      "ission": 4732,
      "\u0120constant": 4733,
      "oper": 4734,
      "oto": 4735,
      "\u0120har": 4736,
      "\u0120applied": 4737,
      "\u0120universe": 4738,
      "\u0120{\\": 4739,
      "\u0120strateg": 4740,
      "\u0120architect": 4741,
      "\u0120existing": 4742,
      "\u00d0\u00bd": 4743,
      "ipe": 4744,
      "\u0120suddenly": 4745,
      "istry": 4746,
      "\u0120ing": 4747,
      "\u0120explan": 4748,
      "Post": 4749,
      "\u0120Rober": 4750,
      "\u0120adapt": 4751,
      "\u0120Mat": 4752,
      "\u0120mir": 4753,
      "\u0120hurt": 4754,
      "\u0120holding": 4755,
      "\u0120William": 4756,
      "ogen": 4757,
      "\u0120transl": 4758,
      "\u0120leads": 4759,
      "\u0120Congress": 4760,
      "\u0120Court": 4761,
      "\u0120pages": 4762,
      "________": 4763,
      "\u0120San": 4764,
      "erry": 4765,
      "istan": 4766,
      "\u0120opened": 4767,
      "\u0120objects": 4768,
      "\u0120fighting": 4769,
      "\u0120schools": 4770,
      "\u0120crime": 4771,
      "\u0120raised": 4772,
      "\u0120budget": 4773,
      "\u0120Where": 4774,
      "\u0120impossible": 4775,
      "kin": 4776,
      "\u0120argu": 4777,
      "\u0120fixed": 4778,
      "\u0120processes": 4779,
      "\u0120Count": 4780,
      "........": 4781,
      "\u0120remove": 4782,
      "\u0120sites": 4783,
      "\u0120solid": 4784,
      "uate": 4785,
      "char": 4786,
      "\u0120broken": 4787,
      "\u0120cars": 4788,
      "ocity": 4789,
      "\u0120Sl": 4790,
      "\u0120advice": 4791,
      "\u0120album": 4792,
      "tra": 4793,
      "\u0120pp": 4794,
      "\u0120movies": 4795,
      "\u0120Star": 4796,
      "\u0120fuel": 4797,
      "cellent": 4798,
      "ixt": 4799,
      "\u0120belong": 4800,
      "edia": 4801,
      "rapy": 4802,
      "acing": 4803,
      "\u0120families": 4804,
      "lor": 4805,
      "\u0120server": 4806,
      "\u0120efforts": 4807,
      "\u0120citizens": 4808,
      "\u0120changing": 4809,
      "big": 4810,
      "\u0120bird": 4811,
      "\u0120Iran": 4812,
      "\u0120Get": 4813,
      "met": 4814,
      "\u0120strange": 4815,
      "\u0120knowing": 4816,
      "\u0120decre": 4817,
      "icit": 4818,
      "Cont": 4819,
      "\u0120tight": 4820,
      "\u0120witness": 4821,
      "\u0120trouble": 4822,
      "\u0120mine": 4823,
      "\u0120Govern": 4824,
      "\u0120conscious": 4825,
      "norm": 4826,
      "\u0120bow": 4827,
      "\u0120Mart": 4828,
      "\u0120election": 4829,
      "\u0120classes": 4830,
      "\u0120marriage": 4831,
      "\u0120violence": 4832,
      "\u0120flat": 4833,
      "\u0120supply": 4834,
      "\u0120failed": 4835,
      "otes": 4836,
      "\u0120filled": 4837,
      "\u0120CO": 4838,
      "\u0120driving": 4839,
      "These": 4840,
      "\u0120News": 4841,
      "upp": 4842,
      "\u0120AP": 4843,
      "cd": 4844,
      "\u0120England": 4845,
      "\u0120assume": 4846,
      "\u0120Article": 4847,
      "\u0120ended": 4848,
      "\u0120agreement": 4849,
      "\u0120subs": 4850,
      "\u0120serve": 4851,
      "vention": 4852,
      "Of": 4853,
      "\u0120Pre": 4854,
      "\u00d1\u0123": 4855,
      "\u0120algorith": 4856,
      "\u0120missing": 4857,
      "\u0120differences": 4858,
      "\u0120approx": 4859,
      "tm": 4860,
      "bre": 4861,
      "\u0120signal": 4862,
      "arant": 4863,
      "\u0120definition": 4864,
      "\u0120alternative": 4865,
      "DA": 4866,
      "Can": 4867,
      "turn": 4868,
      "ingu": 4869,
      "edy": 4870,
      "ca": 4871,
      "\u0120sick": 4872,
      "Com": 4873,
      "\u0120firm": 4874,
      "However": 4875,
      "\u0120plants": 4876,
      "\u0120egg": 4877,
      "\u0120expensive": 4878,
      "\u0120err": 4879,
      "\u0120adjust": 4880,
      "uesday": 4881,
      "!\u00e2\u0122\u013f": 4882,
      "ented": 4883,
      "\u0120covered": 4884,
      "\u0120xcp": 4885,
      "\u0120happening": 4886,
      "alled": 4887,
      "\u0120equipment": 4888,
      "\u0120independent": 4889,
      "gl": 4890,
      "\u0120ancient": 4891,
      "\u0120paying": 4892,
      "\u0120manner": 4893,
      "\u0120spending": 4894,
      "lling": 4895,
      "ria": 4896,
      "\u0120High": 4897,
      "\u0120prove": 4898,
      "\u0120faster": 4899,
      "PubMed": 4900,
      "\u0120Vol": 4901,
      "Ad": 4902,
      "Sc": 4903,
      "\u0120breath": 4904,
      "\u0120minute": 4905,
      "\u0120Ben": 4906,
      "eps": 4907,
      "\u0120pulled": 4908,
      "Me": 4909,
      "arter": 4910,
      "\u0120string": 4911,
      "uke": 4912,
      "oom": 4913,
      "\u0120dangerous": 4914,
      "oyal": 4915,
      "\u0120mort": 4916,
      "\u0120devices": 4917,
      "Ed": 4918,
      "\u0120bright": 4919,
      "\u0120describe": 4920,
      "\u0120incred": 4921,
      "\u0120California": 4922,
      "apers": 4923,
      "\u0120pieces": 4924,
      "idents": 4925,
      "\u0120discovered": 4926,
      "\u0120obviously": 4927,
      "\u0120hearing": 4928,
      "MS": 4929,
      "ednes": 4930,
      "\u0120speaking": 4931,
      "\u0120typically": 4932,
      "\u0120mo": 4933,
      "999": 4934,
      "\u0120familiar": 4935,
      "\u0120edge": 4936,
      "lamb": 4937,
      "\u0120February": 4938,
      "\u0120mission": 4939,
      "ias": 4940,
      "Res": 4941,
      "\u0120System": 4942,
      "\u0120Bra": 4943,
      "urrent": 4944,
      "\u0120complic": 4945,
      "\u0120Out": 4946,
      "Se": 4947,
      "\u0120cloud": 4948,
      "Ps": 4949,
      "\u0120Indian": 4950,
      "\u0120stupid": 4951,
      "\u0120pair": 4952,
      "\u0120apart": 4953,
      "Bl": 4954,
      "67": 4955,
      "\u0120plot": 4956,
      "\u0120ton": 4957,
      "\u0120Sub": 4958,
      "\u0120tro": 4959,
      "\u0120returned": 4960,
      "\u0120desire": 4961,
      "\u0120pal": 4962,
      "\u0120van": 4963,
      "\u0120Bel": 4964,
      "\u0120Does": 4965,
      "\u0120gar": 4966,
      "300": 4967,
      "\u0120Serv": 4968,
      "stitution": 4969,
      "\u0120que": 4970,
      "cket": 4971,
      "\u0120identify": 4972,
      "\u0120drugs": 4973,
      "\u0120camera": 4974,
      "\u0120Its": 4975,
      "uct": 4976,
      "\u0120mode": 4977,
      ")\\": 4978,
      "abase": 4979,
      "69": 4980,
      "SS": 4981,
      "ologies": 4982,
      "\u0120impl": 4983,
      "Tw": 4984,
      "class": 4985,
      "irty": 4986,
      "ednesday": 4987,
      "asks": 4988,
      "\u0120PC": 4989,
      "\u0120proposed": 4990,
      "lambda": 4991,
      "\u0120digital": 4992,
      "\u0120maintain": 4993,
      "\u0120pros": 4994,
      "\u0120trip": 4995,
      "\u00d1\u0122": 4996,
      "\u0120George": 4997,
      "More": 4998,
      "racy": 4999,
      "}^{": 5000,
      "\u0120restrict": 5001,
      "\u0120decisions": 5002,
      "\u0120perspective": 5003,
      "\u0120relatively": 5004,
      "\u0120Over": 5005,
      "();": 5006,
      "osure": 5007,
      "\u0120empt": 5008,
      "\u0120Canada": 5009,
      "\u0120prem": 5010,
      "\u0120Rob": 5011,
      "EL": 5012,
      "Get": 5013,
      "\u0120reaction": 5014,
      "\u0120metal": 5015,
      "\u0120suspect": 5016,
      "\u0120hun": 5017,
      "uries": 5018,
      "Sp": 5019,
      "\u0120sch": 5020,
      "stood": 5021,
      "\u0120cash": 5022,
      "\u0120bond": 5023,
      "IM": 5024,
      "\u0120click": 5025,
      "\u0120dollars": 5026,
      "\u0120subgoal": 5027,
      "\u0120ring": 5028,
      "house": 5029,
      "hetic": 5030,
      "amin": 5031,
      "\u0120notes": 5032,
      "\u0120smile": 5033,
      "\u0120wear": 5034,
      "\u0120seconds": 5035,
      "\u0120politics": 5036,
      "Just": 5037,
      "\u0120attacks": 5038,
      "\u0120climate": 5039,
      "\u0120vision": 5040,
      "\u0120push": 5041,
      "\u0120walked": 5042,
      "\u0120\u00cf": 5043,
      "ding": 5044,
      "\u0120reports": 5045,
      "uls": 5046,
      "phi": 5047,
      "\u0120concerned": 5048,
      "ursday": 5049,
      "\u0120ban": 5050,
      "div": 5051,
      "anda": 5052,
      "\u0120volume": 5053,
      "she": 5054,
      "\u0120determined": 5055,
      "\u0120noticed": 5056,
      "\u0120Russia": 5057,
      "look": 5058,
      "\")": 5059,
      "za": 5060,
      "osen": 5061,
      "\u0120Super": 5062,
      "\u0120wave": 5063,
      "\u0120answers": 5064,
      "\u0120hospital": 5065,
      "\u0120biggest": 5066,
      "rees": 5067,
      "-\\": 5068,
      "\u0120gal": 5069,
      "\u0120sets": 5070,
      "\u0120established": 5071,
      "zen": 5072,
      "\u0120Science": 5073,
      "ih": 5074,
      "item": 5075,
      "\u0120motiv": 5076,
      "phas": 5077,
      "\u0120Germany": 5078,
      "\u0120employees": 5079,
      "\u0120providing": 5080,
      "\u0120massive": 5081,
      "\u0120miles": 5082,
      "\u0120cris": 5083,
      "\u0120connected": 5084,
      "\u0120Ham": 5085,
      "\u0120solutions": 5086,
      "\u0120efficient": 5087,
      "while": 5088,
      "\u0120lie": 5089,
      "\u0120relevant": 5090,
      "\u0120forth": 5091,
      "\u0120coffee": 5092,
      "\u0120Rel": 5093,
      "\u0120Micro": 5094,
      "\u0120walking": 5095,
      "\u0120kiss": 5096,
      "olly": 5097,
      "\u0120communication": 5098,
      "\u0120station": 5099,
      "\u0120visual": 5100,
      "\u0120experiences": 5101,
      "\u0120instruct": 5102,
      "\u0120presented": 5103,
      "\u0120critic": 5104,
      "\u0120rot": 5105,
      "road": 5106,
      "\u0120shared": 5107,
      "\u0120managed": 5108,
      "\u0120Mal": 5109,
      "\u0120expand": 5110,
      "onna": 5111,
      "ophy": 5112,
      "\u0120married": 5113,
      "lies": 5114,
      "icians": 5115,
      "\u0120posts": 5116,
      "enses": 5117,
      "\u0120Er": 5118,
      "hand": 5119,
      "\u0120Instead": 5120,
      "\u0120General": 5121,
      "\u0120parties": 5122,
      "\u0120latest": 5123,
      "semb": 5124,
      "\u0120closer": 5125,
      "\u0120Thom": 5126,
      "oder": 5127,
      "\u0120dial": 5128,
      "ourney": 5129,
      "stitute": 5130,
      "\u0120Inter": 5131,
      "\u0120marketing": 5132,
      "file": 5133,
      "\u0120bought": 5134,
      "\u0120trees": 5135,
      "\u0120Inc": 5136,
      "\u0120thick": 5137,
      ")}": 5138,
      "isation": 5139,
      "\u0120Foundation": 5140,
      "\u0120judge": 5141,
      "\u0120sorry": 5142,
      "\u0120afford": 5143,
      "esh": 5144,
      "cend": 5145,
      "\u0120Internet": 5146,
      "\u0120somewhere": 5147,
      "\u0120thread": 5148,
      "\u0120Mag": 5149,
      "\u0120guide": 5150,
      "\u0120appeared": 5151,
      "\u0120occup": 5152,
      "\u0120optim": 5153,
      "\u0120rapid": 5154,
      "\u0120nav": 5155,
      "\u00e2\u0122\u013a": 5156,
      "\u0120phase": 5157,
      "\u0120worst": 5158,
      "\u0120Cam": 5159,
      "\u0120fant": 5160,
      "\u0120waste": 5161,
      "\u0120switch": 5162,
      "_\\": 5163,
      "\u0120owners": 5164,
      "ashion": 5165,
      "\u0120trial": 5166,
      "\u0120seven": 5167,
      "\u0120cheap": 5168,
      "\u0120symbol": 5169,
      "\u0120observed": 5170,
      "\u0120internal": 5171,
      "\u0120journal": 5172,
      "\u0120explained": 5173,
      "cr": 5174,
      "Add": 5175,
      "onic": 5176,
      "ishes": 5177,
      "\u0120tests": 5178,
      "\u0120univers": 5179,
      "\u0120cards": 5180,
      "ago": 5181,
      "\u0120realized": 5182,
      "cohol": 5183,
      "\u0120domain": 5184,
      "\u0120collection": 5185,
      "olved": 5186,
      "\u0120motion": 5187,
      "http": 5188,
      "\u0120goals": 5189,
      "\u0120failure": 5190,
      "\u0120France": 5191,
      "ounced": 5192,
      "win": 5193,
      "ules": 5194,
      "\u0120famous": 5195,
      "\u0120unlike": 5196,
      "\u0120kick": 5197,
      "\u0120north": 5198,
      "pi": 5199,
      "Val": 5200,
      "\u0120facts": 5201,
      "\u0120config": 5202,
      "\u0120liqu": 5203,
      "\u0120testing": 5204,
      "UT": 5205,
      "\u0120remark": 5206,
      "dis": 5207,
      "\u0120bodies": 5208,
      "\u0120column": 5209,
      "uthors": 5210,
      "\u0120fle": 5211,
      "\u0120mole": 5212,
      "\u0120Big": 5213,
      "\u0120calling": 5214,
      "UR": 5215,
      "real": 5216,
      "\u0120Time": 5217,
      "night": 5218,
      "\u0120Log": 5219,
      "\u00c3\u00a1": 5220,
      "craft": 5221,
      "ini": 5222,
      "\u0120contrast": 5223,
      "iciency": 5224,
      "\u0120neut": 5225,
      "\u0120believed": 5226,
      "\u0120zero": 5227,
      "\u0120bare": 5228,
      "\u0120sen": 5229,
      "\u0120ourselves": 5230,
      "\u0120island": 5231,
      "\u0120Lin": 5232,
      "\u0120properly": 5233,
      "\u0120default": 5234,
      "\u0120sky": 5235,
      "erg": 5236,
      "rig": 5237,
      "\u0120watched": 5238,
      "\u0120Ap": 5239,
      "\u0120assist": 5240,
      "\u0120velocity": 5241,
      "apping": 5242,
      "\u0120Arab": 5243,
      "\u0120defend": 5244,
      "\u0120projects": 5245,
      "ipped": 5246,
      "aturday": 5247,
      "\u0120sust": 5248,
      "=\\": 5249,
      "\u0120attrib": 5250,
      "\u0120Therefore": 5251,
      "\u0120clim": 5252,
      "width": 5253,
      "\u0120bes": 5254,
      "\u0120accepted": 5255,
      "erate": 5256,
      "host": 5257,
      "\u0120Those": 5258,
      "\u0120finished": 5259,
      "\u0120rub": 5260,
      "blog": 5261,
      "\u0120Park": 5262,
      "\u0120investment": 5263,
      "\u0120cultural": 5264,
      "\u0120pregn": 5265,
      "\u0120fields": 5266,
      "ompl": 5267,
      "rad": 5268,
      "\u0120Bush": 5269,
      "See": 5270,
      "\u0120sugar": 5271,
      "\u0120sides": 5272,
      "ena": 5273,
      "\u0120enh": 5274,
      "\u0120Church": 5275,
      "\u0120magic": 5276,
      "\u0120experiment": 5277,
      "ords": 5278,
      "\u0120diagn": 5279,
      "wide": 5280,
      "\u0120debate": 5281,
      "\u0120ille": 5282,
      "omy": 5283,
      "\u0120runs": 5284,
      "\u0120offered": 5285,
      "\u0120circumst": 5286,
      "iot": 5287,
      "\u0120join": 5288,
      "bsp": 5289,
      "\u0120equival": 5290,
      "\u0120sand": 5291,
      "\u0120usual": 5292,
      "iously": 5293,
      "\u0120Web": 5294,
      "itory": 5295,
      "\u0120reci": 5296,
      "align": 5297,
      "\u0120symptoms": 5298,
      "iment": 5299,
      "\u0120Health": 5300,
      "\u0120pictures": 5301,
      "\u0120trig": 5302,
      "Book": 5303,
      "care": 5304,
      "\u0120Two": 5305,
      "amental": 5306,
      "\u0120reven": 5307,
      "\u0120episode": 5308,
      "\u0120commercial": 5309,
      "\u0120sight": 5310,
      "\u0120\u00e2\u012a": 5311,
      "arden": 5312,
      ">\\<^": 5313,
      "\u0120Apple": 5314,
      "\u0120incor": 5315,
      "\u0120Rev": 5316,
      "ference": 5317,
      "\u0120creation": 5318,
      "\u0120format": 5319,
      "\u0120Alex": 5320,
      "\u0120excellent": 5321,
      "aud": 5322,
      "\u0120regarding": 5323,
      "estion": 5324,
      "\u0120techniques": 5325,
      "osm": 5326,
      "\u0120kinds": 5327,
      "\u0120ends": 5328,
      "\u0120Bo": 5329,
      "inding": 5330,
      "ashed": 5331,
      "\u0120enemy": 5332,
      "\u0120fairly": 5333,
      "\u0120sin": 5334,
      "\u0120Fe": 5335,
      "itors": 5336,
      "aph": 5337,
      "fil": 5338,
      "cknow": 5339,
      "\u0120behavi": 5340,
      "87": 5341,
      "uit": 5342,
      "\u0120importance": 5343,
      "\u0120somewhat": 5344,
      "\u0120download": 5345,
      "\u0120Japanese": 5346,
      "\u0120exists": 5347,
      "\u0120commit": 5348,
      "\u0120bigger": 5349,
      "EM": 5350,
      "illy": 5351,
      "\u0120planning": 5352,
      "]{": 5353,
      "\u0120opening": 5354,
      "\u0120wel": 5355,
      "\u0120Off": 5356,
      "ups": 5357,
      "\u0120reject": 5358,
      "\u0120clin": 5359,
      "orage": 5360,
      "\u0120Life": 5361,
      "\u0120bag": 5362,
      "\u0120requirements": 5363,
      "\u0120Jim": 5364,
      "\u0120carried": 5365,
      "\u0120Ass": 5366,
      "\u0120Mex": 5367,
      "\u0120accident": 5368,
      "mail": 5369,
      "orter": 5370,
      "atin": 5371,
      "\u0120Africa": 5372,
      "iders": 5373,
      "\u0120hol": 5374,
      "\u0120teacher": 5375,
      "cons": 5376,
      "Pr": 5377,
      "\u0120weather": 5378,
      "import": 5379,
      "\u0120USA": 5380,
      "IL": 5381,
      "\u00e3\u0123": 5382,
      "free": 5383,
      "\u0120advert": 5384,
      "\u0120accompl": 5385,
      "\u0120shouldn": 5386,
      "fraid": 5387,
      "\u0120batter": 5388,
      "\u0120rain": 5389,
      "\u0120Look": 5390,
      "\u0120sister": 5391,
      "\u0120identity": 5392,
      "owing": 5393,
      "\u0120sample": 5394,
      "porary": 5395,
      "\u0120combination": 5396,
      "issue": 5397,
      "\u0120conver": 5398,
      "\u0120description": 5399,
      "raint": 5400,
      "\u0120moral": 5401,
      "\u0120Journal": 5402,
      "\u0120funny": 5403,
      "\u0120links": 5404,
      "\u0120stim": 5405,
      "\u0120cycle": 5406,
      "\u0120expert": 5407,
      "akers": 5408,
      "Our": 5409,
      "pm": 5410,
      "\u0120taxes": 5411,
      "cean": 5412,
      "ittee": 5413,
      "\u0120Green": 5414,
      "\u0120Did": 5415,
      "ums": 5416,
      "\u0120raise": 5417,
      "\u0120Review": 5418,
      "\u0120meat": 5419,
      "\u0120historical": 5420,
      "RA": 5421,
      "\u0120Ange": 5422,
      "\u0120army": 5423,
      "\u0120developing": 5424,
      "\u0120hur": 5425,
      "\u0120neither": 5426,
      "\u0120performed": 5427,
      "\u0120opposite": 5428,
      "\u0120protection": 5429,
      "\u0120nod": 5430,
      "\u0120Western": 5431,
      "oking": 5432,
      "struct": 5433,
      "\u0120rough": 5434,
      "\u0120layer": 5435,
      "ancing": 5436,
      "gypt": 5437,
      "OD": 5438,
      "\u0120seek": 5439,
      "\u0120defense": 5440,
      "ocks": 5441,
      "\u0120label": 5442,
      "tau": 5443,
      "\u0120Each": 5444,
      "\u0120Jul": 5445,
      "\u0120Only": 5446,
      "\u0120util": 5447,
      "\u0120depends": 5448,
      "\u0120mel": 5449,
      "\u0120engage": 5450,
      "\u0120feelings": 5451,
      "\u0120apparently": 5452,
      "\u0120Cr": 5453,
      "\u0120largest": 5454,
      "\u0120Hel": 5455,
      "\u0120Facebook": 5456,
      "\u0120electronic": 5457,
      "\u0120syn": 5458,
      "\u0120emp": 5459,
      "\u0120[]": 5460,
      "\u0120legis": 5461,
      "\u0120adding": 5462,
      "\u0120react": 5463,
      "\u0120Sur": 5464,
      "\u0120instr": 5465,
      "array": 5466,
      "erved": 5467,
      "aks": 5468,
      "\u0120Gold": 5469,
      "\u0120acid": 5470,
      "\u0120Party": 5471,
      "\u0120reduced": 5472,
      "\u0120root": 5473,
      "OW": 5474,
      "\u0120client": 5475,
      "ita": 5476,
      "\u0120Commun": 5477,
      "war": 5478,
      "\u0120ment": 5479,
      "\u0120corner": 5480,
      "\u0120International": 5481,
      "\u0120prepared": 5482,
      "\u0120sufficient": 5483,
      "\u0120crazy": 5484,
      "\u0120turning": 5485,
      "\u0120Jud": 5486,
      "\u0120anymore": 5487,
      "\u0120wonderful": 5488,
      "\u0120necessarily": 5489,
      "\u0120ES": 5490,
      "claim": 5491,
      "stream": 5492,
      "\u0120helpful": 5493,
      "\u0120stret": 5494,
      "\u0120\u00e2\u0122\u00a6": 5495,
      "\u0120highest": 5496,
      "\u0120fill": 5497,
      "\u0120Please": 5498,
      "\u0120Jewish": 5499,
      "\u0120cities": 5500,
      "\u0120interests": 5501,
      "\u0120buying": 5502,
      "\u0120allowing": 5503,
      "\u0120Peter": 5504,
      "\u0120intelligence": 5505,
      "tes": 5506,
      "terday": 5507,
      "ML": 5508,
      "\u0120folks": 5509,
      "\u0120crim": 5510,
      "\u0120specifically": 5511,
      "\u0120capacity": 5512,
      "\u0120score": 5513,
      "anged": 5514,
      "\u0120introduced": 5515,
      "\u0120sequence": 5516,
      "\u0120views": 5517,
      "\u0120thinks": 5518,
      "\u0120CD": 5519,
      "\u0120somehow": 5520,
      "ensions": 5521,
      "\u0120Jews": 5522,
      "First": 5523,
      "ocracy": 5524,
      "\u0120significantly": 5525,
      "}_{": 5526,
      "net": 5527,
      "hi": 5528,
      "note": 5529,
      "\u0120murder": 5530,
      "\u0120tick": 5531,
      "aped": 5532,
      "\u0120supported": 5533,
      "\u0120boys": 5534,
      "\u0120powers": 5535,
      "\u0120dut": 5536,
      "rate": 5537,
      "\u0120NOT": 5538,
      "\u0120Cle": 5539,
      "\u0120fans": 5540,
      "\u0120Work": 5541,
      "\u0120exchange": 5542,
      "\u0120establish": 5543,
      "400": 5544,
      ".<": 5545,
      "\u0120Windows": 5546,
      "\u0120Social": 5547,
      "\u0120teaching": 5548,
      "reate": 5549,
      "\u0120club": 5550,
      "trans": 5551,
      "\u00d0\u00be\u00d0": 5552,
      "amm": 5553,
      "beta": 5554,
      "\u0120legs": 5555,
      "\u0120synt": 5556,
      "bal": 5557,
      "\u0120Av": 5558,
      "\u0120okay": 5559,
      "\u0120Russian": 5560,
      "\u0120songs": 5561,
      "\u0120neck": 5562,
      "estic": 5563,
      "\u0120authority": 5564,
      "\u0120cock": 5565,
      "\u0120records": 5566,
      "\u0120experienced": 5567,
      "\u0120helping": 5568,
      "\u0120flo": 5569,
      "\u0120shit": 5570,
      "\u0120History": 5571,
      "\u0120afraid": 5572,
      "\u0120arrest": 5573,
      "\u0120treated": 5574,
      "\u0120tom": 5575,
      "\u0120continues": 5576,
      "\u0120possibility": 5577,
      "uster": 5578,
      "\u0120Under": 5579,
      "roid": 5580,
      "rog": 5581,
      "size": 5582,
      "\u00c2\u0143": 5583,
      "inger": 5584,
      "hab": 5585,
      "\u0120relationships": 5586,
      "En": 5587,
      "\u0120emotional": 5588,
      "\u0120spin": 5589,
      "\u0120decades": 5590,
      "\u0120phenomen": 5591,
      "\u0120previously": 5592,
      "\u0120seriously": 5593,
      "\u0120components": 5594,
      "ellect": 5595,
      "\u0120teams": 5596,
      "\u0120disappe": 5597,
      "\u0120twice": 5598,
      "asp": 5599,
      "\u0120du": 5600,
      "eper": 5601,
      "\u0120intended": 5602,
      "\u0120journey": 5603,
      "Ind": 5604,
      "swe": 5605,
      "\u0120fort": 5606,
      "\u0120discover": 5607,
      "IR": 5608,
      "\u0120empty": 5609,
      "\u0120Research": 5610,
      "\u0120Miss": 5611,
      "\u0120dogs": 5612,
      "nbsp": 5613,
      "IA": 5614,
      "\u0120plays": 5615,
      "uzz": 5616,
      "ato": 5617,
      "\u0120tun": 5618,
      "tw": 5619,
      "\u0120minimum": 5620,
      "\u0120stated": 5621,
      "IG": 5622,
      "\u0120traffic": 5623,
      "ogue": 5624,
      "\u0120obtain": 5625,
      "61": 5626,
      "\u0120understood": 5627,
      "\u0120vast": 5628,
      "\u0120crowd": 5629,
      "\u0120alive": 5630,
      "\u0120plus": 5631,
      "\u0120simpl": 5632,
      "olve": 5633,
      "'',": 5634,
      "print": 5635,
      "\u0120taste": 5636,
      "\u0120ideal": 5637,
      "\u0120School": 5638,
      "\u0120killing": 5639,
      "\u0120medium": 5640,
      "\u0120distinct": 5641,
      "\u0120glad": 5642,
      "May": 5643,
      "\u0120interact": 5644,
      "\u0120:)": 5645,
      "\u0120matters": 5646,
      "\u0120Air": 5647,
      "\u0120writ": 5648,
      "pic": 5649,
      "\u0120dress": 5650,
      "\u0120Both": 5651,
      "\u0120located": 5652,
      "89": 5653,
      "esome": 5654,
      "\u0120plenty": 5655,
      "\u0120purchase": 5656,
      "\u0120cup": 5657,
      "icip": 5658,
      "iveness": 5659,
      "\u0120DNA": 5660,
      "utor": 5661,
      "related": 5662,
      "\u0120alt": 5663,
      "ulous": 5664,
      "illa": 5665,
      "cher": 5666,
      "\u0120snow": 5667,
      "\u0120precise": 5668,
      "map": 5669,
      "\u0120fif": 5670,
      "kend": 5671,
      "\u0120carbon": 5672,
      "\u0120uns": 5673,
      "fortunately": 5674,
      "hered": 5675,
      "yer": 5676,
      "\u0120library": 5677,
      "eal": 5678,
      "IV": 5679,
      "icial": 5680,
      "\u0120veget": 5681,
      "\u0120sentence": 5682,
      "\u0120south": 5683,
      "bert": 5684,
      "\u0120Which": 5685,
      "\u0120Use": 5686,
      "ado": 5687,
      "\u0120fold": 5688,
      "isher": 5689,
      "\u0120adm": 5690,
      "\u0120iron": 5691,
      "\u0120restaur": 5692,
      "mary": 5693,
      "\u0120revolution": 5694,
      "\u0120defe": 5695,
      "\u0124\u00ac": 5696,
      "\u00e3\u0122": 5697,
      "\u0120considering": 5698,
      "adow": 5699,
      "rd": 5700,
      "\u00ef\u00bc": 5701,
      "\u0120latter": 5702,
      "\u0120begins": 5703,
      "hemat": 5704,
      "anish": 5705,
      "omic": 5706,
      "\u0120height": 5707,
      "\u00ce\u00b1": 5708,
      "urally": 5709,
      "62": 5710,
      "\u0120phr": 5711,
      "\u0120Techn": 5712,
      "mosp": 5713,
      "\u0120cas": 5714,
      "\u0120Wr": 5715,
      "roduction": 5716,
      "\u0120recept": 5717,
      "63": 5718,
      "\u0120writer": 5719,
      "\u0120dele": 5720,
      "\u0120laug": 5721,
      "orem": 5722,
      "\u0120diss": 5723,
      "uts": 5724,
      "\u0120depending": 5725,
      "sl": 5726,
      "\u0120fly": 5727,
      "\u0120origin": 5728,
      "\u0120lies": 5729,
      "\u0120Dec": 5730,
      "\u0120\u0120\u0120\u0120\u0120\u0120\u0120\u0120\u0120\u0120\u0120\u0120\u0120\u0120\u0120\u0120\u0120\u0120\u0120": 5731,
      "\u0120weren": 5732,
      "utive": 5733,
      "\u0120formed": 5734,
      "\u0120Frank": 5735,
      "agram": 5736,
      "\u0120Another": 5737,
      "\u0120possess": 5738,
      "\u0120milk": 5739,
      "\u0120wearing": 5740,
      "\u0120Prof": 5741,
      "\u0120technical": 5742,
      "\u0120obtained": 5743,
      "\u0120chest": 5744,
      "igration": 5745,
      "\u0120Mary": 5746,
      "\u0120millions": 5747,
      "\u0120Da": 5748,
      "\u0120noise": 5749,
      "athy": 5750,
      "\u0120proceed": 5751,
      "\u0120crisis": 5752,
      "aded": 5753,
      "\u0120Yet": 5754,
      "ora": 5755,
      "SE": 5756,
      "\u0120partner": 5757,
      "long": 5758,
      "ounce": 5759,
      "\u0120sav": 5760,
      "arsh": 5761,
      "\u0120Mo": 5762,
      "\u0120surprised": 5763,
      "\u0120guarant": 5764,
      "\u0120cart": 5765,
      "\u0120articles": 5766,
      "\u0120construction": 5767,
      "cel": 5768,
      "\u0120earn": 5769,
      "Any": 5770,
      "\u0120Sal": 5771,
      "\u0120aspects": 5772,
      "\u0120Roman": 5773,
      "\u0120square": 5774,
      "\u0120explanation": 5775,
      "\u0120alcohol": 5776,
      "uting": 5777,
      "\u0120smell": 5778,
      "times": 5779,
      "oding": 5780,
      "\u0120Harry": 5781,
      "\u0120narr": 5782,
      "\u0120vit": 5783,
      "abilities": 5784,
      "ighter": 5785,
      "yth": 5786,
      "\u0120guard": 5787,
      "yan": 5788,
      "idel": 5789,
      "\u0120suggested": 5790,
      "\u0120Coun": 5791,
      "phone": 5792,
      "\u0120teeth": 5793,
      "\u0120typical": 5794,
      "\u0120administration": 5795,
      "\u0120plane": 5796,
      "aa": 5797,
      "\u0120greatest": 5798,
      "\u0120units": 5799,
      "inf": 5800,
      "\u0120entertain": 5801,
      "\u0120loud": 5802,
      "\u0120Egypt": 5803,
      "!)": 5804,
      "\u0120href": 5805,
      "\u0120spectrum": 5806,
      "\u0120forest": 5807,
      "standing": 5808,
      "\u0120causing": 5809,
      "\u0120grew": 5810,
      "\u0120resulting": 5811,
      "\u0120policies": 5812,
      "\u0120item": 5813,
      "\u0120Mad": 5814,
      "\u0120innov": 5815,
      "\u00c3\u00a2": 5816,
      "space": 5817,
      "\u00c2\u0142\u00c2\u0142\u00c2\u0142\u00c2\u0142\u00c2\u0142\u00c2\u0142\u00c2\u0142\u00c2\u0142\u00c2\u0142\u00c2\u0142\u00c2\u0142\u00c2\u0142\u00c2\u0142\u00c2\u0142\u00c2\u0142\u00c2\u0142": 5818,
      "\u0120surprise": 5819,
      "\u0120laugh": 5820,
      "\u0120Robert": 5821,
      "etry": 5822,
      "Man": 5823,
      "\u0120films": 5824,
      "\u0120signs": 5825,
      "\u0120Mil": 5826,
      "outhern": 5827,
      "\u0120shift": 5828,
      "\u0120rank": 5829,
      "\u0120responsibility": 5830,
      "\u0120increases": 5831,
      "\u0120Tur": 5832,
      "ker": 5833,
      "\u0120tiny": 5834,
      "iform": 5835,
      "\u0120ec": 5836,
      "\u0120focused": 5837,
      "\u0120merely": 5838,
      "uh": 5839,
      "\u0120Hy": 5840,
      "icing": 5841,
      "\u0120taught": 5842,
      "rete": 5843,
      "\u0120Yeah": 5844,
      "GE": 5845,
      "\u0120vehicle": 5846,
      "bel": 5847,
      "\u0120hole": 5848,
      "\u0120owner": 5849,
      "\u0120extent": 5850,
      "\u0120organizations": 5851,
      "\u0120rare": 5852,
      "\u0120operation": 5853,
      "\u0120anywhere": 5854,
      "\u0120database": 5855,
      "\u0120Gra": 5856,
      "Read": 5857,
      "\u0120horse": 5858,
      "\u0120relax": 5859,
      "acc": 5860,
      "\u0120Right": 5861,
      "\u0120gonna": 5862,
      "\u0120standards": 5863,
      "aning": 5864,
      "lem": 5865,
      "iate": 5866,
      "++": 5867,
      "IP": 5868,
      "\u0120Open": 5869,
      "\u0120Street": 5870,
      "\u0120According": 5871,
      "\u0120button": 5872,
      "\u0120driver": 5873,
      "\u0120spoke": 5874,
      "\u0120repeated": 5875,
      "\u0120suggests": 5876,
      "\u0120reform": 5877,
      "\u0120advent": 5878,
      "\u0120fundamental": 5879,
      "abet": 5880,
      "\u0120authors": 5881,
      "\u0120maximum": 5882,
      "atural": 5883,
      "azon": 5884,
      "\u0120Second": 5885,
      "\u0120tow": 5886,
      "stract": 5887,
      "\u0120AC": 5888,
      "\u0120constantly": 5889,
      "\u0120clothes": 5890,
      "iki": 5891,
      "\u0120operations": 5892,
      "\u0120Have": 5893,
      "\u0120readers": 5894,
      "\u0120attend": 5895,
      "nel": 5896,
      "\u0120fruit": 5897,
      "\u0120forgot": 5898,
      "\u0120Central": 5899,
      "\u0120businesses": 5900,
      "\u0120entry": 5901,
      "\u0120scr": 5902,
      "\u0120monitor": 5903,
      "Leave": 5904,
      "\u0120hundreds": 5905,
      "\u0120ID": 5906,
      "\u0120posted": 5907,
      "uous": 5908,
      "\u0120spiritual": 5909,
      "rence": 5910,
      "\u0120absor": 5911,
      "\u0120processing": 5912,
      "\u0120pool": 5913,
      "\u0120fingers": 5914,
      "\u0120bull": 5915,
      "Every": 5916,
      "\u0120capable": 5917,
      "\u0120gro": 5918,
      "\u0120identified": 5919,
      "rine": 5920,
      "\u0120agreed": 5921,
      "ching": 5922,
      "\u0120neighbor": 5923,
      "orthern": 5924,
      "Who": 5925,
      "\u0120Smith": 5926,
      "\u0120scream": 5927,
      "\u0120selling": 5928,
      "uy": 5929,
      "ano": 5930,
      "\u0120muscle": 5931,
      "\u0120emphas": 5932,
      "\u0120breast": 5933,
      "\u0120scientists": 5934,
      "\u0120solve": 5935,
      "ads": 5936,
      "\u0120deliver": 5937,
      "\u0120bacter": 5938,
      "\u0120criminal": 5939,
      "\u0120patterns": 5940,
      "990": 5941,
      "comm": 5942,
      "\u0120fashion": 5943,
      "\u0120Department": 5944,
      "\u0120foods": 5945,
      "orph": 5946,
      "lder": 5947,
      "\u0120elimin": 5948,
      "\u00c2\u00b0": 5949,
      "iest": 5950,
      "PM": 5951,
      "\u0120challenges": 5952,
      "\u0120implic": 5953,
      "\u0120bear": 5954,
      "allel": 5955,
      "\u0120trick": 5956,
      "\u0120circumstances": 5957,
      "\u0120smooth": 5958,
      "\u0120advance": 5959,
      "\u0120winter": 5960,
      "\u0120bunch": 5961,
      "$-": 5962,
      "\u0120Reply": 5963,
      "\u0120noted": 5964,
      "ipping": 5965,
      "riv": 5966,
      "\u0120talked": 5967,
      "\u0120extract": 5968,
      "\u0120weird": 5969,
      "cular": 5970,
      "aying": 5971,
      "\u0120Fre": 5972,
      "UN": 5973,
      "length": 5974,
      "\u0120chain": 5975,
      "\u0120Australia": 5976,
      "des": 5977,
      ".</": 5978,
      "\u0120indu": 5979,
      "icated": 5980,
      "then": 5981,
      "\u0120occasion": 5982,
      "\u0120joy": 5983,
      "inking": 5984,
      "\u0120researc": 5985,
      "elf": 5986,
      "\u0120Att": 5987,
      "\u0120thin": 5988,
      "isted": 5989,
      "\u0120thousand": 5990,
      "\u0120accurate": 5991,
      "cking": 5992,
      "Spe": 5993,
      "erves": 5994,
      "\u0120Port": 5995,
      "rage": 5996,
      "\u0120escape": 5997,
      "ao": 5998,
      "Are": 5999,
      "\u0120joined": 6000,
      "\u0120gent": 6001,
      "\u0120galax": 6002,
      "\u0120Bet": 6003,
      "Americ": 6004,
      "\u0120tradition": 6005,
      "\u0120yield": 6006,
      "\u0120define": 6007,
      "\u0120justice": 6008,
      "\u0120acknow": 6009,
      "Most": 6010,
      "\u0120advanced": 6011,
      "\u0120excess": 6012,
      "\u0120situations": 6013,
      "\u0120moments": 6014,
      "\u0120Center": 6015,
      "^{\\": 6016,
      "\u0120literally": 6017,
      "\u0120banks": 6018,
      "021": 6019,
      "\u0120OF": 6020,
      "\u0120affected": 6021,
      "\u0120mobile": 6022,
      "\u0120everybody": 6023,
      "\u0120Bi": 6024,
      "Anonymous": 6025,
      "\u0120formation": 6026,
      "\u0120chair": 6027,
      "\u0120desk": 6028,
      "\u0120evening": 6029,
      "\u0120fellow": 6030,
      "\u0120numerous": 6031,
      "\u0120academ": 6032,
      "uable": 6033,
      "\u0120blind": 6034,
      "rc": 6035,
      "\u0120Phil": 6036,
      "pet": 6037,
      "ona": 6038,
      "erent": 6039,
      "\u0120fault": 6040,
      "\u0120colon": 6041,
      "\u0120reader": 6042,
      "\u0120suc": 6043,
      "ocation": 6044,
      "\u0120==": 6045,
      "Gen": 6046,
      "\u0120atmosp": 6047,
      "Col": 6048,
      "gery": 6049,
      "\u0120Del": 6050,
      "DF": 6051,
      "\u0120finish": 6052,
      "\u0120infect": 6053,
      "iat": 6054,
      "\u0120principle": 6055,
      "\u0120Whe": 6056,
      "data": 6057,
      "\u0120arguments": 6058,
      "Des": 6059,
      "\u0120hat": 6060,
      "\u0120Cath": 6061,
      "oken": 6062,
      "\u0120flight": 6063,
      "style": 6064,
      "\u0120yeah": 6065,
      "outs": 6066,
      "omin": 6067,
      "\u0120Ref": 6068,
      "\u0120equation": 6069,
      "\u0120arrived": 6070,
      "\u0120hadn": 6071,
      "\u0120measures": 6072,
      "\u0120dinner": 6073,
      "\u0120upper": 6074,
      "\u0120Perhaps": 6075,
      "aine": 6076,
      "\u0120resistance": 6077,
      "they": 6078,
      "\u0120choices": 6079,
      "\u0120grav": 6080,
      "\u0120effectively": 6081,
      "\u0120teen": 6082,
      "\u0120perfectly": 6083,
      "icon": 6084,
      "\u0120Make": 6085,
      "\u0120reasonable": 6086,
      "going": 6087,
      "\u0120tor": 6088,
      "stein": 6089,
      "figure": 6090,
      "\u0120Bre": 6091,
      "\u0120flav": 6092,
      "arly": 6093,
      "\u0120Bob": 6094,
      "\u0120soldiers": 6095,
      "Where": 6096,
      "\u0120remaining": 6097,
      "\u0120losing": 6098,
      "\u0120Sk": 6099,
      "('": 6100,
      "\u0120promot": 6101,
      "draw": 6102,
      "\u0120Joe": 6103,
      "\u0120networks": 6104,
      "\u0120involve": 6105,
      "gency": 6106,
      "mathbf": 6107,
      "\u0120gay": 6108,
      "\u0120q": 6109,
      "\u0120During": 6110,
      "\u0120bomb": 6111,
      "\u0120frequently": 6112,
      "igation": 6113,
      "\u0120Christmas": 6114,
      "\u0120Que": 6115,
      "\u0120Times": 6116,
      "\u0120convention": 6117,
      "\u0120discussed": 6118,
      "79": 6119,
      "\u0120Lou": 6120,
      "\u0120sports": 6121,
      "\u0120depth": 6122,
      "\u0120struggle": 6123,
      "ses": 6124,
      "oman": 6125,
      "icken": 6126,
      "page": 6127,
      "Rel": 6128,
      "enced": 6129,
      "ilon": 6130,
      "998": 6131,
      "\u0120profit": 6132,
      "\u0120ru": 6133,
      "\u0120liked": 6134,
      "\u0120harder": 6135,
      "\u0120equivalent": 6136,
      "\u0120channel": 6137,
      "}{\\": 6138,
      "ceived": 6139,
      "\u00e4\u00b8": 6140,
      "itchen": 6141,
      "73": 6142,
      "\u0120gene": 6143,
      "graph": 6144,
      "\u0120comfortable": 6145,
      "\u0120Union": 6146,
      "\u0120director": 6147,
      "\u0120frequency": 6148,
      "rical": 6149,
      "\u0120Publ": 6150,
      "\u0120Tre": 6151,
      "\u0120stone": 6152,
      "coming": 6153,
      "\u0120keeps": 6154,
      "\u0120competition": 6155,
      "igen": 6156,
      "\u0120rent": 6157,
      "bi": 6158,
      "\u0120comparison": 6159,
      "\u0120Hill": 6160,
      "\u0120Power": 6161,
      "150": 6162,
      "OP": 6163,
      "\u0120hyper": 6164,
      "\u0120auto": 6165,
      "\u0120chapter": 6166,
      "\u0120appearance": 6167,
      "va": 6168,
      "\u0120dance": 6169,
      "\u0120joint": 6170,
      "cluding": 6171,
      "\u0120isol": 6172,
      "pd": 6173,
      "\u0120whis": 6174,
      "\u0120teachers": 6175,
      "\u0120Tor": 6176,
      "okes": 6177,
      "post": 6178,
      "inst": 6179,
      "\u0120amb": 6180,
      "\u0120environmental": 6181,
      "\u0120prepar": 6182,
      "\u0120ultimately": 6183,
      "omething": 6184,
      "ye": 6185,
      "\u0120unable": 6186,
      "BS": 6187,
      "Another": 6188,
      "\u0120intellect": 6189,
      "\u0120creative": 6190,
      "\u0120samples": 6191,
      "\u0120listening": 6192,
      "\u00d9\u0126": 6193,
      "\u0120Step": 6194,
      "span": 6195,
      "bor": 6196,
      "apped": 6197,
      "\u0120African": 6198,
      "\u0120purposes": 6199,
      "App": 6200,
      "\u0120Supp": 6201,
      "TER": 6202,
      "bing": 6203,
      "\u0120Str": 6204,
      "\u0120served": 6205,
      "\u0120variable": 6206,
      "url": 6207,
      "\u0120Bas": 6208,
      "\u0120Test": 6209,
      "test": 6210,
      "orders": 6211,
      "========": 6212,
      "\u0120shock": 6213,
      "level": 6214,
      "\u0120pointed": 6215,
      "\u0120density": 6216,
      "iler": 6217,
      "\u0120(\\": 6218,
      "\u0120practical": 6219,
      "\u0120Greek": 6220,
      "\u0120disci": 6221,
      "wing": 6222,
      "\u0120Ber": 6223,
      "\u0120essentially": 6224,
      "\u0120mic": 6225,
      "\u0120flex": 6226,
      "include": 6227,
      "LA": 6228,
      "\u0120Again": 6229,
      "\u0120seat": 6230,
      "\u0120Sometimes": 6231,
      "aching": 6232,
      "\u0120End": 6233,
      "\u0120recognize": 6234,
      "friend": 6235,
      "\u0120vacc": 6236,
      "\u0120generate": 6237,
      "^{-": 6238,
      "\u0120picked": 6239,
      "\u0120package": 6240,
      "\u0120consult": 6241,
      "\u0120coord": 6242,
      "\u0120tasks": 6243,
      "\u0120insp": 6244,
      "\u0120lips": 6245,
      "\u0120external": 6246,
      "\u0120\u00d8": 6247,
      "\u0120secure": 6248,
      "\u0120Further": 6249,
      "\u0120rational": 6250,
      "\u0120heads": 6251,
      "\u0120Bible": 6252,
      "html": 6253,
      "\u0120brings": 6254,
      "\u0120hall": 6255,
      "\u0120consequences": 6256,
      "\u0120practices": 6257,
      "\u0120acts": 6258,
      "\u0120younger": 6259,
      "\u0120bell": 6260,
      "\u0120lock": 6261,
      "swered": 6262,
      "Pe": 6263,
      "\u0120Tex": 6264,
      "Please": 6265,
      "\u0120Scott": 6266,
      "\u0120spell": 6267,
      "case": 6268,
      "\u0120structures": 6269,
      "\u0120severe": 6270,
      "\u0120convin": 6271,
      "\u0120busy": 6272,
      "ION": 6273,
      "\u0120McC": 6274,
      "life": 6275,
      "72": 6276,
      "\u0120stuck": 6277,
      "\u0120Sol": 6278,
      "\u0120Phys": 6279,
      "\u0120compre": 6280,
      "\u0120argue": 6281,
      "eding": 6282,
      "\u0120update": 6283,
      "800": 6284,
      "\u0120ride": 6285,
      "ala": 6286,
      "\u0120Soci": 6287,
      "roph": 6288,
      "\u0120Home": 6289,
      "\u0120succeed": 6290,
      "\u0120sle": 6291,
      "rency": 6292,
      "\u0120Tim": 6293,
      "ructure": 6294,
      "oma": 6295,
      "\u0120liquid": 6296,
      "\u0120mad": 6297,
      "\u0120RE": 6298,
      "PC": 6299,
      "\u0120Prot": 6300,
      "\u0120brows": 6301,
      "nam": 6302,
      "herent": 6303,
      "\u0120Cap": 6304,
      "\u0120television": 6305,
      "\u0120aid": 6306,
      "\u0120Vir": 6307,
      "BA": 6308,
      "\u0120</": 6309,
      "ura": 6310,
      "\u0120moves": 6311,
      "\u0120Hen": 6312,
      "\u0120dram": 6313,
      "cked": 6314,
      "\u0120consistent": 6315,
      "asm": 6316,
      "\u0120generated": 6317,
      "\u0120illegal": 6318,
      "\u0120Sil": 6319,
      "\u0120hidden": 6320,
      "\u0120habit": 6321,
      "\u0120Republican": 6322,
      "\u0120messages": 6323,
      "usiness": 6324,
      "rome": 6325,
      "\u0120Government": 6326,
      "\u0120narrow": 6327,
      "\u0120san": 6328,
      "gun": 6329,
      "\u0120Mer": 6330,
      "\u0120Human": 6331,
      "\u0120operating": 6332,
      "\u00ce\u00bd": 6333,
      "\u0120highlight": 6334,
      "\u0120hydro": 6335,
      "\u00c3\u0143": 6336,
      "\u0120abuse": 6337,
      "fty": 6338,
      "agers": 6339,
      "\u0120tomorrow": 6340,
      "\u0120concerns": 6341,
      "\u0120subt": 6342,
      "aser": 6343,
      "\u0120weapon": 6344,
      "\u0120acting": 6345,
      "\u0120asks": 6346,
      "\u0120dropped": 6347,
      "\u0120Bro": 6348,
      "\u0120chosen": 6349,
      "ENT": 6350,
      "\u0120assert": 6351,
      "usal": 6352,
      "*}": 6353,
      "\u0120gather": 6354,
      "\u0120skill": 6355,
      "ville": 6356,
      "\u0120aside": 6357,
      "\u0120math": 6358,
      "\u0120fasc": 6359,
      "\u0120technique": 6360,
      "\u0120quantum": 6361,
      "\u0120manif": 6362,
      "Gr": 6363,
      "\u0120UN": 6364,
      "rbrakk": 6365,
      "\u0120survive": 6366,
      "\u0120holds": 6367,
      "\u0120MS": 6368,
      "\u0120Det": 6369,
      "\u0120literature": 6370,
      "\u0120ax": 6371,
      "\u0120moon": 6372,
      "\u0120agent": 6373,
      "\u0120suffering": 6374,
      "\u0120forever": 6375,
      "\u0120broke": 6376,
      "nic": 6377,
      "\u0120fool": 6378,
      "\u0120Associ": 6379,
      "arl": 6380,
      "ansion": 6381,
      "\u0120excited": 6382,
      "\u0120normally": 6383,
      "\u0120storage": 6384,
      "\u0120medicine": 6385,
      "Rec": 6386,
      "\u0120chief": 6387,
      "celer": 6388,
      "leq": 6389,
      "lines": 6390,
      "\u0120suppose": 6391,
      "\u0120bath": 6392,
      "ifts": 6393,
      "\u0120vul": 6394,
      "\u0120stands": 6395,
      "\u0120ju": 6396,
      "\u0120spring": 6397,
      "\u0120parameters": 6398,
      "inton": 6399,
      "\u0120gotten": 6400,
      "\u0120leadership": 6401,
      "600": 6402,
      "\u0120cab": 6403,
      "\u0120unknown": 6404,
      "Rep": 6405,
      "\u0120component": 6406,
      "\u0120mail": 6407,
      "\u0120accounts": 6408,
      "\u0120disapp": 6409,
      "\u0120Old": 6410,
      "\u0120walls": 6411,
      "\u0120twenty": 6412,
      "oret": 6413,
      "\u0120plastic": 6414,
      "pal": 6415,
      "\u0120storm": 6416,
      "\u0120largely": 6417,
      "Mr": 6418,
      "\u0120explore": 6419,
      "\u0120Jer": 6420,
      "\u0120reply": 6421,
      "\u0120terrible": 6422,
      "was": 6423,
      "\u0120opportunities": 6424,
      "function": 6425,
      "Ob": 6426,
      "unte": 6427,
      "\u0120river": 6428,
      "stile": 6429,
      "\u0120drag": 6430,
      "ette": 6431,
      "ensional": 6432,
      "lbrakk": 6433,
      "\u0120revealed": 6434,
      "\u0120myth": 6435,
      "\u0120truck": 6436,
      "\u0120interaction": 6437,
      "\u0120vary": 6438,
      "gent": 6439,
      "\u00ce\u00bf": 6440,
      "\u0120tired": 6441,
      "\u0120motor": 6442,
      "\u0120letters": 6443,
      "\u0120AND": 6444,
      "\u0120selection": 6445,
      "dim": 6446,
      "ician": 6447,
      "itle": 6448,
      "ilde": 6449,
      "\u0120Free": 6450,
      "\u0120domin": 6451,
      "\u0120Di": 6452,
      "nu": 6453,
      "MP": 6454,
      "\u0120genes": 6455,
      "Go": 6456,
      "+\\": 6457,
      "74": 6458,
      "iller": 6459,
      "zed": 6460,
      "\u0120youth": 6461,
      "empl": 6462,
      "\u0120carefully": 6463,
      "></": 6464,
      "agraph": 6465,
      "\u0120Prop": 6466,
      "ns": 6467,
      "\u0120Take": 6468,
      "\u0120tough": 6469,
      "aze": 6470,
      "\u0120homes": 6471,
      "\u0120communities": 6472,
      "\u0120conclusion": 6473,
      "\u0120mainly": 6474,
      "\u0120Id": 6475,
      "\u0120appoint": 6476,
      "\u0120sees": 6477,
      "\u0120dealing": 6478,
      "\u0120Sunday": 6479,
      "\u0120passion": 6480,
      "\u0120Last": 6481,
      "\u0120rac": 6482,
      "\u0120Lu": 6483,
      "\u0120somebody": 6484,
      "imp": 6485,
      "``": 6486,
      "\u0120answered": 6487,
      "\u0120appreciate": 6488,
      "\u0120photos": 6489,
      "\u0120Today": 6490,
      "\u0120occurs": 6491,
      "\u0120principles": 6492,
      "Since": 6493,
      "run": 6494,
      "\u0120genetic": 6495,
      "\u0120officer": 6496,
      "\u0120Back": 6497,
      "iated": 6498,
      "\u0120margin": 6499,
      "\u0120Thomas": 6500,
      "\u0120yesterday": 6501,
      "\u0120substant": 6502,
      "\u0120languages": 6503,
      "\u0120recon": 6504,
      "cific": 6505,
      "\u0120hasn": 6506,
      "alian": 6507,
      "resents": 6508,
      "\u0120border": 6509,
      "non": 6510,
      "lands": 6511,
      "sey": 6512,
      "\u0120Plan": 6513,
      "\u0120brown": 6514,
      "\u0120ske": 6515,
      "icago": 6516,
      "\u0120shoulder": 6517,
      "\u0120Fin": 6518,
      "\u0120tum": 6519,
      "turnstile": 6520,
      "icted": 6521,
      "\u0120Page": 6522,
      "\u0120split": 6523,
      "\u0120funds": 6524,
      "ython": 6525,
      "abled": 6526,
      "eless": 6527,
      "rt": 6528,
      "Te": 6529,
      "\u00e1\u00bd": 6530,
      "\u0120vent": 6531,
      "\u0120boost": 6532,
      "lege": 6533,
      "inity": 6534,
      "rep": 6535,
      "\u0120Friday": 6536,
      "inks": 6537,
      "\u0120candidate": 6538,
      "\u0120cert": 6539,
      "\u0120partners": 6540,
      "\u0120rom": 6541,
      "\u0120profession": 6542,
      "ulture": 6543,
      "\u0120\u00e0\u00a4": 6544,
      "\u0120perman": 6545,
      "\u0120combined": 6546,
      "\u0120weekend": 6547,
      "oin": 6548,
      "\u0120illustr": 6549,
      "\u0120loan": 6550,
      "\u0120degrees": 6551,
      "\u0120wire": 6552,
      "andon": 6553,
      "\u0120remote": 6554,
      "umin": 6555,
      "ba": 6556,
      "Also": 6557,
      "\u0120beauty": 6558,
      "\u0120mac": 6559,
      "\u0120officials": 6560,
      "\u0120wine": 6561,
      "\u0120mal": 6562,
      "otal": 6563,
      "zing": 6564,
      "\u0120\u0120\u0120\u0120\u0120\u0120\u0120\u0120\u0120\u0120\u0120\u0120\u0120": 6565,
      "\u0120Microsoft": 6566,
      "\u0120manager": 6567,
      "uated": 6568,
      "\u0120finds": 6569,
      "\u0120sharing": 6570,
      "kins": 6571,
      "\u0120goods": 6572,
      "\u0120intention": 6573,
      "\u0120exhib": 6574,
      "\u0120Wil": 6575,
      "\u00c4\u0123": 6576,
      "\u0120admit": 6577,
      "\u0120returns": 6578,
      "\u0120disag": 6579,
      "\u0120transition": 6580,
      "\u0120Class": 6581,
      "\u0120Pet": 6582,
      "ibilities": 6583,
      "\u0120xs": 6584,
      "\u0120grown": 6585,
      "fast": 6586,
      "mes": 6587,
      "\u0120markets": 6588,
      "\u0120wra": 6589,
      "####": 6590,
      "\u0120Emp": 6591,
      "85": 6592,
      "\u0120crew": 6593,
      "\u0120boot": 6594,
      "\u0120detailed": 6595,
      "mo": 6596,
      "\u0120Fore": 6597,
      "\u0120referred": 6598,
      "\u0120nations": 6599,
      "Even": 6600,
      "?)": 6601,
      "\u0120warn": 6602,
      "\u0120involves": 6603,
      "ushed": 6604,
      "\u0120Dev": 6605,
      "raction": 6606,
      "Sub": 6607,
      "\u0120adop": 6608,
      "water": 6609,
      "\u0120nobody": 6610,
      "oration": 6611,
      "\u0120falling": 6612,
      "Per": 6613,
      "gebra": 6614,
      "\u0120Ir": 6615,
      "\u0120Hall": 6616,
      "\u0120negot": 6617,
      "mathrm": 6618,
      "\u0120paint": 6619,
      "\u0120logic": 6620,
      "997": 6621,
      "\u0120Aut": 6622,
      "who": 6623,
      "\u0120proud": 6624,
      "burg": 6625,
      "\u0120Richard": 6626,
      "\u0120regions": 6627,
      "\u0120wal": 6628,
      "EO": 6629,
      "ether": 6630,
      "\u0120encourage": 6631,
      "bec": 6632,
      "\u00e3\u0125": 6633,
      "\u0120mistake": 6634,
      "SA": 6635,
      "\u0120finger": 6636,
      "orted": 6637,
      "\u0120org": 6638,
      "ifies": 6639,
      "\u0120ratio": 6640,
      ",'": 6641,
      "\u0120naturally": 6642,
      "\u0120entered": 6643,
      "\u0120intent": 6644,
      "\u0120bringing": 6645,
      "apse": 6646,
      "\u0120therapy": 6647,
      "azine": 6648,
      "\u0120feedback": 6649,
      "ota": 6650,
      "Name": 6651,
      "\u0120angry": 6652,
      "ptions": 6653,
      "Back": 6654,
      "ua": 6655,
      "\u0120editor": 6656,
      "\u0120AD": 6657,
      "!!!": 6658,
      "\u0120spr": 6659,
      "980": 6660,
      "Page": 6661,
      "\u0120Ann": 6662,
      "\u0120Rad": 6663,
      "\u0120filter": 6664,
      "mid": 6665,
      "\u0120imper": 6666,
      "Var": 6667,
      "\u0120documents": 6668,
      "John": 6669,
      "taining": 6670,
      "adian": 6671,
      "\u0120valuable": 6672,
      "ught": 6673,
      "ication": 6674,
      "\u0120subsequ": 6675,
      "\u0120pil": 6676,
      "\u0120videos": 6677,
      "\u0120conven": 6678,
      "\u0120hide": 6679,
      "bered": 6680,
      "\u0120committed": 6681,
      "anges": 6682,
      "\u0120sacr": 6683,
      "osal": 6684,
      "ortion": 6685,
      "ample": 6686,
      ".]": 6687,
      "\u0120manufacture": 6688,
      "\u0120regul": 6689,
      "EE": 6690,
      "\u0120None": 6691,
      "onent": 6692,
      "\u0120Direct": 6693,
      "\u0120extend": 6694,
      "theta": 6695,
      "cor": 6696,
      "there": 6697,
      "aws": 6698,
      "car": 6699,
      "\u0120Franc": 6700,
      "\u0120passing": 6701,
      "\u0120stack": 6702,
      "van": 6703,
      "\u0120fucking": 6704,
      "\u0120positions": 6705,
      ">>": 6706,
      "rieved": 6707,
      "itar": 6708,
      "Right": 6709,
      "\u0120smiled": 6710,
      "\u0120profile": 6711,
      "])": 6712,
      "\u0120hung": 6713,
      "\u0120lights": 6714,
      "pling": 6715,
      "\u0120manip": 6716,
      "\u0120wed": 6717,
      "\u0120replaced": 6718,
      "\u0120myst": 6719,
      "greg": 6720,
      "\u0120pin": 6721,
      "\u0120awesome": 6722,
      "\u0120represents": 6723,
      "\u0120ingred": 6724,
      "Out": 6725,
      "PA": 6726,
      "\u0120AI": 6727,
      "sect": 6728,
      "\u0120Nor": 6729,
      "atus": 6730,
      "\u0120saved": 6731,
      "ola": 6732,
      "delta": 6733,
      "rip": 6734,
      "\u0120reward": 6735,
      "\u0120Fire": 6736,
      "pg": 6737,
      "gged": 6738,
      "\u0120explains": 6739,
      "atar": 6740,
      "appy": 6741,
      "\u0120remained": 6742,
      "\u0120Top": 6743,
      "\u0120Section": 6744,
      "\u0120audio": 6745,
      "exp": 6746,
      "Id": 6747,
      "\u0120Sat": 6748,
      "rho": 6749,
      "$$": 6750,
      "\u0120extended": 6751,
      "\u0120automatically": 6752,
      "\u0120virtual": 6753,
      "\u0120AS": 6754,
      "elling": 6755,
      "\u0120complicated": 6756,
      "\u0120trib": 6757,
      "\u0120Ty": 6758,
      "\u0120clients": 6759,
      "\u0120plain": 6760,
      "xiety": 6761,
      "\u0120variables": 6762,
      "\u0120studied": 6763,
      "\u0120artist": 6764,
      "\u0120bread": 6765,
      "\u0120fab": 6766,
      "\u0120Note": 6767,
      "\u0120architecture": 6768,
      "\u0120Data": 6769,
      "connect": 6770,
      "\u0120drinking": 6771,
      "\u0120respectively": 6772,
      "\u0120amounts": 6773,
      "\u0120inner": 6774,
      "arts": 6775,
      "\u0120Love": 6776,
      "\u0120injury": 6777,
      "\u0120~": 6778,
      "\u0120surprising": 6779,
      "\u0120fro": 6780,
      "\u00e2\u0124\u00ac": 6781,
      "\u0120officers": 6782,
      "\u0120hang": 6783,
      "\u0120promise": 6784,
      "\u0120figures": 6785,
      "\u0120expressed": 6786,
      "\u0120blame": 6787,
      "\u0120widely": 6788,
      "\u0120confir": 6789,
      "reens": 6790,
      "https": 6791,
      "\u0120tail": 6792,
      "sk": 6793,
      "\u0120Before": 6794,
      "\u0120Steve": 6795,
      "\u0120flag": 6796,
      "\u0120personally": 6797,
      "vsp": 6798,
      "\u0120solar": 6799,
      "\u0120algorithm": 6800,
      "\u0120wound": 6801,
      "anna": 6802,
      "\u0120sustain": 6803,
      "\u0120Sar": 6804,
      "\u0120tall": 6805,
      "\u0120cere": 6806,
      "\u0120Ins": 6807,
      "duc": 6808,
      "\u0120oblig": 6809,
      "\u0120Ma": 6810,
      "}$,": 6811,
      "\u0120session": 6812,
      "\u0120occurred": 6813,
      "\u0120Sing": 6814,
      "\u0120kitchen": 6815,
      "irc": 6816,
      "ressive": 6817,
      "\u0120Develop": 6818,
      "\u0120gender": 6819,
      "\u0120careful": 6820,
      "\u0120Sum": 6821,
      "amily": 6822,
      "\u0120Finally": 6823,
      "\u0120\u00c2\u0142\u0120\u00c2\u0142\u0120\u00c2\u0142\u0120\u00c2\u0142": 6824,
      "\u0120opposed": 6825,
      "apes": 6826,
      "\u00c3\u00b3": 6827,
      "\u0120stom": 6828,
      "ican": 6829,
      "\u0120layers": 6830,
      "py": 6831,
      "Type": 6832,
      "\u0120missed": 6833,
      "rast": 6834,
      "\u0120About": 6835,
      "\u0120relation": 6836,
      "\u0120village": 6837,
      "\u0120controlled": 6838,
      "\u0120array": 6839,
      "\u0120confidence": 6840,
      "oral": 6841,
      "\u0120errors": 6842,
      "\u0120Men": 6843,
      "\u0120clar": 6844,
      "\u0120everywhere": 6845,
      "\u0120Ill": 6846,
      "een": 6847,
      "\u0120cro": 6848,
      "\u0120heaven": 6849,
      "nding": 6850,
      "MA": 6851,
      "\u0120Long": 6852,
      "aniel": 6853,
      "...\"": 6854,
      "\u0120Inf": 6855,
      "\u0120innoc": 6856,
      "sq": 6857,
      "foot": 6858,
      "\u0120era": 6859,
      "acle": 6860,
      "\u0120bless": 6861,
      "\u0120wondering": 6862,
      "ounter": 6863,
      "\u0120salt": 6864,
      "\u0120charged": 6865,
      "\u0120mechanism": 6866,
      "\u0120replied": 6867,
      "ystem": 6868,
      "\u0120pleasure": 6869,
      "Sec": 6870,
      "Many": 6871,
      "\u0120theme": 6872,
      "\u0120exception": 6873,
      "dule": 6874,
      "rich": 6875,
      "\u0120tong": 6876,
      "isters": 6877,
      "\u0120mixed": 6878,
      "\u0120annoy": 6879,
      "\u0120Sir": 6880,
      "\u0120improved": 6881,
      "Acc": 6882,
      "\u0120Never": 6883,
      "iger": 6884,
      "\u0120Institute": 6885,
      "\u0120Bur": 6886,
      "\u0120strict": 6887,
      "share": 6888,
      "\u0120Texas": 6889,
      "Because": 6890,
      "\u0120sector": 6891,
      "\u0120combat": 6892,
      "\u0120frs": 6893,
      "\u0120Using": 6894,
      "xual": 6895,
      "\u0120Mass": 6896,
      "\u0120Sand": 6897,
      "\u0120sharp": 6898,
      "forcement": 6899,
      "\u0120originally": 6900,
      "\u0120cosm": 6901,
      "bles": 6902,
      "lets": 6903,
      "\u0120Middle": 6904,
      "Gamma": 6905,
      "\u0120Britain": 6906,
      "ishment": 6907,
      "\u0120gentle": 6908,
      "Ne": 6909,
      "\u0120boss": 6910,
      "DP": 6911,
      "\u0120bon": 6912,
      "\u0120Information": 6913,
      "dr": 6914,
      "alysis": 6915,
      "roat": 6916,
      "\u0120philosophy": 6917,
      "\u0120circle": 6918,
      "\u0120creates": 6919,
      "\u0120copyright": 6920,
      "\u0120mask": 6921,
      "\u0120linked": 6922,
      "\u0120Mel": 6923,
      "\u0120welcome": 6924,
      "\u0120smoke": 6925,
      "pected": 6926,
      "\u0120destroyed": 6927,
      "\u0120machines": 6928,
      "\u0120statements": 6929,
      "\u0120commonly": 6930,
      "\u0120Water": 6931,
      "\u0120Fig": 6932,
      "\u0120gift": 6933,
      "\u0120category": 6934,
      "\u0120assemb": 6935,
      "\u0120explo": 6936,
      "\u0120Hell": 6937,
      "\u0120Econom": 6938,
      "\u0120row": 6939,
      "996": 6940,
      "\u0120yellow": 6941,
      "\u0120compare": 6942,
      "\u0120physics": 6943,
      "\u0120enjoyed": 6944,
      "\u0120plate": 6945,
      "\u0120pushed": 6946,
      "\u0120experiments": 6947,
      "\u0120Answ": 6948,
      "\u00d0\u00b0\u00d0": 6949,
      "\u0120tag": 6950,
      "oster": 6951,
      "\u0120suffer": 6952,
      "indu": 6953,
      "\u0120tact": 6954,
      "\u0120suit": 6955,
      "\u0120Wall": 6956,
      "requ": 6957,
      "\u0120dust": 6958,
      "\u0120adults": 6959,
      "\u0120Twitter": 6960,
      "\u0120uniform": 6961,
      "\u0120Max": 6962,
      "\u0120procedure": 6963,
      "\u0120resolution": 6964,
      "enth": 6965,
      "\u0120soil": 6966,
      "ographic": 6967,
      "hh": 6968,
      "\u0120shooting": 6969,
      "ilit": 6970,
      "ildren": 6971,
      "\u0120newsp": 6972,
      "\u0120giant": 6973,
      "\u0120Brown": 6974,
      "\u0120advoc": 6975,
      "\u0120Mem": 6976,
      "anny": 6977,
      "\u0120Such": 6978,
      "\u0120native": 6979,
      "lock": 6980,
      "\u0120Figure": 6981,
      "\u0120xa": 6982,
      "\u0120linear": 6983,
      "obe": 6984,
      "\u0120beliefs": 6985,
      "ghan": 6986,
      "\u0120Jose": 6987,
      "inet": 6988,
      "\u0120wis": 6989,
      "cm": 6990,
      "Am": 6991,
      "\u0120Liber": 6992,
      "\u0120troops": 6993,
      "\u0120Elect": 6994,
      "\u0120limits": 6995,
      "\u0120Hol": 6996,
      "\u0120football": 6997,
      "\u0120Nav": 6998,
      "\u0120Charles": 6999,
      "\u0120beings": 7000,
      "stk": 7001,
      "\u0120virus": 7002,
      "\u0120assign": 7003,
      "\u0120routine": 7004,
      "born": 7005,
      "\u0120resource": 7006,
      "\u0120Read": 7007,
      "\u0120Would": 7008,
      "\u0120abandon": 7009,
      "\u0120offering": 7010,
      "anta": 7011,
      "\u0120deploy": 7012,
      "\u0120Budd": 7013,
      "\u0120corresponding": 7014,
      "olit": 7015,
      "\u0120\u0120\u010a": 7016,
      "ogy": 7017,
      "\u0120boat": 7018,
      "\u0120formal": 7019,
      "\u0120disappoint": 7020,
      "\u0120=>": 7021,
      "\u0120tox": 7022,
      "\u0120orders": 7023,
      "\u0120houses": 7024,
      "\u0120wet": 7025,
      "CE": 7026,
      "\u0120emotion": 7027,
      "iner": 7028,
      "\u0120framework": 7029,
      "\u0120divers": 7030,
      "\u0120Martin": 7031,
      ".\u00e2\u0122\u013b": 7032,
      "\u0120prime": 7033,
      "\u0120surgery": 7034,
      "\u0120Exp": 7035,
      "\u0120pump": 7036,
      "\u0120quote": 7037,
      "\u0120district": 7038,
      "\u0120Korea": 7039,
      "\u0120vo": 7040,
      "\u0120Li": 7041,
      "\u0120coast": 7042,
      "\u0120desper": 7043,
      "owed": 7044,
      "cers": 7045,
      "lements": 7046,
      "\u0120pra": 7047,
      "tri": 7048,
      "\u0120breaking": 7049,
      "\u0120scenario": 7050,
      "\u0120decent": 7051,
      "\u0120tries": 7052,
      "List": 7053,
      "\u0120colors": 7054,
      "\u0120drawn": 7055,
      "\u0120emotions": 7056,
      "\u0120closely": 7057,
      "120": 7058,
      "\u0120sending": 7059,
      "edit": 7060,
      "pel": 7061,
      "\u0120launch": 7062,
      "ifications": 7063,
      "whel": 7064,
      "\u0120investigation": 7065,
      "\u0120stro": 7066,
      "\u0120constitution": 7067,
      "\u0120computers": 7068,
      "\u0120unw": 7069,
      "\u00c2\u0142\u0120": 7070,
      "\u0120proport": 7071,
      "\u0120indicate": 7072,
      "\u0120likes": 7073,
      "\u0120uncertain": 7074,
      "\u0120stronger": 7075,
      "\u0120Gal": 7076,
      "istor": 7077,
      "asant": 7078,
      "have": 7079,
      "\u0120incident": 7080,
      "grade": 7081,
      "\u0120recorded": 7082,
      "\u0120remem": 7083,
      "erring": 7084,
      "\u0120ped": 7085,
      "pass": 7086,
      "eping": 7087,
      "Data": 7088,
      "aren": 7089,
      "ested": 7090,
      "\u0120liberal": 7091,
      "\u0120Rock": 7092,
      "\u0120bat": 7093,
      "ruption": 7094,
      "\u0120researchers": 7095,
      "\u0120corporate": 7096,
      "\u0120OK": 7097,
      "hent": 7098,
      "\u0120Dark": 7099,
      "\u0120dad": 7100,
      "\u0120ridic": 7101,
      "\u0120Sup": 7102,
      "pring": 7103,
      "RL": 7104,
      "\u0120chunk": 7105,
      "\u0120stable": 7106,
      "BI": 7107,
      "\u0120Security": 7108,
      "\u0120sale": 7109,
      "gend": 7110,
      "oust": 7111,
      "\u0120Public": 7112,
      "\u0120Flor": 7113,
      "\u0120industrial": 7114,
      "lar": 7115,
      "\u0120versions": 7116,
      "inite": 7117,
      "\u0120programming": 7118,
      "\u0120ending": 7119,
      "\u0120quarter": 7120,
      "\u0120minds": 7121,
      "Last": 7122,
      "inent": 7123,
      "ilty": 7124,
      "\u0120potentially": 7125,
      "\u0120Francis": 7126,
      "\u0120legit": 7127,
      "\u0120blow": 7128,
      "othing": 7129,
      "sters": 7130,
      "\u0120portion": 7131,
      "Ref": 7132,
      "\u0120doctors": 7133,
      "Sim": 7134,
      "\u0120ye": 7135,
      "abs": 7136,
      "\u0120tone": 7137,
      "\u0120consumer": 7138,
      "\u0120Liter": 7139,
      "\u0120Nov": 7140,
      "995": 7141,
      "\u0120faces": 7142,
      "Mar": 7143,
      "Thanks": 7144,
      "\u0120pm": 7145,
      "\u00e3\u0124": 7146,
      "\u0120Form": 7147,
      "\u0120enemies": 7148,
      "\u0120agents": 7149,
      "\u0120characteristics": 7150,
      "\u00c3\u00b6": 7151,
      "xx": 7152,
      "code": 7153,
      "\u0120decade": 7154,
      "\u0120interface": 7155,
      "\u0120complexity": 7156,
      "Good": 7157,
      "\u0120flying": 7158,
      "VER": 7159,
      "\u0120enhance": 7160,
      "\u0120Wal": 7161,
      "enny": 7162,
      "\u0120matrix": 7163,
      "\u0120Amazon": 7164,
      "eness": 7165,
      "\u0120Je": 7166,
      "\u0120approaches": 7167,
      "\u0120attempts": 7168,
      "\u0120driven": 7169,
      "\u0120waves": 7170,
      "\u0120stomach": 7171,
      "\u0120Chicago": 7172,
      "mega": 7173,
      "\u0120victims": 7174,
      "\u0120List": 7175,
      "\u0120rig": 7176,
      "\u0120hardware": 7177,
      "\u0120Pak": 7178,
      "\u0120strategies": 7179,
      "hline": 7180,
      "\u0120bone": 7181,
      "ras": 7182,
      "\u0120cream": 7183,
      "IF": 7184,
      "\u0120volunte": 7185,
      "\u0120tort": 7186,
      "Once": 7187,
      "ffect": 7188,
      "\u0120whenever": 7189,
      "\u0120classic": 7190,
      "\u0120nose": 7191,
      "\u00e2\u0122\u013b.": 7192,
      "bits": 7193,
      "\u0120payment": 7194,
      "\u0120diseases": 7195,
      "\u0120efficiency": 7196,
      "\u0120guns": 7197,
      "\u0120Dist": 7198,
      "\u0120deeply": 7199,
      "\u0120CH": 7200,
      "\u0120strongly": 7201,
      "\u0120Cy": 7202,
      "\u00e2\u0122\u00a6.": 7203,
      "\u0120stores": 7204,
      "\u0120nom": 7205,
      "\u0120Council": 7206,
      "value": 7207,
      "\u0120toler": 7208,
      "\u0120Spanish": 7209,
      "noon": 7210,
      "\u0120domestic": 7211,
      "\u0120essay": 7212,
      "eline": 7213,
      "liament": 7214,
      "uine": 7215,
      "\u0120incorpor": 7216,
      "\u0120ignore": 7217,
      "\u0120prepare": 7218,
      "\u0120lying": 7219,
      "\u0120feat": 7220,
      "\u0120pray": 7221,
      "\u0120primarily": 7222,
      "\u0120meal": 7223,
      "\u0120atmosphere": 7224,
      "esub": 7225,
      "\u0120Still": 7226,
      "\u0120charges": 7227,
      "bsub": 7228,
      "\u0120regist": 7229,
      "pack": 7230,
      "ji": 7231,
      "\u0120streets": 7232,
      "\u0120fulf": 7233,
      "\u0120therm": 7234,
      "\u0120claimed": 7235,
      "opyright": 7236,
      "\u0120stead": 7237,
      "\u0120till": 7238,
      "\u0120arc": 7239,
      "\u0120dreams": 7240,
      "\u0120craft": 7241,
      "\u00c3\u00bc": 7242,
      "called": 7243,
      "Mod": 7244,
      "Yeah": 7245,
      "\u0120Lear": 7246,
      "udes": 7247,
      "\u0120tips": 7248,
      "\u0120hoping": 7249,
      "\u0120containing": 7250,
      "ju": 7251,
      "\u0120cow": 7252,
      "About": 7253,
      "umps": 7254,
      "\u0120\u0120\u0120\u0120\u0120\u0120\u0120\u0120\u0120\u0120\u0120\u0120": 7255,
      "86": 7256,
      "inations": 7257,
      "\u0120delay": 7258,
      "71": 7259,
      "\u0120Clinton": 7260,
      "\u0120institutions": 7261,
      "\u0120laid": 7262,
      "\u0120distributed": 7263,
      "\u0120collabor": 7264,
      "\u0120Jeff": 7265,
      "\u0120hardly": 7266,
      "\u0120buff": 7267,
      "\u0120gall": 7268,
      "inder": 7269,
      "\u0120grass": 7270,
      "\u0120seeking": 7271,
      "\u0120attitude": 7272,
      "\u0120increasingly": 7273,
      "Monday": 7274,
      "\u0120facing": 7275,
      "\u0120buildings": 7276,
      "active": 7277,
      "\u0120flash": 7278,
      "rovers": 7279,
      "\u0120IP": 7280,
      "cdot": 7281,
      "\u0120Catholic": 7282,
      "\u0120visible": 7283,
      "\u0120exposure": 7284,
      "person": 7285,
      "\u0120ordered": 7286,
      "\u0120Lee": 7287,
      "Dr": 7288,
      "anguage": 7289,
      "\u0120hel": 7290,
      "ener": 7291,
      "\u0120ves": 7292,
      "\u0120Bank": 7293,
      "\u0120immune": 7294,
      "\u0120coverage": 7295,
      "\u0120measured": 7296,
      "\u0120Ca": 7297,
      "\u0120windows": 7298,
      "\u0120paragraph": 7299,
      "etime": 7300,
      "orters": 7301,
      "\u0120Java": 7302,
      "\u0120Was": 7303,
      "\u0120ocean": 7304,
      "\u0120Mrs": 7305,
      "\u0120parameter": 7306,
      "\u0120wake": 7307,
      "haust": 7308,
      "Other": 7309,
      "orough": 7310,
      "icide": 7311,
      "rec": 7312,
      "\u0120Ver": 7313,
      "\u0120regardless": 7314,
      "uan": 7315,
      "\u0120Service": 7316,
      "vin": 7317,
      "\u0120Monday": 7318,
      "\u0120Atl": 7319,
      "\u0120Jon": 7320,
      "\u0120loose": 7321,
      "\u0120Wood": 7322,
      "\u0120grade": 7323,
      "\u0120puts": 7324,
      "\u0120Jo": 7325,
      "\u0120acceler": 7326,
      "TC": 7327,
      "\u0120explos": 7328,
      "\u0120shell": 7329,
      "\u0120selected": 7330,
      "eting": 7331,
      "\u0120union": 7332,
      "\u0120sensitive": 7333,
      "\u0120dict": 7334,
      "utation": 7335,
      "\u0120Society": 7336,
      "\u0120signed": 7337,
      "\u0120explicit": 7338,
      "improve": 7339,
      "\u0120personality": 7340,
      "92": 7341,
      "\u0120blank": 7342,
      "\u0120garden": 7343,
      "\u0120wheel": 7344,
      "\u0120theories": 7345,
      "\u0120pill": 7346,
      "\u0120Paris": 7347,
      "\u0120Democrats": 7348,
      "\u0120announced": 7349,
      "\u0120Sov": 7350,
      "\u0120correl": 7351,
      "\u0120Unfortunately": 7352,
      "Part": 7353,
      "eties": 7354,
      "Over": 7355,
      "inem": 7356,
      "MR": 7357,
      "\u0120YOU": 7358,
      "eries": 7359,
      "\u0120Bay": 7360,
      "\u0120license": 7361,
      "\u0120exposed": 7362,
      "\u0120embra": 7363,
      "\u0120Mike": 7364,
      "\u0120chose": 7365,
      "\u0120barely": 7366,
      "cluded": 7367,
      "ds": 7368,
      "\u0120info": 7369,
      "\u0120anxiety": 7370,
      "994": 7371,
      "\u0120route": 7372,
      "plete": 7373,
      "power": 7374,
      "101": 7375,
      "\u0120scenes": 7376,
      "ME": 7377,
      "Thank": 7378,
      "\u0120supporting": 7379,
      "\u0120consumption": 7380,
      "\u0120CP": 7381,
      "arted": 7382,
      "\u0120equally": 7383,
      "\u0120illness": 7384,
      "\u0120rose": 7385,
      "\u0120Asia": 7386,
      "\u0120concepts": 7387,
      "\u0120representation": 7388,
      "\u0120recommended": 7389,
      "\u0120]": 7390,
      "\u0120hook": 7391,
      "thm": 7392,
      "250": 7393,
      "\u0120tank": 7394,
      "\u0120regime": 7395,
      "angers": 7396,
      "gra": 7397,
      "\u0120Bab": 7398,
      "\u0120writers": 7399,
      "\u0120vulner": 7400,
      "arry": 7401,
      "\u0120Haw": 7402,
      "\u0120completed": 7403,
      "\u0120horiz": 7404,
      "obs": 7405,
      "\u0120immediate": 7406,
      "td": 7407,
      "abetes": 7408,
      "\u0120swim": 7409,
      "\u0120gap": 7410,
      "useum": 7411,
      "\u0120Army": 7412,
      "\u0120falls": 7413,
      "\u0120calm": 7414,
      "ikip": 7415,
      "\u0120worried": 7416,
      "Wednesday": 7417,
      "rection": 7418,
      "\u0120survey": 7419,
      "\u0120consciousness": 7420,
      "\u0120lad": 7421,
      "rangle": 7422,
      "\u0120butter": 7423,
      "\u0120datas": 7424,
      "ologist": 7425,
      "\u0120Best": 7426,
      "94": 7427,
      "\u0120believes": 7428,
      "QL": 7429,
      "\u0120experts": 7430,
      "strong": 7431,
      "\u0120outcome": 7432,
      "\u0120Div": 7433,
      "world": 7434,
      "\u0120winning": 7435,
      "agger": 7436,
      "after": 7437,
      "\u0120nerv": 7438,
      "\u0120sport": 7439,
      "}$.": 7440,
      "\u0120recall": 7441,
      "TP": 7442,
      "\u0120confused": 7443,
      "\u0120draft": 7444,
      "anned": 7445,
      "\u0120achieved": 7446,
      "izer": 7447,
      "\u0120department": 7448,
      "\u0120promote": 7449,
      "\u0120destruction": 7450,
      "\u0120Republicans": 7451,
      "\u0120Constitution": 7452,
      "\u0120adopt": 7453,
      "\u0120Mexico": 7454,
      "\u0120lady": 7455,
      "\u0120silver": 7456,
      "\u0120tears": 7457,
      "asty": 7458,
      "vy": 7459,
      "sis": 7460,
      "employ": 7461,
      "\u0120ignor": 7462,
      "\u0120attached": 7463,
      "\u0120writes": 7464,
      "\u0120\u00d9": 7465,
      "\u0120employee": 7466,
      "\u0120Light": 7467,
      "some": 7468,
      "zer": 7469,
      "\u0120Though": 7470,
      "gamma": 7471,
      "\u0120Program": 7472,
      "Look": 7473,
      "\u0120west": 7474,
      "date": 7475,
      "\u0120artists": 7476,
      "comfort": 7477,
      "ami": 7478,
      "aned": 7479,
      "\u0120unus": 7480,
      "ket": 7481,
      "\u0120Capt": 7482,
      "bid": 7483,
      "\u0120River": 7484,
      "\u0120overwhel": 7485,
      "vec": 7486,
      "VE": 7487,
      "\u0120strike": 7488,
      "NN": 7489,
      "\u0120accomp": 7490,
      "clusive": 7491,
      "\u0120mathemat": 7492,
      "\u0120rarely": 7493,
      "\u0120arrange": 7494,
      "\u0120ampl": 7495,
      "\u0120Cat": 7496,
      "\u0120recognition": 7497,
      "omega": 7498,
      "\u0120resist": 7499,
      "\u0120Ext": 7500,
      "\u0120distingu": 7501,
      "\u0120delic": 7502,
      "\u0120constraint": 7503,
      "\u0120fee": 7504,
      "\u0120deeper": 7505,
      "\u0120funding": 7506,
      "\u0120anger": 7507,
      "\u0120bridge": 7508,
      "lamm": 7509,
      "\u0120ok": 7510,
      "\u0120Sure": 7511,
      "\u0120Secret": 7512,
      "His": 7513,
      "po": 7514,
      "even": 7515,
      "\u0120invent": 7516,
      "\u0120reviews": 7517,
      "xygen": 7518,
      "\u0120pref": 7519,
      "lla": 7520,
      "den": 7521,
      "\u00ce\u00b9": 7522,
      "Wr": 7523,
      "\u0120opposition": 7524,
      "ila": 7525,
      "\u0120Ve": 7526,
      "\u0120Dan": 7527,
      "ideo": 7528,
      "lessly": 7529,
      "\u0120Ha": 7530,
      "cop": 7531,
      "\u0120whereas": 7532,
      "\u0120->": 7533,
      "\u0120Know": 7534,
      "\u0120rein": 7535,
      "cker": 7536,
      "\u0120ath": 7537,
      "rid": 7538,
      "low": 7539,
      "\u0120flood": 7540,
      "bridge": 7541,
      "cest": 7542,
      "icking": 7543,
      "\u0120university": 7544,
      "\u0120crucial": 7545,
      "\u0120Grand": 7546,
      "\u0120Sn": 7547,
      "\u0120Chris": 7548,
      "fit": 7549,
      "ifferent": 7550,
      "\u0120formula": 7551,
      "Tuesday": 7552,
      "\u0120Game": 7553,
      "isa": 7554,
      "olt": 7555,
      "\u0120letting": 7556,
      "\u0120mountain": 7557,
      "infty": 7558,
      "\u0120probability": 7559,
      "\u0120<<": 7560,
      "ko": 7561,
      "\u0120coal": 7562,
      "Sm": 7563,
      "\u0120confident": 7564,
      "\u0120democracy": 7565,
      "\u0120muscles": 7566,
      "\u0120approximately": 7567,
      "\u0120raw": 7568,
      "\u0120duty": 7569,
      "\u0120Den": 7570,
      "\u0120**": 7571,
      "\u0120nine": 7572,
      "Friday": 7573,
      "istent": 7574,
      "ikipedia": 7575,
      "DE": 7576,
      "\u0120Next": 7577,
      "\u0120humanity": 7578,
      "\u0120award": 7579,
      "teen": 7580,
      "\u0120genuine": 7581,
      "\u0120ts": 7582,
      "\u0120na": 7583,
      "\u00c2\u0142\u00c2\u0142\u010a": 7584,
      "ocratic": 7585,
      "ja": 7586,
      "\u0120governments": 7587,
      "\u0120intense": 7588,
      "\u0120tissue": 7589,
      "\u0120dollar": 7590,
      "\u0120trained": 7591,
      "\u0120interactions": 7592,
      "\u0120battery": 7593,
      "pat": 7594,
      "\u0120listed": 7595,
      "\u0120phrase": 7596,
      "\u0120sole": 7597,
      "law": 7598,
      "\u0120infection": 7599,
      "Will": 7600,
      "\u0120chat": 7601,
      "pled": 7602,
      "84": 7603,
      "\u0120oh": 7604,
      ")(": 7605,
      "DS": 7606,
      "\u0120borrow": 7607,
      "\u0120agency": 7608,
      "\u0120cutting": 7609,
      "\u0120elev": 7610,
      "tenance": 7611,
      "Note": 7612,
      "\u0120College": 7613,
      "orney": 7614,
      "\u0120tables": 7615,
      "\u0120neur": 7616,
      "\u0120mood": 7617,
      "\u0120surrounding": 7618,
      "\u0120healthcare": 7619,
      "970": 7620,
      "\u0120objective": 7621,
      "\u00c3\u00a4": 7622,
      "RS": 7623,
      "rive": 7624,
      "yes": 7625,
      "\u0120Ang": 7626,
      "\u0120afternoon": 7627,
      "\u0120discovery": 7628,
      "\u0120instrument": 7629,
      "\u0120tested": 7630,
      "orse": 7631,
      "Rem": 7632,
      "\u0120wise": 7633,
      "\u0120implementation": 7634,
      "\u0120shoes": 7635,
      "\u0120III": 7636,
      "\u0120Blog": 7637,
      "\u0120angle": 7638,
      "\u0120Sci": 7639,
      "\u0120favour": 7640,
      "\u0120assets": 7641,
      "\u0109\u0109\u0109": 7642,
      "path": 7643,
      "\u0120diam": 7644,
      "\u0120prompt": 7645,
      "\u0120embed": 7646,
      "\u0120metab": 7647,
      "\u0120conservative": 7648,
      "\u0120survival": 7649,
      "\u0120pig": 7650,
      ")\\<": 7651,
      "\u0120Boy": 7652,
      "ctrine": 7653,
      "\u0120mas": 7654,
      "\u0120Florida": 7655,
      "\u0120intellectual": 7656,
      "\u0120(\"": 7657,
      "nda": 7658,
      "\u0120conference": 7659,
      "\u0120birds": 7660,
      "\u0120percentage": 7661,
      "\u0120butt": 7662,
      "Like": 7663,
      "\u0120Afghan": 7664,
      "\u0120blocks": 7665,
      "\u0120notion": 7666,
      "\u0120technologies": 7667,
      "\u0120Master": 7668,
      "\u0120tip": 7669,
      "\u0120password": 7670,
      "\u0120IT": 7671,
      "\u0120Profess": 7672,
      "\u0120carrying": 7673,
      "\u0120restaurant": 7674,
      "ificial": 7675,
      "umer": 7676,
      "pers": 7677,
      "\u0120bother": 7678,
      "\u0120depression": 7679,
      "ivered": 7680,
      "table": 7681,
      "scape": 7682,
      "inating": 7683,
      "\u0120prosec": 7684,
      "Comp": 7685,
      "\u0120comprehens": 7686,
      "\u0120EU": 7687,
      "\u0120scheme": 7688,
      "\u0120movements": 7689,
      "\u0120candidates": 7690,
      "\u0120les": 7691,
      "\u0120memories": 7692,
      "\u0120fourth": 7693,
      "\u0120electron": 7694,
      "\u0120vector": 7695,
      "\u0120lit": 7696,
      "\u0120functional": 7697,
      "\u0120propag": 7698,
      "\u0120planned": 7699,
      "parent": 7700,
      "oked": 7701,
      "\u0120tongue": 7702,
      "\u0120papers": 7703,
      "\u0120County": 7704,
      "\u00c2\u0142\u00c2\u0142\u00c2\u0142\u00c2\u0142\u00c2\u0142\u00c2\u0142\u00c2\u0142": 7705,
      "\u0120lunch": 7706,
      "ogether": 7707,
      "\u0120regularly": 7708,
      "comes": 7709,
      "rant": 7710,
      "gel": 7711,
      "XXX": 7712,
      "icked": 7713,
      "\u0120void": 7714,
      "emic": 7715,
      "\u0120inspir": 7716,
      "\u0120schedule": 7717,
      "\u0120Psych": 7718,
      "\u0120sli": 7719,
      "\u0120trend": 7720,
      "izz": 7721,
      "Although": 7722,
      "Thursday": 7723,
      "open": 7724,
      "\u0120jack": 7725,
      "olars": 7726,
      "ali": 7727,
      "Phone": 7728,
      "quad": 7729,
      "\u0120heavily": 7730,
      "\u0120stored": 7731,
      "uz": 7732,
      "cho": 7733,
      "\u0120recognized": 7734,
      "\u0120burning": 7735,
      "\u0120Real": 7736,
      "\u0120NO": 7737,
      "ults": 7738,
      "athan": 7739,
      "gments": 7740,
      "RC": 7741,
      "\u0120relief": 7742,
      "\u0120politicians": 7743,
      "\u0120marked": 7744,
      "ushing": 7745,
      "\u0120bacteria": 7746,
      "\u0120risks": 7747,
      "\u0120mand": 7748,
      "\u0120Vict": 7749,
      "\u00e0\u00a4\u00be": 7750,
      "\u0120correctly": 7751,
      "\u0120votes": 7752,
      "\u0120radiation": 7753,
      "\u0120contribute": 7754,
      "993": 7755,
      "\u0120vert": 7756,
      "\u0120infrast": 7757,
      "992": 7758,
      "oured": 7759,
      "\u0120Christians": 7760,
      "\u0120dish": 7761,
      "\u0120Word": 7762,
      "\u0120cryst": 7763,
      "\u0120\u00d7": 7764,
      "chi": 7765,
      "\u0120Dam": 7766,
      "\u0120fur": 7767,
      "\u0120emergency": 7768,
      "etary": 7769,
      "\u0120refers": 7770,
      "\u0120penal": 7771,
      "umes": 7772,
      "\u0120inject": 7773,
      "\u0120arbit": 7774,
      "vi": 7775,
      "ports": 7776,
      "\u0120*/": 7777,
      "\u0120rising": 7778,
      "\u0120consumers": 7779,
      "CD": 7780,
      "91": 7781,
      "\u0120behaviour": 7782,
      "\u0120Henry": 7783,
      "\u0120Space": 7784,
      "\u0120spaces": 7785,
      "ulating": 7786,
      "\u0120tea": 7787,
      "sole": 7788,
      "awn": 7789,
      "\u0120murd": 7790,
      "onents": 7791,
      "\u0120HT": 7792,
      "\u0120dil": 7793,
      "\u0120Minister": 7794,
      "\u0120warning": 7795,
      "\u0120Person": 7796,
      "\u0120$(": 7797,
      "\u0120Jun": 7798,
      "itative": 7799,
      "\u0120brill": 7800,
      "\u0120superior": 7801,
      "\u0120dynamic": 7802,
      "\u0120Carol": 7803,
      "\u0120shel": 7804,
      "cond": 7805,
      ".~\\": 7806,
      "TR": 7807,
      "bd": 7808,
      "\u0120violent": 7809,
      "\u0120beer": 7810,
      "\u0120Has": 7811,
      "\u0120responses": 7812,
      "\u0120Way": 7813,
      "\u0120divided": 7814,
      "earing": 7815,
      "agement": 7816,
      "BN": 7817,
      "normal": 7818,
      "\u0120persons": 7819,
      "\u0120guilty": 7820,
      "\u0120pit": 7821,
      "\u0120updated": 7822,
      "\u0120DC": 7823,
      "viously": 7824,
      "\u0120estimate": 7825,
      "\u0120permission": 7826,
      "\u0120Disc": 7827,
      "\u0120eggs": 7828,
      "\u0120Mount": 7829,
      "\u0120honor": 7830,
      "\u0120shout": 7831,
      "fall": 7832,
      "None": 7833,
      "\u0120proved": 7834,
      "\u0120Empire": 7835,
      "rior": 7836,
      "\u0120exhaust": 7837,
      "\u0120silence": 7838,
      "\u0120hal": 7839,
      "Trans": 7840,
      "\u0120inev": 7841,
      "uilding": 7842,
      "\u0120Polit": 7843,
      "osa": 7844,
      "\u0120reduction": 7845,
      "\u0120nic": 7846,
      "ersion": 7847,
      "\u0120Put": 7848,
      "\u0120resc": 7849,
      "itionally": 7850,
      "lled": 7851,
      "\u0120cha": 7852,
      "\u0120criter": 7853,
      "\u0120friendly": 7854,
      "\u0120translation": 7855,
      "\u0120tonight": 7856,
      "\u00d1\u0125": 7857,
      "agan": 7858,
      "\u0120Fil": 7859,
      "langle": 7860,
      "unning": 7861,
      "erver": 7862,
      "\u0120western": 7863,
      "\u0120parad": 7864,
      "Delta": 7865,
      "\u0120successfully": 7866,
      "\u0120Federal": 7867,
      "\u0120ordinary": 7868,
      "ima": 7869,
      "\u0120donations": 7870,
      "\u00e2\u0122\u013b,": 7871,
      "\u0120repair": 7872,
      "93": 7873,
      "\u0120Down": 7874,
      "---": 7875,
      "\u0120edition": 7876,
      "\u0120radical": 7877,
      "\u0120vessel": 7878,
      "\u0120Retrieved": 7879,
      "\u0120Lo": 7880,
      "hus": 7881,
      "\u0120difficulty": 7882,
      "\u0120NY": 7883,
      "\u0120electricity": 7884,
      "****************": 7885,
      "\u0120vehicles": 7886,
      "ocolate": 7887,
      "\u0120Group": 7888,
      "\u0120zone": 7889,
      "itis": 7890,
      "\u0120recovery": 7891,
      "\u0120Saturday": 7892,
      "\u0120lun": 7893,
      "\u0120household": 7894,
      "\u0120Chapter": 7895,
      "\u0120pub": 7896,
      "\u0120capture": 7897,
      "\u0120complain": 7898,
      "\u0120parallel": 7899,
      "user": 7900,
      "\u0120gang": 7901,
      "weight": 7902,
      "\u0120Play": 7903,
      "nergy": 7904,
      "\u0120confirm": 7905,
      "\u0120signals": 7906,
      "\u0120victory": 7907,
      "American": 7908,
      "\u0120Should": 7909,
      "\u0120doors": 7910,
      "kind": 7911,
      "mann": 7912,
      "cerning": 7913,
      "\u0120Louis": 7914,
      "\u0120underlying": 7915,
      "\u0120clinical": 7916,
      "\u0120protected": 7917,
      "\u0120nodded": 7918,
      "\u0120interpretation": 7919,
      "\u0120locations": 7920,
      "\u0120ought": 7921,
      "\u0120inhib": 7922,
      "76": 7923,
      "oty": 7924,
      "\u0120Mu": 7925,
      "\u0120depos": 7926,
      "\u0120Without": 7927,
      "\u0120rapidly": 7928,
      "\u0120Set": 7929,
      "ials": 7930,
      "\u0120Supreme": 7931,
      "ifted": 7932,
      "\u0120Dar": 7933,
      "\u0120Ah": 7934,
      "\u0120fiction": 7935,
      "\u0120Jones": 7936,
      "jpg": 7937,
      "cline": 7938,
      "esis": 7939,
      "\u0120Ron": 7940,
      "\u0120operate": 7941,
      "ira": 7942,
      "\u0120orient": 7943,
      "\u0120wanting": 7944,
      "astern": 7945,
      "FL": 7946,
      "\u0120steel": 7947,
      "\u0120panel": 7948,
      "\u0120incredibly": 7949,
      "\u0120annual": 7950,
      "\u0120neighborhood": 7951,
      "\u0120width": 7952,
      "\u0120settings": 7953,
      "icy": 7954,
      "\u0120engineering": 7955,
      "\u0120revenue": 7956,
      "\u0120talks": 7957,
      "\u0120spir": 7958,
      "%.": 7959,
      "\u0120nearby": 7960,
      "ourse": 7961,
      "lie": 7962,
      "\u0120subjects": 7963,
      "991": 7964,
      "\u0120branch": 7965,
      "\u0120Table": 7966,
      "rated": 7967,
      "\u0120instructions": 7968,
      "\u0120controls": 7969,
      "\u0120\u00c2\u00a3": 7970,
      "\u0120magnetic": 7971,
      "\u0120controvers": 7972,
      "\u0120expansion": 7973,
      "\u0120lucky": 7974,
      "\u0120Latin": 7975,
      "81": 7976,
      "prise": 7977,
      "\u0120wid": 7978,
      "\u0120curious": 7979,
      "\u0120yours": 7980,
      "\u0120bottle": 7981,
      "\u0120particles": 7982,
      "\u0120Mur": 7983,
      "\u0120describes": 7984,
      "\u0120menu": 7985,
      "emporary": 7986,
      "\u0120represented": 7987,
      "\u0120narrative": 7988,
      "\u0120Pot": 7989,
      "\u0120Island": 7990,
      "\u0120Association": 7991,
      "\u0120theoret": 7992,
      "\u0120carrier": 7993,
      "\u0120connections": 7994,
      "hfil": 7995,
      "\u0120Kim": 7996,
      "\u0120pushing": 7997,
      "\",\"": 7998,
      "\u0120fluid": 7999,
      "vo": 8000,
      "OK": 8001,
      "gressive": 8002,
      "string": 8003,
      "\u0120laun": 8004,
      "his": 8005,
      "\u0120Fed": 8006,
      "\u0120lesson": 8007,
      "\u0120chicken": 8008,
      "AY": 8009,
      "iah": 8010,
      "\u0120mit": 8011,
      "\u0120continuous": 8012,
      "\u0120alter": 8013,
      "\u0120occas": 8014,
      "gage": 8015,
      "sem": 8016,
      "\u0120pipe": 8017,
      "\u0120thorough": 8018,
      "\u0120instant": 8019,
      "\u0120happiness": 8020,
      "\u0120cuts": 8021,
      "\u0120oxygen": 8022,
      "\u0120clock": 8023,
      "\u0120urban": 8024,
      "\u0120sword": 8025,
      "yles": 8026,
      "\u0120elected": 8027,
      "\u0120frustr": 8028,
      "\u0120loop": 8029,
      "\u0120discipl": 8030,
      "\u0120proven": 8031,
      "ront": 8032,
      "yal": 8033,
      "\u0120Pop": 8034,
      "\u0120Ep": 8035,
      "anes": 8036,
      "\u0120hence": 8037,
      "\u0120authorities": 8038,
      "erman": 8039,
      "urse": 8040,
      "PL": 8041,
      "\u0120receiving": 8042,
      "\u0120organized": 8043,
      "estyle": 8044,
      "\u0120drawing": 8045,
      "\u0120gre": 8046,
      "\u0120greatly": 8047,
      "organ": 8048,
      "\u0120payments": 8049,
      "\u0120Stand": 8050,
      "\u0120pul": 8051,
      "Big": 8052,
      "\u0120appeal": 8053,
      "Che": 8054,
      "elly": 8055,
      "\u0120champ": 8056,
      "\u0120fees": 8057,
      "\u0120awareness": 8058,
      "\u0120Mic": 8059,
      "boy": 8060,
      "\u0120Exper": 8061,
      "\u0120pron": 8062,
      "asts": 8063,
      "\u0120horm": 8064,
      "\u0120reducing": 8065,
      "\u0120TO": 8066,
      "82": 8067,
      "\u0120assumed": 8068,
      "\u0120estimated": 8069,
      "\u0120utter": 8070,
      "\u0120east": 8071,
      "\u0120Mont": 8072,
      "83": 8073,
      "\u0120Soviet": 8074,
      "gence": 8075,
      "inction": 8076,
      "index": 8077,
      "when": 8078,
      "\u0120surf": 8079,
      "ifer": 8080,
      "\u0120hypothes": 8081,
      "\u0120institution": 8082,
      "\u0120anybody": 8083,
      "\u0120dying": 8084,
      "\u0120Muslims": 8085,
      "\u0120enable": 8086,
      "\u0120voters": 8087,
      "\u0120infrastructure": 8088,
      "flow": 8089,
[...]
